{
  "Ġcoral": 24456,
  "Ġgroom": 21249,
  "ĠSidney": 28439,
  "iture": 9907,
  "ĠChance": 12051,
  "Ġfuels": 13776,
  "holes": 25256,
  "90": 4195,
  "Ġspies": 24275,
  "Ġblessing": 19232,
  "Ġsignificant": 2256,
  "nery": 29954,
  "ĠMund": 30788,
  "wik": 25007,
  "ĠInternational": 3654,
  "40": 2842,
  "ggy": 18091,
  "Ġcer": 25552,
  "Ġeuro": 10594,
  "Ġdime": 29206,
  "Ġmanifest": 9751,
  "atile": 12559,
  "ĠHast": 27397,
  "vik": 28837,
  "Ġconference": 3631,
  "Ġinev": 7709,
  "Ġsec": 742,
  "vironments": 11262,
  "g": 70,
  "Ġerupted": 18856,
  "Ġutil": 8078,
  "Ġvolatile": 19896,
  "ĠSki": 30973,
  "Ġow": 17640,
  "Ġexcuses": 21712,
  "U": 52,
  "Link": 20824,
  "ted": 989,
  "');": 26271,
  "ival": 2351,
  "Ġmoder": 6891,
  "Ġflee": 10695,
  "Ġlower": 2899,
  "prise": 7639,
  "heit": 25879,
  "xual": 6725,
  "Ġnet": 1810,
  "Ġsight": 7146,
  "uations": 5922,
  "Ġshapes": 14386,
  "Ġnegotiating": 14789,
  "Ġoxide": 30237,
  "wartz": 22165,
  "ĠFTC": 30251,
  "Ġbiased": 17915,
  "iblings": 17808,
  "Ġactivist": 8544,
  "ĠSU": 9714,
  "Ġ//": 5246,
  "utsche": 23632,
  "Ġ1918": 23801,
  "Ġhomeless": 8816,
  "ĠDwight": 24086,
  "Ġstatutes": 28461,
  "Ġinnocent": 9315,
  "Ġbodily": 22254,
  "ean": 9803,
  "ĠThree": 6177,
  "itis": 14011,
  "berger": 17625,
  "acted": 20071,
  "Ġwithhold": 21417,
  "Ġclarified": 23405,
  "oured": 7939,
  "Ġtaxi": 15368,
  "Ġsurn": 29870,
  "ĠHindus": 26826,
  "Ġpeasant": 31426,
  "Ġenvelope": 22266,
  "ĠHans": 10716,
  "Ġfirms": 7659,
  "ĠMartine": 15194,
  "Ġensl": 23681,
  "Ġunderstood": 6940,
  "ĠAid": 21850,
  "Ġtraveling": 10415,
  "Ġlatitude": 31569,
  "Ġoppression": 15724,
  "rep": 4891,
  "Ġlip": 13184,
  "Ġbegin": 2131,
  "ĠG": 365,
  "Ġbrow": 5443,
  "working": 14696,
  "ĠOracle": 18590,
  "Ġimmortal": 26974,
  "Ġpesticide": 31609,
  "Ġsqu": 2731,
  "iary": 11278,
  "Ġsing": 1604,
  "ĠBh": 12491,
  "ĠClay": 14274,
  "ĠDra": 14722,
  "ĠAntonio": 10097,
  "Ġchart": 6337,
  "Ġhus": 4551,
  "im": 280,
  "Ġregion": 3285,
  "umen": 21896,
  "ĠUsing": 7583,
  "ĠVote": 20230,
  "Young": 31577,
  "ĠLiver": 8321,
  "Ġmechanical": 12508,
  "ĠConsidering": 19671,
  "Ġprosecuting": 31533,
  "ĠIC": 11744,
  "df": 11013,
  "ĠOB": 23369,
  "Ġtops": 20943,
  "Ġgrow": 1466,
  ")[": 22386,
  "ĠMcLe": 28956,
  "Sign": 27882,
  "code": 11921,
  "ĠCre": 7759,
  "ĠRegardless": 14934,
  "Ġphenomenon": 9293,
  "Ġtiles": 21771,
  "uge": 1943,
  "Ġhij": 13706,
  "Ġreligion": 5194,
  "Ġassertion": 16867,
  "look": 5237,
  "Ġalienated": 31933,
  "Sam": 28751,
  "Ġmessages": 5861,
  "ĠHaz": 16681,
  "Ġilleg": 3677,
  "Ġworker": 7569,
  "Texas": 24202,
  "ĠMessi": 26594,
  "ĠAtt": 4158,
  "ĠPratt": 30116,
  "Ġreductions": 18341,
  "Ġprimitive": 20683,
  "ĠMystery": 27971,
  "Ġold": 1452,
  "Ġwedd": 9166,
  "uese": 16532,
  "ĠBrett": 16792,
  "iring": 3711,
  "Ġgases": 18566,
  "Ġpatch": 9113,
  "Ġvirtue": 16143,
  "Ġshirts": 19037,
  "ĠYorkers": 28258,
  "Ġcalmly": 31287,
  "ples": 2594,
  "Ġmotivation": 12273,
  "Ü": 150,
  "ĠSubscribe": 10555,
  "Ġdiscourage": 23381,
  "Ġconfir": 3662,
  "Ġequation": 15011,
  "Ġbenchmark": 17142,
  "verse": 4848,
  "agle": 18944,
  "light": 3185,
  "ĠÎ¼": 17789,
  "Ġresponses": 8832,
  "asses": 22273,
  "Ġ'": 1064,
  "ĠLithuania": 28379,
  "Ġ330": 29058,
  "Ġopening": 4237,
  "Ġdogs": 7131,
  "Ġ:": 1926,
  "ĠImagine": 12974,
  "Ġproliferation": 22421,
  "Ġliberation": 19000,
  "Russ": 11742,
  "ĠUPDATE": 14592,
  "Ġresulted": 7620,
  "icals": 26965,
  "ratory": 29533,
  "erve": 3599,
  "uccess": 11772,
  "Ġopting": 27636,
  "foo": 29928,
  "ĠPyrrha": 25361,
  "ĠNULL": 30346,
  "Ġkills": 13567,
  "falls": 20695,
  "Ġcrush": 19215,
  "If": 2976,
  "onic": 6972,
  "Ġcousins": 25941,
  "Ġadmiration": 26304,
  "Ġglaciers": 29913,
  "Ġrupt": 28830,
  "Ġidentical": 10933,
  "lessly": 8076,
  "Ġwrestling": 13334,
  "Ġplead": 28797,
  "Ġtouchdown": 8408,
  "Ġmodest": 11075,
  "atlantic": 31008,
  "Ġbrave": 13720,
  "itute": 3388,
  "ĠAnk": 19683,
  "zb": 12438,
  "boro": 20675,
  "Ġplayback": 14402,
  "ĠLac": 21785,
  "ichi": 22170,
  "Ġbaseman": 25608,
  "Ġ124": 27404,
  "lamm": 27821,
  "hire": 10547,
  "Ġbackpack": 21980,
  "Ġfinancing": 13059,
  "Ġstaffing": 29894,
  "site": 17477,
  "Ġapples": 21709,
  "Ġranc": 26754,
  "Ġsalute": 31505,
  "Ġthumbs": 30480,
  "aders": 9581,
  "iles": 3377,
  "650": 24562,
  "Ġcomprom": 7062,
  "oli": 10018,
  "xic": 7777,
  "Ġreprodu": 8416,
  "Ġformer": 1560,
  "ums": 6836,
  "ĠTypically": 23287,
  "ĠCamer": 6500,
  "inations": 7112,
  "Calif": 20286,
  "Ġintrigued": 28433,
  "Ġmere": 4936,
  "Ġpil": 5227,
  "Ġcr": 949,
  "allas": 6757,
  "ĠCreate": 14145,
  "Ġhomophobic": 27706,
  "Ó": 141,
  "rain": 2748,
  "ĠPackage": 29484,
  "Ġlam": 29201,
  "ĠRare": 16942,
  "sonian": 29367,
  "Ġtechn": 1389,
  "vard": 8584,
  "ĠCorn": 12418,
  "orically": 17157,
  "ru": 562,
  "Ġjer": 10508,
  "itely": 3801,
  "Ġbinary": 14698,
  "ĠAdvance": 26432,
  "Ġcapt": 2643,
  "Ġpint": 28411,
  "Ġtrajectory": 18963,
  "ĠSheldon": 28779,
  "aming": 3766,
  "Ġbul": 4831,
  "Ġcoming": 2065,
  "directed": 29187,
  "ĠBJP": 13300,
  "Ġrecovery": 7421,
  "Ġterritorial": 18796,
  "Ġguitars": 30805,
  "Ġbrace": 22058,
  "Ġ**": 9144,
  "static": 21925,
  "ĠDustin": 28552,
  "Ġthird": 2114,
  "aches": 3459,
  "Ġplotting": 25471,
  "Ġpunct": 19600,
  "Ġmeaningless": 20999,
  "Ġracket": 30683,
  "Ġscores": 8241,
  "S": 50,
  "Ġpurity": 25588,
  "ien": 1892,
  "Ġimpart": 20901,
  "Ġsubstantive": 24565,
  "ige": 11039,
  "Ġmodern": 3212,
  "Ġconvey": 14176,
  "ĠGir": 19702,
  "ĠBuilt": 26762,
  "hydro": 28190,
  "ĠPhilippines": 11122,
  "ĠVista": 25057,
  "ict": 665,
  "ĠDarwin": 17273,
  "hered": 5614,
  "Ġsigns": 5471,
  "Ġfundamental": 6537,
  "Ġcortex": 19594,
  "Ġdenounced": 19817,
  "ĠMilo": 27638,
  "Ġmanned": 28504,
  "ĠIsn": 21229,
  "Ġmarginalized": 24385,
  "Ġfilms": 5587,
  "Ġcrown": 12067,
  "Ġrecurring": 21373,
  "ĠMIT": 14518,
  "Ġpriorit": 17306,
  "Ġexploited": 17523,
  "Ġlava": 29694,
  "Kee": 31930,
  "Ġthirty": 13329,
  "Ġhurd": 16775,
  "ricks": 22556,
  "worthy": 16181,
  "ĠStatement": 26555,
  "ĠVideos": 17027,
  "Ġdata": 1326,
  "ĠAnalysts": 29300,
  "Ġfirearms": 11719,
  "ocations": 28032,
  "WS": 12370,
  "ĠNi": 10575,
  "Ġhalls": 21029,
  "Ġprol": 11984,
  "Client": 30677,
  "Ġsle": 3435,
  "iz": 499,
  "Ġvitamins": 31448,
  "Ġfaire": 29429,
  "Ġqualifications": 25499,
  "Ġproceeded": 18542,
  "Ġtemptation": 27085,
  "Ġsoutheastern": 31109,
  "Ġlabor": 4555,
  "Ġalerted": 22999,
  "Mike": 23782,
  "along": 21754,
  "Ġobscure": 16803,
  "Ġexecuting": 22699,
  "ĠKad": 26141,
  "ĠInte": 3854,
  "Ġcore": 4213,
  "ĠDanish": 17025,
  "Ġdrawing": 7869,
  "Ġsimultaneous": 27468,
  "ĠHung": 10479,
  "Ġlake": 12853,
  "gender": 6919,
  "uscript": 15778,
  "Ġeat": 4787,
  "96": 8067,
  "ĠBolshe": 28480,
  "Ġimages": 4161,
  "Ġvivid": 19605,
  "Ń": 211,
  "ĠGund": 24310,
  "acles": 10404,
  "ports": 3452,
  "Ġborrow": 7824,
  "Ġnerv": 9942,
  "ults": 12147,
  "oles": 3960,
  "ĠBacon": 26346,
  "luding": 6675,
  "FR": 21534,
  "Ġany": 587,
  "Ġheroic": 21505,
  "piring": 31144,
  "Ġfarther": 17889,
  "ĠMarcos": 28473,
  "bedroom": 28768,
  "Ġlegislature": 12894,
  "div": 9678,
  "Ġunequ": 18742,
  "acular": 12280,
  "Ang": 20203,
  "ysics": 24293,
  "Ġaudiences": 12154,
  "Ġcryptocur": 12833,
  "mercial": 16609,
  "ĠRedskins": 17159,
  "empt": 17616,
  "Ġdise": 3747,
  "arts": 14910,
  "lot": 26335,
  "ĠSection": 10520,
  "office": 29328,
  "ĠKepler": 29590,
  "Ġfastest": 12274,
  "ĠWu": 19555,
  "ĠKO": 24043,
  "Ġprosecut": 5391,
  "Ġ].": 29311,
  "ĠZoe": 31679,
  "ĠWIN": 28584,
  "Ġheadphones": 21864,
  "Ġphilosophical": 15642,
  "var": 13365,
  "Ġsaw": 2323,
  "ĠStat": 7825,
  "Es": 22347,
  "poon": 27758,
  "ĠZur": 29547,
  "ĠThomson": 24691,
  "ĠClose": 13743,
  "cell": 4212,
  "Ġvaluation": 27681,
  "ler": 1758,
  "Ġlandlords": 25759,
  "Ġwhereas": 9595,
  "ĠArrow": 20004,
  "ĠLamp": 28091,
  "Ġfriction": 23156,
  "Ġstumble": 30932,
  "Ġcollaps": 10105,
  "ĠIL": 15432,
  "Ġappend": 22892,
  "Ġplayers": 1616,
  "ĠTex": 3030,
  "ulin": 15460,
  "ocese": 24794,
  "×": 145,
  "gery": 6838,
  "Ġdare": 17209,
  "Ġbubbles": 23250,
  "ople": 546,
  "ĠEd": 2020,
  "Ġmechanisms": 11710,
  "Force": 20698,
  "Ġseism": 25427,
  "ĠYPG": 31618,
  "Ġcamoufl": 29270,
  "ĠGold": 3774,
  "Ġmetallic": 28714,
  "Ġdevelopers": 5126,
  "Bron": 17404,
  "verts": 22602,
  "Ġred": 2434,
  "Ġbuilding": 2285,
  "tem": 1203,
  "Ġunderwent": 21178,
  "Ġenough": 1483,
  "ĠJam": 8510,
  "aline": 22030,
  "GE": 10772,
  "Ġrewards": 11678,
  "Ġdigit": 15898,
  "Ġdividend": 30915,
  "Ġdeficit": 9042,
  "ĠContrary": 29354,
  "ĠWithin": 10571,
  "ĠGaddafi": 21576,
  "ĠHulk": 24778,
  "Ġlatency": 24896,
  "Ġsn": 3079,
  "Ġpoisoning": 21982,
  "Har": 21322,
  "ĠPizza": 22407,
  "Ġnuclear": 3554,
  "Ġyours": 14254,
  "ĠLEG": 21699,
  "Ġprevail": 25408,
  "Ġo": 223,
  "Ġinto": 606,
  "ĠOrder": 10009,
  "Ġproduce": 4200,
  "umbling": 13552,
  "Ġminority": 7661,
  "Ġguidelines": 9649,
  "Ġreverse": 9340,
  "Ġchemicals": 11669,
  "asks": 6828,
  "keeping": 17827,
  "Ġgoverned": 21105,
  "Ġbooming": 24546,
  "Ġfund": 1555,
  "Ġmisuse": 26339,
  "intend": 7066,
  "Ġscen": 4013,
  "elling": 16050,
  "Ġversatile": 21045,
  "ĠExperts": 20491,
  "ĠPodesta": 22027,
  "ighed": 12842,
  "Ġcomply": 13052,
  "ĠClient": 27506,
  "Ġchemotherapy": 28949,
  "Ġvote": 2397,
  "itz": 4816,
  "Ġ2002": 6181,
  "ĠSilicon": 14086,
  "ayan": 20073,
  "Ġproductivity": 11628,
  "Ġinvestigating": 8517,
  "pered": 13944,
  "ĠAFP": 11217,
  "uc": 1144,
  "ĠElvis": 26573,
  "Ġorigins": 13815,
  "Ġfrequ": 3723,
  "Ġemployers": 10196,
  "lett": 14126,
  "Ġdischarged": 25469,
  "Ġcharacteristic": 17164,
  "Ġbattleground": 26431,
  "{{": 30553,
  "Ġcompel": 30476,
  "ĠDais": 31765,
  "Ġhesitate": 23618,
  "Ġreset": 13824,
  "ĠMovies": 30041,
  "comings": 25058,
  "Ġmanufacturers": 10247,
  "ĠAnswer": 25638,
  "Ġnews": 1327,
  "Ġstored": 9412,
  "Ġ________________________________": 27743,
  "ĠPalestine": 13918,
  "Ġmorale": 26207,
  "ferential": 31876,
  "Ġsystems": 3097,
  "Per": 12993,
  "Ġdecks": 13366,
  "liga": 27540,
  "inges": 23634,
  "ĠMorm": 11134,
  "ĠTerran": 30538,
  "ĠStones": 27451,
  "DM": 23775,
  "ICK": 15035,
  "Ġmundane": 26843,
  "Ġyard": 12225,
  "Ġdiscretion": 16535,
  "Ġbloom": 22715,
  "Ġclubs": 7819,
  "Ġtoast": 26758,
  "Ġsuburbs": 16464,
  "Ġket": 18563,
  "ĠSoy": 28438,
  "Ġspur": 22523,
  "ĠJohnson": 4144,
  "ĠAmsterdam": 21116,
  "Ġmysteries": 24943,
  "Ġ104": 20262,
  "ĠEmploy": 12713,
  "Ġallegations": 5980,
  "Ġmoments": 6407,
  "ĠPalestinians": 9447,
  "Ne": 9941,
  "Ġconcentrate": 18815,
  "Ġbags": 11243,
  "Ġcompetition": 4530,
  "European": 22223,
  "Ġnewborn": 22831,
  "history": 31131,
  "Ġrevolutions": 31463,
  "So": 5789,
  "Kit": 22546,
  "ĠFootball": 8647,
  "Ġedited": 13160,
  "ulatory": 21250,
  "ĠKier": 29255,
  "ĠWoody": 30098,
  "Ġcleaning": 13209,
  "Ġsuspend": 21017,
  "ĠLove": 6642,
  "Ã¨": 10693,
  "Ġtourn": 5460,
  "hen": 810,
  "onda": 21033,
  "Sur": 25280,
  "ãģ£": 25865,
  "ãĤ¹": 30451,
  "sl": 8873,
  "ĠCounty": 3053,
  "Ġvan": 5879,
  "ĠBul": 9934,
  "ĠMetro": 10064,
  "Ġcorrupt": 10096,
  "Ġuncomfortable": 11654,
  "Ġpresentations": 24831,
  "ĠBiology": 26420,
  "Ġgenerosity": 27621,
  "ĠDefend": 27980,
  "Ġfasting": 29296,
  "Ġprotesters": 6862,
  "ĠPlatinum": 30416,
  "Ġneighbors": 10141,
  "Ġ2009": 3132,
  "ews": 16336,
  "Ġfiring": 9157,
  "Ġwrit": 1323,
  "ĠPride": 17646,
  "iÃ³n": 18460,
  "ĠAriel": 30742,
  "avez": 21606,
  "Ġarchitecture": 9524,
  "ley": 1502,
  "edition": 28352,
  "php": 14260,
  "ĠYaz": 28442,
  "Ġtalks": 5003,
  "ĠJackson": 5469,
  "Ġchat": 7470,
  "Ġcrore": 17210,
  "Ġnotions": 22816,
  "mega": 19002,
  "ĠOsborne": 21179,
  "Ġprecursor": 30003,
  "Ġinj": 2315,
  "Ġconfuse": 25884,
  "Ġsidelined": 29528,
  "Ġoutlets": 9998,
  "Ġmedia": 1622,
  "uman": 3991,
  "Ġdeliber": 7910,
  "ĠJane": 10647,
  "Par": 19378,
  "ket": 5595,
  "Ġmoons": 26455,
  "Ġuncont": 26636,
  "aukee": 12849,
  "ologies": 5223,
  "ĠStarbucks": 19120,
  "ĠNegro": 27742,
  "ĠRaleigh": 28061,
  "Ġadvocated": 20079,
  "ountain": 20913,
  "Ġhen": 29710,
  "Ġinterviewing": 25566,
  "ĠSaudis": 25076,
  "work": 1556,
  "ĠStevenson": 31458,
  "Ġgay": 4642,
  "Ġanybody": 8265,
  "ĠDaily": 5508,
  "Ġinstead": 2363,
  "Ġseat": 5603,
  "121": 27842,
  "Ġprep": 3023,
  "ĠBrigade": 23277,
  "Ġextensive": 7093,
  "ibility": 2181,
  "Ġvolunt": 11170,
  "imen": 19418,
  "kowski": 20819,
  "anamo": 23346,
  "Ġcomparing": 13053,
  "Ġpushes": 18519,
  "Ġfees": 6934,
  "Ġparallel": 10232,
  "Ã©s": 13234,
  "Ġrecommend": 4781,
  "venge": 30323,
  "Ġdivorce": 13028,
  "Ġintimidating": 25175,
  "Ġdull": 20544,
  "Ġthro": 11858,
  "Ġclassrooms": 26178,
  "ĠFacts": 27258,
  "uu": 22544,
  "mis": 22630,
  "âĶĢâĶĢ": 11424,
  "ĠMedicine": 12074,
  "oldown": 21213,
  "Ġ122": 26519,
  "ĠHang": 22659,
  "ĠXX": 26934,
  "Ġsystemic": 19191,
  "Ġconsult": 5309,
  "Em": 17747,
  "ĠContact": 12752,
  "Ġinstitutions": 5764,
  "ĠTh": 455,
  "ĠPretty": 19783,
  "Ġgrain": 13595,
  "Ġdiscovers": 27160,
  "age": 462,
  "viron": 2043,
  "HP": 16582,
  "ĠTucson": 29927,
  "Ġmistakenly": 27998,
  "Ġcommitting": 15189,
  "Ġlunar": 21005,
  "Ġadvocacy": 12116,
  "Ġmound": 28192,
  "Ġbeef": 11774,
  "ĠDemp": 29076,
  "enary": 23186,
  "Ġadvances": 13151,
  "ĠBush": 4090,
  "Ġfost": 20182,
  "ission": 1463,
  "lymp": 5497,
  "Ġshouldn": 5884,
  "Ġfulfilling": 23337,
  "major": 19374,
  "ĠDual": 25189,
  "ĠVor": 28043,
  "Ġspray": 11580,
  "Ġpoured": 18011,
  "ogene": 21577,
  "Ġschools": 3639,
  "ĠPyrr": 24123,
  "Ġculmin": 19420,
  "Ġgeography": 23336,
  "jah": 30418,
  "Ġnew": 556,
  "Ġgut": 11391,
  "Ġreflective": 26517,
  "Ġ57": 9952,
  "Ġtoy": 13554,
  "ĠAnkara": 21485,
  "Ġbrutally": 25489,
  "),[": 30466,
  "Ġcondem": 7005,
  "Ġnep": 22183,
  "133": 27183,
  "supp": 12570,
  "Ġforgiveness": 25603,
  "Ġaction": 2236,
  "arius": 21923,
  "ozy": 24339,
  "Ġglad": 9865,
  "Ġappearances": 9005,
  "Ġeffectively": 5997,
  "ĠInterior": 15998,
  "Ġmultitude": 24706,
  "ĠBird": 14532,
  "Ġwarming": 7532,
  "irs": 11572,
  "ĠVIP": 24214,
  "ĠTow": 21031,
  "ornings": 23445,
  "\":\"": 10351,
  "IAN": 25284,
  "],\"": 27827,
  "ĠCro": 8859,
  "Ġuncons": 14175,
  "ographers": 28540,
  "Ġpotentially": 5356,
  "Ġreconsider": 23266,
  "Ġrepeatedly": 6598,
  "Ġmis": 2832,
  "Ġinside": 2645,
  "Ġmatches": 6876,
  "Ġconcentration": 10997,
  "Ġescaped": 13779,
  "ĠParish": 29881,
  "ĠHour": 21323,
  "Ġslows": 31172,
  "porting": 20529,
  "hers": 1865,
  "Ġwent": 1646,
  "ĠPoland": 10586,
  "Ġbacks": 10984,
  "Ġpedal": 28357,
  "idency": 7453,
  "ĠIf": 910,
  "Ġpole": 15617,
  "Ġweighted": 27199,
  "Ġdysfunctional": 30051,
  "Ġhorsepower": 30545,
  "Ġscrutiny": 11596,
  ".âĢľ": 13353,
  "roit": 6331,
  "Ġmissile": 8554,
  "Ġconsequ": 4654,
  "Ġlandsc": 21612,
  "Ġdinner": 7972,
  "During": 20843,
  "Ġexercise": 5994,
  "Ġfrust": 5704,
  "Ġdeploy": 5207,
  "ĠRaf": 15655,
  "roid": 3891,
  "Ġrecap": 24233,
  "patch": 19885,
  "ĠAlberta": 12261,
  "Ġretailer": 18650,
  "Ġbye": 29275,
  "ï": 169,
  "small": 21954,
  "ption": 1450,
  "Ġresigned": 12454,
  "estival": 5768,
  "ĠCrus": 20869,
  "ĠMot": 6174,
  "Ġjur": 8551,
  "Ġeffectiveness": 14156,
  "ettes": 22587,
  "Ġdeduction": 26987,
  "Ġexclusives": 27330,
  "Ġparcel": 23532,
  "ĠMatrix": 27082,
  "ĠBoyle": 28612,
  "ĠStarCraft": 27896,
  "77": 5988,
  "****************": 15741,
  "elli": 25468,
  "ĠSimilarly": 11832,
  "ĠIan": 11367,
  "Ġintimacy": 29971,
  "Ġdamaged": 9720,
  "da": 7423,
  "ocket": 6460,
  "ĠJudaism": 22272,
  "Ġperforms": 18261,
  "Ġwelcomed": 12680,
  "Ġadjustments": 17294,
  "eto": 29518,
  "Ġconvinc": 13543,
  "Ġdiscourse": 15441,
  "Ġactivity": 3905,
  "Ġmodeling": 20134,
  "Ķ": 198,
  "ĠLeo": 19511,
  "Ġyog": 27482,
  "ĠDawkins": 28713,
  "ĠPerman": 29467,
  "ins": 1029,
  "Ġinspect": 9771,
  "Ġimpunity": 29264,
  "Ġpass": 1145,
  "âĢ³": 11849,
  "Ġdetermines": 20153,
  "Ġmotto": 27497,
  "Ġgraffiti": 22748,
  "ĠFlor": 3769,
  "ĠKore": 2950,
  "ĠSoph": 19013,
  "ĠPark": 2991,
  "ĠFestival": 9742,
  "Ġsuited": 15954,
  "Ġmanipulate": 17671,
  "ced": 735,
  "ĠByz": 30555,
  "aternal": 15509,
  "Ġensuring": 11750,
  "Ġinflated": 26578,
  "Ġsticky": 25090,
  "ĠNative": 11341,
  "Ġparticipate": 7750,
  "Ġalleviate": 25975,
  "?": 30,
  "Hz": 9772,
  "Ġpecul": 20013,
  "y": 88,
  "ĠCollege": 4895,
  "ICE": 11823,
  "Ġorn": 24806,
  "ĠCN": 30459,
  "Ġimpression": 9859,
  "ember": 2562,
  "Ġwhistlebl": 18113,
  "Ġwild": 4122,
  "ĠWorst": 27478,
  "current": 19884,
  "ained": 1469,
  "Ġdefects": 23567,
  "Ġyoungsters": 25084,
  "izers": 16157,
  "Ġsubsequ": 6005,
  "ille": 8759,
  "Ġturbines": 24757,
  "Ġmajority": 3170,
  "Ġring": 6645,
  "âĢĿ,": 3957,
  "Ġinex": 11226,
  "Ġmerger": 19320,
  "ĠHannity": 22697,
  "Ġwording": 25799,
  "asa": 15503,
  "Ġorganizer": 21719,
  "Ġ@": 2585,
  "Ġinappropriate": 13928,
  "ĠAMY": 19062,
  "ĠMagic": 9232,
  "ĠSporting": 23849,
  "ĠPenn": 5590,
  "ĠCourt": 2826,
  "nails": 31470,
  "cliffe": 30461,
  "OC": 6408,
  "AL": 2981,
  "Ġaggravated": 22238,
  "ĠQuran": 26481,
  "don": 9221,
  "kick": 23207,
  "uct": 4942,
  "Ġlasers": 31704,
  "Ġsecrecy": 18586,
  "Ġnames": 3969,
  "USH": 28665,
  "ĠNFC": 18663,
  "ĠMotor": 11386,
  "Ġbitcoins": 21133,
  "Ġprolonged": 19641,
  "ĠMinneapolis": 16141,
  "abytes": 31267,
  "less": 1221,
  "normal": 13220,
  "Ġpump": 7934,
  "Ġselections": 25576,
  "Ent": 27802,
  "Ġupon": 3031,
  "Ġgreenhouse": 12657,
  "ructive": 12926,
  "Ġequity": 12659,
  "Ġreceive": 3485,
  "Ġhell": 6027,
  "ĠWik": 6267,
  "Ġunlock": 15567,
  "enth": 7927,
  "Ġcent": 1094,
  "pan": 6374,
  "Ġgenerous": 13034,
  "Ġrip": 17869,
  "ĠPier": 12943,
  "save": 27219,
  "ĠSea": 6998,
  "Ġbounced": 26774,
  "ea": 25586,
  "psych": 24858,
  "Ġlump": 27841,
  "8": 23,
  "Ġfracture": 31354,
  "policy": 30355,
  "next": 25111,
  "God": 15635,
  "ocking": 5437,
  "ĠMatter": 15622,
  "ª": 103,
  "Ġlegalization": 16221,
  "ĠTSA": 22124,
  "sq": 31578,
  "ĠSpeaker": 11651,
  "ĠInstitutes": 29406,
  "Ġrecept": 11693,
  "Ġherbs": 27634,
  "bourg": 21851,
  "AY": 9040,
  "Ġsuicides": 27266,
  "Ġincub": 22606,
  "ĠDT": 22926,
  "Ġcrews": 15472,
  "ĠPoint": 7724,
  "Ġtheaters": 15591,
  "Ġprohibiting": 27544,
  "Ġhurricane": 18809,
  "ĠCastro": 16265,
  "Ġsmartphone": 9310,
  "IGHT": 14959,
  "ĠMW": 22731,
  "ĠAnalysis": 14432,
  "Ġdeliberate": 16469,
  "Ġcrafted": 18534,
  "amera": 19762,
  "Ġclone": 21597,
  "Ġoak": 28533,
  "ĠCock": 28917,
  "ãĢĤ": 14726,
  "PP": 8926,
  "Ġchapters": 18043,
  "Ġgarage": 14360,
  "Ġrebell": 13946,
  "Ġfrequencies": 21075,
  "®": 106,
  "Ġthings": 1154,
  "Ġgram": 30688,
  "Ġtowns": 10148,
  "Ġnorm": 2800,
  "ĠHers": 22560,
  "ĠCommerce": 14531,
  "Ġhire": 9939,
  "tag": 19343,
  "ĠHay": 7676,
  "olving": 10042,
  "ĠHigher": 20221,
  "ĠHyde": 25890,
  "Ġremix": 29276,
  "Ġmisleading": 14183,
  "Ġprostate": 30303,
  "Ġrightly": 19456,
  "ĠKejriwal": 31040,
  "Ġattacked": 6839,
  "Ġomn": 22015,
  "Ġbacking": 9824,
  "Ġstairs": 18218,
  "Ġadvertisement": 11388,
  "ve": 262,
  "izont": 14253,
  "Ġsteals": 24962,
  "Day": 17900,
  "Ġmalaria": 28233,
  "Ġmurderer": 27054,
  "mu": 30061,
  "Ġtimed": 27722,
  "Ġoverlooking": 29891,
  "bs": 1536,
  "Ġappreci": 5549,
  "Ġunlimited": 14319,
  "Ġ1964": 15636,
  "ĠSun": 3943,
  "Ġimpover": 23943,
  "achine": 25598,
  "Ġdecreases": 22752,
  "Ġinstrumental": 17787,
  "ĠJapan": 2647,
  "Ġads": 7439,
  "Ġpsychiatric": 18870,
  "ĠReign": 31557,
  "ĠNASA": 6576,
  "ĠKasich": 17479,
  "Ġ2000": 4842,
  "ĠFerguson": 11820,
  "Ġcomforting": 31016,
  "Ġancestors": 17629,
  "ĠWoman": 13700,
  "ĠNumbers": 27263,
  "ading": 4850,
  "ĠLocation": 17771,
  "Ġdelete": 15875,
  "ĠKiss": 19962,
  "portation": 9631,
  "sic": 18643,
  "350": 17574,
  "ĠNapoleon": 27307,
  "Ġendorsement": 15145,
  "Ġcelebrate": 9320,
  "ĠWitch": 22432,
  "ĠC": 288,
  "Ġwebs": 2469,
  "ĠMississippi": 11473,
  "Ġupper": 7311,
  "Ġwallets": 25269,
  "arently": 11889,
  ">": 29,
  "ĠEntertainment": 10648,
  "ĠMis": 15276,
  "Ġsacrifice": 12096,
  "Ġjewel": 18029,
  "Ġcharac": 1610,
  "146": 31580,
  ".\"[": 7265,
  "Ġnails": 24707,
  "ĠVale": 28807,
  "Ġ131": 30306,
  "Ġlights": 7732,
  "Ġvoters": 3346,
  "Ġpaired": 18669,
  "Ġfrustration": 11892,
  "ĠOL": 20035,
  "%)": 6637,
  "itter": 9100,
  "ĠSchne": 17563,
  "ĠOt": 14447,
  "ĠN": 353,
  "Ġresonance": 27987,
  "leen": 17320,
  "ĠMyster": 19800,
  "Ġflaw": 7965,
  "Ġappalling": 26683,
  "igmat": 31869,
  "Don": 4709,
  "ers": 319,
  "Ġpumps": 26862,
  "anged": 5663,
  "Ġenem": 3923,
  "Ġre": 260,
  "1993": 30423,
  "tech": 11375,
  "Ġdiagnosis": 14214,
  "fig": 12691,
  "mem": 16289,
  "isting": 11631,
  "Ġarticle": 2503,
  "resident": 9136,
  "agher": 24417,
  "Ġpolitician": 11106,
  "Ġdumping": 24736,
  "Ġarising": 26125,
  "Ġber": 15963,
  "olute": 3510,
  "Ġmanufacturer": 12406,
  "ĠUSC": 17393,
  "pres": 17704,
  "Ġtasked": 18071,
  "aunting": 19328,
  "anish": 6616,
  "ĠWAS": 22890,
  "Ġdice": 18908,
  "Ġtask": 4527,
  "ĠHig": 14715,
  "tim": 22818,
  "DO": 23505,
  "src": 21572,
  "SC": 12042,
  "Ġcontroller": 11265,
  "ĠSenate": 2998,
  "ĠNOW": 20389,
  "Ġneeded": 2303,
  "EY": 16521,
  "Ġcraw": 27242,
  "Ġterribly": 19831,
  "Ġpict": 2787,
  "Ġbounce": 18564,
  "ĠSnyder": 17040,
  "Ġsurfaces": 18591,
  "ĠSh": 993,
  "Ġpivot": 28332,
  "Ġraises": 10901,
  "ĠTodd": 11407,
  "Ġprohibited": 13596,
  "ĠSpec": 25697,
  "ĠGrace": 17271,
  "isecond": 31814,
  "ĠGDP": 10208,
  "Ġpressures": 15994,
  "uru": 14029,
  "ĠRails": 25748,
  "ĠAndreas": 28335,
  "Ġpriced": 17927,
  "Ġpremie": 21812,
  "ĠTank": 22608,
  "idan": 27616,
  "ĠLuke": 11067,
  "ĠDal": 10810,
  "hes": 958,
  "Ġplacing": 12229,
  "Ġcommitted": 4860,
  "ric": 1109,
  "ĠFlight": 14647,
  "ĠPrep": 19632,
  "ĠHawk": 25043,
  "ĠMac": 3775,
  "mo": 6958,
  "omet": 848,
  "fiction": 21873,
  "Ret": 24657,
  "Ġsurvives": 27824,
  "ĠBrothers": 14641,
  "ĠQuant": 19515,
  "Ġdisappearance": 20777,
  "Ġwidely": 5643,
  "Ġpersistence": 27566,
  "Ġplanted": 17587,
  "Ġwa": 2099,
  "ĠNom": 21094,
  "uled": 21689,
  "quez": 18062,
  "ĠProgramming": 29139,
  "Ġinvestor": 13559,
  "Ġstay": 2475,
  "Ġseven": 3122,
  "Ġhttps": 4770,
  "Ġerad": 19673,
  "Ġfifth": 7102,
  "Ġyoung": 1650,
  "veland": 8225,
  "Ġentitled": 9101,
  "ovych": 29842,
  "Ġeve": 23607,
  "Ġofficials": 2174,
  "Ġreconst": 13092,
  "ĠAbr": 17276,
  "osion": 18417,
  "ĠSpurs": 14141,
  "Ġcompany": 1367,
  "ĠGuant": 18929,
  "ĠSpin": 26415,
  "Ġdatas": 17822,
  "Ġlaundering": 22495,
  "Ġacceler": 7766,
  "ÙĨ": 17569,
  "Ġcommittee": 4508,
  "Ġmaturity": 23877,
  "Ġpracticed": 18016,
  "Ġdowns": 18035,
  "wiki": 25862,
  "mine": 4210,
  "ĠBlackhawks": 27877,
  "ADE": 30017,
  "Ġsystematically": 22097,
  "ĠStern": 19289,
  "atility": 17111,
  "kinson": 21891,
  "draw": 25727,
  "Ġmaintained": 9352,
  ")?": 20660,
  "AST": 15322,
  "Ġ450": 20830,
  "Ġnearly": 2621,
  "ĠPepsi": 31860,
  "Ġsignific": 2072,
  "ĠAlexander": 8656,
  "ĠHood": 18712,
  "Ġtoilets": 26780,
  "Ġmetic": 26659,
  "Ġhistorically": 12219,
  "ĠRELATED": 16804,
  "Ïĥ": 27386,
  "Ġtape": 8897,
  "Ġgenerate": 7269,
  "Ġauth": 5909,
  "Ġfoundations": 17348,
  "ĠMDMA": 31642,
  "ished": 1257,
  "Ġarmour": 25151,
  "ĠTexas": 3309,
  "ĠPradesh": 19670,
  "ipp": 4079,
  "ĠWomen": 6305,
  "Ġstub": 17278,
  "angling": 24171,
  "Ġforfeiture": 30669,
  "¯": 107,
  "Ġunited": 14709,
  "Ġincludes": 3411,
  "ĠResults": 16706,
  "ĠJoker": 25230,
  "ĠFam": 6201,
  "Ġbehind": 1953,
  "out": 406,
  "Ġreson": 12889,
  "illo": 13501,
  "Ġappet": 15867,
  "Ġbizarre": 11517,
  "Ġlocals": 14045,
  "ĠUT": 18567,
  "Ġglucose": 21621,
  "incinn": 12674,
  "Ġupgrade": 8898,
  "Ġnamed": 3280,
  "ĠChase": 15447,
  "Ġlobbied": 29507,
  "Ġprimarily": 7157,
  "Ġspeeding": 22457,
  "Ġ%": 7225,
  "ĠDakota": 12058,
  "Ġaverages": 22333,
  "ĠEle": 14318,
  "ĠBi": 9057,
  "adata": 17389,
  "Ġconfirmed": 4164,
  "armed": 11241,
  "Ġproxy": 15823,
  "ĠScout": 22942,
  "Ġheightened": 21285,
  "blems": 24165,
  "Ġreports": 2683,
  "Ġsav": 6277,
  "Ġappe": 2290,
  "ĠManitoba": 23375,
  "ashing": 1813,
  "Ġfunctioning": 14734,
  "ensual": 28284,
  "Ġexceeded": 19322,
  "take": 15996,
  "Ġelectrom": 25527,
  "Ġdevastation": 28317,
  "ĠAB": 12060,
  "111": 22763,
  "Ġcache": 15137,
  "Ġlift": 10299,
  "Ġdiscarded": 23958,
  "54": 7843,
  "Ġ1922": 29490,
  "Ġ280": 27764,
  "ural": 1441,
  "ĠTeams": 20298,
  "................................": 28222,
  "ttes": 12019,
  "ĠWritten": 18722,
  "Ġcholesterol": 22993,
  "Ġspinal": 26230,
  "ĠQC": 31447,
  "Ġangles": 18064,
  "Ġderail": 27360,
  "Ġdeviation": 28885,
  "Ġstare": 24874,
  "ĠFlore": 22414,
  "chy": 27106,
  "ĠAlto": 31078,
  "Ġhealth": 1423,
  "Ġprecisely": 9525,
  "ĠLl": 15291,
  "Ġlore": 25393,
  "c": 66,
  "xi": 29508,
  "ĠServ": 3521,
  "ĠBest": 5855,
  "Ser": 18124,
  "ĠERA": 15816,
  "ities": 811,
  "cientific": 24872,
  "Ġtoss": 11647,
  "ĠArmenian": 21698,
  "uddy": 22279,
  "cean": 5414,
  "ĠTotal": 9137,
  "Ġbrew": 7240,
  "Ġwindows": 9389,
  "Ġanchor": 16114,
  "Ġalthough": 3372,
  "Ġrepository": 17309,
  "';": 25046,
  "Ġinvoke": 25254,
  "Ġaccepted": 6097,
  "Ġdemonstrates": 14450,
  "female": 28746,
  "Ġschol": 6368,
  "Ġredemption": 27920,
  "Ġtestosterone": 22756,
  "ĠJump": 23161,
  "Ġeccentric": 26242,
  "Space": 22492,
  "ĠDot": 19314,
  "intensive": 30526,
  "Ġfourteen": 28919,
  "Ġadversary": 30023,
  "ĠSecurity": 4203,
  "Ġautomotive": 24735,
  "Ġplanetary": 22526,
  "Ġthemselves": 2233,
  "ĠHM": 24447,
  "ĠJulius": 26607,
  "Ġhumans": 5144,
  "ĠPrest": 20578,
  "ĠStorage": 24144,
  "Ġdifficult": 2270,
  "astrous": 15749,
  "Ġkicks": 15377,
  "ĠDet": 4354,
  "Ġclar": 9123,
  "ĠAdditional": 14511,
  "ĠWy": 11017,
  "ĠShiite": 25318,
  "ASE": 17351,
  "This": 2399,
  "ĠIndependent": 10200,
  "Ġaccompany": 13704,
  "ĠCuba": 11606,
  "ĠStra": 14354,
  "ĠSau": 16317,
  "Ġsink": 14143,
  "Ġappears": 3498,
  "IV": 5256,
  "Ġliber": 3021,
  "baugh": 16405,
  "black": 14130,
  "Ġfre": 2855,
  "Ġguys": 3376,
  "ĠCra": 9213,
  "Ġatrocities": 22424,
  "mar": 3836,
  "ocur": 11952,
  "ĠSag": 29529,
  "ĠDylan": 17690,
  "Ġfemale": 3962,
  "Ġdynamic": 8317,
  "ĠLiterature": 31953,
  "ãģ": 2686,
  "High": 24636,
  "ĠContinental": 28176,
  "Ġoperates": 12250,
  "Ġswings": 24722,
  "Ġoutper": 31113,
  "Ġshame": 9324,
  "quar": 26307,
  "fill": 21361,
  "selling": 13971,
  "ĠSister": 27708,
  "bley": 31272,
  "Ġprowess": 27051,
  "cover": 8616,
  "ificial": 29310,
  "regist": 28658,
  "ĠRef": 10039,
  "Ġquickly": 2835,
  "ĠAlberto": 30775,
  "ĠLA": 8780,
  "Ġindepend": 3035,
  "ANT": 14967,
  "Ġannex": 19290,
  "Ġdisparate": 30318,
  "Ġdragging": 23354,
  "Ġsewer": 31216,
  "ĠMon": 3209,
  "ĠKeys": 26574,
  "Ġequally": 8118,
  "iar": 11203,
  "hard": 9762,
  "ĠFuj": 28681,
  "ĠVoters": 23409,
  "Ġmountain": 8600,
  "230": 26085,
  "Ġdetention": 11183,
  "Ġsubjective": 18305,
  "clear": 25782,
  "ĠTobacco": 27847,
  "Ġinvisible": 15237,
  "ch": 314,
  "Ġmissing": 4774,
  "ĠRocky": 21010,
  "ĠBook": 5248,
  "Ġpsychiat": 11837,
  "management": 23522,
  "ĠInvestment": 19727,
  "Ġdominate": 15113,
  "Ġsuperior": 9609,
  "Ġhunger": 14903,
  "ĠBranch": 20154,
  "Ġaffect": 2774,
  "Ġsubsc": 10284,
  "ĠBecome": 27026,
  "Ġmedi": 15555,
  "Ġdro": 3233,
  "Ġended": 3945,
  "ĠTen": 8742,
  "ĠCorps": 12018,
  "Ġoutpost": 25382,
  "Ġmedications": 18572,
  "Ġlatter": 6682,
  "Tech": 23453,
  "Ġhighlighted": 11884,
  "Ġundocumented": 16916,
  "ĠUnlike": 8615,
  "Ġsuccess": 1685,
  "Bre": 16373,
  "amm": 5022,
  "ĠRico": 14192,
  "ceans": 16805,
  "isms": 11364,
  "Ġinterfe": 14614,
  "WT": 31951,
  "ĠManual": 26707,
  "ĠRomans": 24012,
  "ĠLaunch": 19356,
  "Mod": 13476,
  "Ġ20": 488,
  "dir": 27663,
  "Ġcannot": 2584,
  "Ġbumps": 31751,
  "ĠMcG": 7287,
  "Ġgamers": 13243,
  "Ġfe": 664,
  "ĠVes": 26999,
  "ructing": 28081,
  "Ġstumbled": 21722,
  "Ġborder": 4176,
  "ĠHaram": 25466,
  "ĠSup": 4620,
  "Ġimplements": 27173,
  "atern": 9533,
  "Ġreinforced": 21188,
  "RE": 3601,
  "Ġbloggers": 22171,
  "Ġpumped": 24040,
  "ences": 2920,
  "sign": 12389,
  "ĠEconomics": 18213,
  "Ġmasc": 12896,
  "Ġtraveled": 12082,
  "ĠHouse": 1765,
  "Ġconvincing": 14854,
  "Ġfan": 3587,
  "ĠCirc": 7964,
  "ernaut": 31863,
  "ury": 1459,
  "Ġrevital": 26505,
  "osure": 4685,
  "Ġmotive": 18754,
  "ĠStand": 6542,
  "ĠBentley": 29604,
  "ĠPOLIT": 23580,
  "ĠIndividual": 18441,
  "Ġ1931": 29778,
  "respond": 5721,
  "Un": 7137,
  "League": 22009,
  "Ġconsum": 2425,
  "OME": 15415,
  "Ġterrorism": 6898,
  "umbered": 25056,
  "ĠLooking": 11332,
  "ĠJer": 3694,
  "Ġunic": 28902,
  "Ġnuts": 14121,
  "Ġmisunderstanding": 26724,
  "Ġpurse": 25082,
  "Ġwal": 6732,
  "Ġgloss": 21222,
  "Ã£": 13342,
  "Ġfert": 10775,
  "94": 9440,
  "artment": 1648,
  "sell": 7232,
  "orne": 7816,
  "imensional": 16531,
  "ĠHowe": 30667,
  "Ġconflict": 4765,
  "îĢ": 30289,
  "ailable": 10301,
  "Ġvisualization": 29512,
  "Note": 17252,
  ").âĢĿ": 27374,
  "Ġwrath": 29570,
  "ated": 474,
  "Ġmixed": 7213,
  "ĠPlain": 28015,
  "undred": 2987,
  "Ġenjoyment": 25136,
  "Ġparking": 7170,
  "ĠStrat": 22433,
  "*,": 31133,
  "ĠBelarus": 25746,
  "Ġassignments": 24655,
  "Ġdenounce": 29453,
  "essim": 23365,
  "ĠJav": 14892,
  "Ġunden": 21927,
  "Ġcigarette": 17484,
  "Ġdispro": 13197,
  "Ġblow": 6335,
  "ĠGun": 8337,
  "ĠDevelopment": 7484,
  "acter": 6045,
  "Ġeliminating": 16032,
  "ĠQuick": 13620,
  "Ġrescued": 17467,
  "Ġaccus": 8401,
  "Ġrepublic": 13767,
  "Ġstepping": 14685,
  "Ġalmond": 26989,
  "Ġmentions": 14793,
  "cam": 20812,
  "aken": 1621,
  "ĠKaplan": 29837,
  "fter": 581,
  "Ġrenewed": 13660,
  "Â´": 26198,
  "Ġdealt": 11484,
  "ĠBak": 16163,
  "older": 28172,
  "ĠMu": 7392,
  "lier": 22068,
  "ãĤī": 30513,
  "Ġpathways": 22240,
  "Ġproviders": 8516,
  "ĠArs": 20275,
  "opening": 31531,
  "Ġdrill": 15012,
  "ili": 2268,
  "US": 3250,
  "Ġambulance": 19115,
  "Ġorbits": 30085,
  "Ġprost": 10622,
  "Ġunavoid": 31622,
  "Ġclinical": 9737,
  "erion": 29174,
  "ĠCu": 13200,
  "Ġbullied": 27652,
  "ĠFrancis": 4206,
  "ĠRol": 20143,
  "ĠWayne": 11043,
  "Ġanalysis": 3632,
  "Ġgained": 7811,
  "Ġdetrim": 19790,
  "ĠColleg": 30254,
  "Ġunsett": 24132,
  "Ø§Ø": 24620,
  "ĠPHOTO": 30075,
  "ĠOb": 1335,
  "Ġfountain": 30510,
  "ĠOR": 10444,
  "ĠCampaign": 11803,
  "Ġunin": 31229,
  "Ġ24": 2387,
  "Ġstandoff": 25344,
  "ĠSpain": 7143,
  "mans": 9244,
  "Ġdean": 27941,
  "render": 13479,
  "126": 27731,
  "rentice": 23073,
  "ccess": 1485,
  "Ġbiting": 29573,
  "inal": 1310,
  "kil": 25750,
  "Ġadvantages": 12602,
  "ĠGlobal": 7339,
  "Ġfel": 10725,
  "Ġshowcase": 17575,
  "idad": 21648,
  "Ġlad": 10062,
  "Ġconfident": 5803,
  "style": 6574,
  "acks": 5166,
  "etheless": 10932,
  "Ġkeyboards": 28131,
  "ĠO": 393,
  "Ġnick": 12865,
  "Ġcere": 30479,
  "Ġfulfillment": 30942,
  "raine": 26946,
  "ĠTehran": 14914,
  "roads": 17779,
  "ĠCraig": 10168,
  "Ġmutation": 22482,
  "ĠYoutube": 26087,
  "ĠUran": 29213,
  "hot": 8604,
  "elected": 19801,
  "Ġstern": 26768,
  "Ġblues": 23466,
  "Ġafore": 17443,
  "ĠTelescope": 28677,
  "zon": 28735,
  "ghai": 16564,
  "ĠWebb": 19779,
  "Ġmediocre": 25310,
  "orean": 27757,
  "ĠMayweather": 29764,
  "Ġattend": 4743,
  "Ġremaining": 5491,
  "hatt": 9659,
  "Ġsuperiority": 25029,
  "Ð¾Ð´": 27415,
  "Ġcompassion": 13589,
  "ĠPanama": 19829,
  "fix": 13670,
  "Ġathleticism": 28226,
  "¬": 105,
  "ogens": 25223,
  "anging": 4707,
  "Ġaspirations": 21605,
  "ital": 1195,
  "Ġnationwide": 10973,
  "ant": 382,
  "Torrent": 28915,
  "Ġuntouched": 31734,
  "ĠRefuge": 20655,
  "uses": 2912,
  "alous": 14470,
  "iliated": 26219,
  "Ġvarious": 2957,
  "enna": 13082,
  "cig": 19757,
  "51": 7872,
  "ĠChrom": 25978,
  "Ġpointed": 5426,
  "ĠMes": 15006,
  "Ġcar": 1030,
  "ĠBreaking": 18883,
  "ĠPluto": 24710,
  "ĠLaw": 3862,
  "Like": 17521,
  "lene": 28272,
  "atives": 2599,
  "Ġkey": 2016,
  "Ġsuccession": 20932,
  "ĠDenver": 8782,
  "Ġvend": 10209,
  "ĠMcDonald": 11116,
  "ĠCass": 12768,
  "ĠExactly": 27312,
  "prop": 22066,
  "ĠdÃ©": 22787,
  "Ġsatellite": 9175,
  "Ġbearing": 15054,
  "Ġultras": 29912,
  "ĠPerez": 17540,
  "ĠBang": 8512,
  "Ġswept": 15559,
  "ugg": 4202,
  "uine": 7549,
  "able": 531,
  "Ġlegs": 8366,
  "inally": 10251,
  "ĠAer": 16239,
  "Ġfloors": 18059,
  "ĠLeg": 4466,
  "Ġbou": 31342,
  "iv": 417,
  "becca": 19193,
  "atical": 22510,
  "ĠDevelop": 5609,
  "Ġcommercial": 4538,
  "Ġbronze": 20003,
  "Ġunfor": 23965,
  "Ġupfront": 29953,
  "Ġinstant": 10037,
  "cha": 13250,
  "ĠZap": 30643,
  "ĠPetraeus": 30933,
  "ĠTong": 27442,
  "Ġinvolves": 8498,
  "Ġaerial": 16990,
  "Ġopaque": 30092,
  "ividual": 1905,
  "Ġswim": 9038,
  "ĠRailway": 27031,
  "ĠPsy": 31509,
  "atre": 12202,
  "Ġcounties": 12300,
  "abama": 7478,
  "ĠSam": 3938,
  "ĠCitizens": 15321,
  "Ġtranslated": 13485,
  "Ġelabor": 11251,
  "Ġjurors": 25067,
  "ace": 517,
  "Ġgirlfriend": 10383,
  "Ġvoltage": 20800,
  "oil": 23777,
  "ĠExc": 22822,
  "Ġfury": 25460,
  "Ġpipelines": 24242,
  "ĠDynamic": 31254,
  "Ġdefends": 29572,
  "asts": 7001,
  "Ġdeclined": 5876,
  "Ġsemester": 24684,
  "ĠEp": 6734,
  "Ġderivative": 29998,
  "Ġsmoke": 8184,
  "Ġapt": 15702,
  "ĠUnity": 16235,
  "HT": 9893,
  "To": 6523,
  "Ġmastery": 30700,
  "Ġshelter": 11284,
  "ĠCambodia": 25201,
  "pel": 31452,
  "azine": 4841,
  "few": 27416,
  "Ġglob": 13481,
  "Ġit": 297,
  "Ġcontainer": 11589,
  "Ġconstituency": 21231,
  "Ġannounce": 4329,
  "Ġdeals": 6932,
  "Ġconstitutional": 8262,
  "oba": 17798,
  "Ġchill": 19893,
  "istan": 2836,
  "Ġmagical": 12690,
  "reatment": 23393,
  "ĠIllust": 18967,
  "Ġenthusi": 9788,
  "Ġsys": 28570,
  "john": 31364,
  "ĠChris": 4245,
  "ĠMuk": 24243,
  "ĠThat": 1024,
  "Ġwritten": 3103,
  "ĠWallace": 13756,
  "ĠEddie": 15758,
  "eston": 16897,
  "Ġsliced": 26467,
  "«": 104,
  "zes": 12270,
  "ĠHungarian": 21583,
  "ĠRandall": 26595,
  "Ġcharities": 20526,
  "ivier": 28517,
  "Ġist": 25153,
  "ĠIsraeli": 4540,
  "ĠBasic": 17433,
  "ours": 5493,
  "Act": 17493,
  "hit": 19038,
  "Ġneighbours": 19304,
  "ĠOmega": 27050,
  "ĠHoliday": 23448,
  "rences": 3183,
  "Ġguaranteed": 10774,
  "Ġhorrifying": 27267,
  "ĠGNU": 28278,
  "ĠVegan": 27408,
  "Ġmultiply": 30833,
  "ĠThe": 306,
  "Is": 4909,
  "ĠDisney": 6969,
  "linked": 23561,
  "ĠBEST": 27748,
  "Ġke": 856,
  "Ġenergetic": 23685,
  "ĠFiles": 25805,
  "ĠKee": 26977,
  "Ġassumption": 12109,
  "Ġreacts": 29989,
  "htt": 6720,
  "Ġmap": 4287,
  "Ġmel": 7753,
  "back": 1766,
  "ĠAp": 7977,
  "Ġ51": 8587,
  "Ġonline": 2444,
  "mers": 9288,
  "ĠNether": 10590,
  "ĠOT": 21553,
  "Ġquantitative": 25024,
  "Ġdefer": 18828,
  "ĠOEM": 30948,
  "Ġ---": 16665,
  "Ġur": 2670,
  "Ġscroll": 16497,
  "roc": 12614,
  "sea": 7193,
  "ah": 962,
  "ĠAud": 9616,
  "J": 41,
  "Ġcooldown": 28569,
  "odynamic": 31781,
  "Ġsom": 20425,
  "Ġobjectives": 14791,
  "RC": 8414,
  "ase": 586,
  "Ġorganisms": 18480,
  "Ġfear": 2956,
  "ĠCannon": 24979,
  "Ġdopamine": 25871,
  "Ġ..........": 30847,
  "Ġdiscontin": 20632,
  "ĠRegistration": 29839,
  "bern": 26698,
  "ĠHair": 27123,
  "Ġreconciliation": 21651,
  "mon": 2864,
  "imately": 3075,
  "agine": 11046,
  "Ġencountered": 13126,
  "opard": 13385,
  "Rec": 16237,
  "loving": 28181,
  "ĠAdvert": 18074,
  "Ġstud": 884,
  "China": 18749,
  "Je": 31929,
  "Ġspo": 10723,
  "Ġnu": 10738,
  "ĠÃĹ": 11908,
  "Ġimportant": 1447,
  "aught": 3301,
  "Ġodd": 5287,
  "ayed": 12604,
  "Ġhed": 14031,
  "Ġhabitat": 16650,
  "ikers": 22722,
  "Ġamph": 26857,
  "imental": 20205,
  "Ġpublishing": 10123,
  "agers": 6059,
  "ORK": 16007,
  "ĠCW": 20863,
  "1990": 21278,
  "Ġcoordinate": 19803,
  "Ġposed": 12607,
  "Ġbreakout": 24836,
  "ĠRunning": 17403,
  "ano": 5095,
  "de": 1888,
  "ĠTable": 9769,
  "ĠAtlas": 21101,
  "ĠWW": 8291,
  "ĠCorker": 30576,
  "or": 229,
  "Ġconsiderable": 10605,
  "shine": 18617,
  "Ġadded": 1876,
  "enda": 5999,
  "coins": 13371,
  "ĠSketch": 24483,
  "Ġbob": 29868,
  "ĠSand": 3089,
  "unk": 3086,
  "ĠYear": 6066,
  "Ġconvers": 3269,
  "Click": 19911,
  "Ġenthusiast": 28731,
  "otte": 10672,
  "ahl": 13167,
  "yrus": 22140,
  "Ġsmear": 28637,
  "Ġprepare": 8104,
  "Ġrunners": 17535,
  "verages": 25275,
  "ications": 4826,
  "Ġjack": 14741,
  "Ġmonarchy": 27606,
  "Ġdisconnect": 16334,
  "Ġsanctioned": 25237,
  "ĠFilipino": 26940,
  "Ġlistings": 26186,
  "Ġpassages": 23362,
  "ĠHeat": 11337,
  "Ġredist": 15038,
  "ĠKent": 7395,
  "Ġroutes": 10643,
  "ĠÂ§": 19432,
  "Ġhill": 13135,
  "ustomed": 20958,
  "Ġlinebackers": 30759,
  "Ġorb": 16490,
  "Ġmorph": 17516,
  "Ġjobs": 3130,
  "ropolis": 26315,
  "iva": 12666,
  "ĠVenice": 26608,
  "Ġencaps": 28340,
  "Ġsail": 13717,
  "Ġwelcoming": 18884,
  "ĠSupport": 9265,
  "280": 28598,
  "ĠPrevention": 17920,
  "ĠPOST": 27937,
  "iate": 9130,
  "ĠHoney": 21402,
  "ĠGotham": 25640,
  "ĠCandy": 28818,
  "ĠActually": 14972,
  "Ġbir": 27601,
  "Ġ1970": 6716,
  "enfranch": 29841,
  "en": 224,
  "orses": 12847,
  "gue": 16784,
  "icked": 10994,
  "Ġankle": 18046,
  "Ġyouths": 23491,
  "Ġ1913": 30258,
  "stan": 12238,
  "Ġrecommendation": 14623,
  "ĠConcept": 24157,
  "ylan": 16369,
  "999": 24769,
  "yr": 5448,
  "Ġlose": 4150,
  "Ġturnover": 21130,
  "fc": 26917,
  "ful": 880,
  "Ġpacking": 22979,
  "Ġprice": 2713,
  "redict": 15759,
  "critical": 23426,
  "anc": 1117,
  "ĠDangerous": 31115,
  "ĠRecogn": 28393,
  "Ġlively": 28208,
  "L": 43,
  "artz": 21299,
  "Ġquotas": 31821,
  "ĠHT": 7685,
  "ĠHuang": 31691,
  "ĠBin": 17753,
  "Ġbarred": 19534,
  "ĠRit": 30808,
  "ĠTelevision": 15628,
  "140": 19274,
  "ĠKeynes": 24129,
  "Ġwaits": 27688,
  "Ġfish": 6004,
  "Ġcollection": 4945,
  "Ġtouches": 17008,
  "ÂĿ": 26090,
  "abel": 14587,
  "Ġgeek": 22616,
  "Ġdiver": 11161,
  "wo": 7601,
  "Ġlikely": 1660,
  "har": 9297,
  "Ġburning": 9551,
  "Arab": 28373,
  "Ġroot": 7432,
  "Ġnoting": 8625,
  "Ġtransforms": 30701,
  "hr": 10173,
  "KE": 11087,
  "Ġliquid": 8500,
  "Leaks": 12047,
  "Ġboundary": 18085,
  "Ġcoloring": 31640,
  "Ġdiscovery": 8302,
  "second": 12381,
  "#": 2,
  "Ġgum": 25647,
  "Ġsuperv": 27047,
  "Ġcasts": 27156,
  "ĠGB": 13872,
  "Ġlone": 12152,
  "ĠGUI": 29857,
  "Ġcolumn": 5620,
  "Dam": 26338,
  "µ": 113,
  "went": 17972,
  "rities": 15935,
  "Ġunc": 4487,
  "ĠÃ¢": 20981,
  "thia": 30662,
  "Ġstomp": 30042,
  "sw": 2120,
  "41": 6064,
  "Ġexpertise": 12134,
  "ĠAdministration": 7877,
  "ãģ§": 19089,
  "==": 2505,
  "ĠTall": 20034,
  ".'\"": 17054,
  "Ġmet": 1159,
  "ĠProtestant": 21282,
  "ĠAsh": 7380,
  "Ġchopped": 21242,
  "Ġwrongdoing": 19403,
  "ĠBACK": 31374,
  "ĠKatz": 28769,
  "ĠClark": 9727,
  "ached": 2414,
  "olo": 13348,
  "gerald": 21988,
  "ible": 855,
  "ĠWasserman": 28261,
  "Ġpedestrian": 18987,
  "Ġalgorithms": 14284,
  "controlled": 12591,
  "Ġ130": 13544,
  "ĠNC": 7643,
  "Ġfire": 2105,
  "Ġphilosoph": 12850,
  "rays": 17979,
  "gem": 18892,
  "ucle": 15320,
  "Ġyet": 1744,
  "Ġtrailers": 29046,
  "ĠHond": 11763,
  "Ġbrains": 12692,
  "IM": 5269,
  "Ġhorm": 12714,
  "denly": 19524,
  "AZ": 28496,
  "Ġturtle": 28995,
  "Ġafraid": 7580,
  "ERC": 30810,
  "ĠAtomic": 28739,
  "Ġschemes": 14356,
  "Ġprogressives": 21892,
  "Ġfortress": 30980,
  "ĠBuzzFeed": 20420,
  "ke": 321,
  "Ġfle": 4943,
  "Ġrecognize": 6918,
  "Ġsacred": 14330,
  "cted": 19236,
  "Ġworthy": 12505,
  "ĠGenesis": 20788,
  "Ġposition": 2200,
  "ĠQuarter": 17229,
  "writer": 13287,
  "Ġswitches": 20133,
  "Ġmods": 23720,
  "asc": 3102,
  "Ġdecidedly": 26127,
  "Ġmistaken": 14990,
  "ĠSom": 8991,
  "mental": 17825,
  "Ġentrepreneurs": 13427,
  "Ġcatastrophe": 21344,
  "Ġmurde": 19582,
  "Ġspeculative": 24355,
  "Ġtelevised": 21682,
  "icable": 19580,
  "wife": 20667,
  "Ġsupreme": 16767,
  "Ġperceived": 9819,
  "Ġwaters": 8947,
  "Ġfragments": 21175,
  "Ġmatters": 5731,
  "Ġflex": 7054,
  "lean": 20120,
  "plates": 20188,
  "Ġoverturn": 24398,
  "ĠEll": 6212,
  "Ġdetailed": 6516,
  "ĠIRS": 13054,
  "Ġimpending": 22297,
  "Ġcapitalize": 28469,
  "Ġearliest": 12771,
  "eri": 31755,
  "Ġpasses": 7466,
  "Ġcores": 20289,
  "Ġsecret": 2889,
  "Ġintuitive": 18257,
  "ĠScotia": 26070,
  "Ġsparked": 12807,
  "wed": 11001,
  "Ġunbelievable": 20375,
  "apor": 14423,
  "hell": 16242,
  "ention": 1122,
  "intage": 15676,
  "Ġphotographer": 13992,
  "Ġintroduce": 9191,
  "Ġhumane": 28024,
  "Ġplunged": 26549,
  "53": 8013,
  "host": 5784,
  "Ġworlds": 11770,
  "Ġdevast": 8229,
  "enthal": 29109,
  "Ġinstantly": 11934,
  "Ġshel": 6849,
  "ancer": 18293,
  "Ġfac": 1608,
  "Ġexpert": 5308,
  "Ġachievements": 15592,
  "ĠSyracuse": 23548,
  "Ġunintended": 24560,
  "Whether": 28530,
  "x": 87,
  "ĠGiven": 7752,
  "ĠOrche": 28955,
  "ĠMerrill": 30193,
  "Ġassurances": 28174,
  "ĠOpportun": 22599,
  "aria": 9483,
  "Ġdeposition": 31297,
  "fork": 31386,
  "ini": 5404,
  "Ġduties": 11644,
  "ĠEcho": 21099,
  "ĠFul": 22929,
  "Path": 23608,
  "Ġchassis": 23651,
  "Ġaccepting": 11249,
  "trans": 9319,
  "cat": 11423,
  "ACT": 17520,
  "press": 9126,
  "ĠTai": 9589,
  "Ġcycles": 15440,
  "heavy": 21895,
  "Ġattorney": 5273,
  "Ġflour": 10642,
  "Ġterrified": 19968,
  "Ġprogrammer": 20408,
  "Ġassemb": 10915,
  "ĠBach": 17215,
  "ocalyptic": 23865,
  "Ġembargo": 28381,
  "Ġmocking": 26274,
  "Ġ71": 12619,
  "ners": 2530,
  "Ġcentre": 6101,
  "ipl": 6738,
  "dem": 8287,
  "ĠBills": 17012,
  "ĠPam": 20187,
  "Ġspouse": 20641,
  "Ġcomprehens": 8301,
  "inj": 22644,
  "Ġconsolidation": 27586,
  "Ġcrim": 3228,
  "Ġ1999": 7328,
  "azor": 18476,
  "Ġintentional": 19910,
  "Ġcond": 1809,
  "ĠNunes": 29740,
  "ĠRather": 8851,
  "Ġdys": 13115,
  "ĠPART": 30284,
  "ĠGT": 9475,
  "Ġjersey": 17606,
  "Ġorganization": 3540,
  "Ġcrazy": 6543,
  "Ġanalysts": 10119,
  "ĠHunger": 29214,
  "Ġdeposits": 16730,
  "isitions": 26463,
  "Ġvacc": 7010,
  "iami": 6640,
  "ritis": 29089,
  "Ġuncle": 15843,
  "Ġupwards": 20670,
  "ĠCarolina": 5105,
  "Ġcattle": 16036,
  "ĠSeeing": 22847,
  "ĠMaker": 26871,
  "ĠHenderson": 17312,
  "ĠChapman": 22280,
  "Ġther": 11441,
  "Ġconsole": 8611,
  "ĠByron": 28011,
  "Ġcomparative": 29725,
  "Ġbrick": 15773,
  "Ġ-": 605,
  "Ġstabbed": 18656,
  "Ġpenalties": 12195,
  "Ġpassenger": 10726,
  "Ġpens": 27799,
  "ĠBren": 16506,
  "Ġdriving": 4575,
  "Ġaltering": 27211,
  "Ġapplic": 2508,
  "view": 1169,
  "Ġserves": 8315,
  "ĠMX": 28287,
  "Ġcontrolled": 6939,
  "Ġcrystal": 16891,
  "ĠCat": 6878,
  "ĠJennifer": 13244,
  "ĠInspect": 19275,
  "Ġende": 15066,
  "issue": 22878,
  "0": 15,
  "ãģĻ": 21961,
  "Ġcompetitiveness": 28679,
  "Ġdiscard": 31441,
  "ĠJonathan": 8822,
  "Ġbuyers": 12159,
  "ĠZar": 26617,
  "Ġpropag": 7623,
  "ĠMil": 4051,
  "Ġpas": 23729,
  "Ġcompromised": 15817,
  "duty": 23114,
  "Ġheights": 21364,
  "ĠSouthwest": 20330,
  "Ġlost": 2365,
  "Ġanticipation": 20803,
  "Ġcomposite": 24712,
  "ĠEden": 24616,
  "ĠTorah": 29782,
  "ĠMedia": 5224,
  "Ġore": 25555,
  "Ġaffluent": 26618,
  "ankind": 29183,
  "Ġpillow": 30831,
  "Ġofficers": 3219,
  "Ġonto": 4305,
  "cipl": 19550,
  "Ġblo": 30400,
  "ĠChuck": 12315,
  "infect": 28660,
  "ĠMalik": 26508,
  "page": 8092,
  "Ġgross": 9704,
  "Ġexceptions": 13464,
  "ĠPicks": 26565,
  "Ġsod": 16979,
  "Ġcatch": 4729,
  "ĠTrack": 17935,
  "ronting": 24094,
  "Ġgaining": 12347,
  "ĠRide": 24150,
  "ĠArcher": 25790,
  "</": 7401,
  "Ġreasons": 3550,
  "play": 1965,
  "Ġranging": 11514,
  "ĠHistoric": 26001,
  "aldi": 31058,
  "ĠOutside": 16616,
  "ateg": 2523,
  "ĠFelix": 26042,
  "Ġconflicting": 22855,
  "Ġphysicists": 28649,
  "Ġnum": 964,
  "Ġmortgage": 11398,
  "ĠSI": 23937,
  "Ġcis": 28542,
  "Ġtid": 28609,
  "Ġsystematic": 16972,
  "Ġtaken": 1941,
  "ĠWish": 31672,
  "Ġnap": 23368,
  "¼": 120,
  "Ġretaining": 23773,
  "psy": 14616,
  "ĠNotable": 31504,
  "rued": 26126,
  "Ġori": 21735,
  "Western": 27880,
  "========": 7564,
  "ĠSummit": 16624,
  "Ġent": 900,
  "Ġretailers": 13116,
  "Ġverified": 18553,
  "%),": 17464,
  "emy": 21454,
  "grand": 21894,
  "Ġexpense": 10471,
  "83": 9896,
  "Ġstopping": 11305,
  "Ġloophole": 27462,
  "ĠFAA": 24054,
  "PA": 4673,
  "bay": 29156,
  "ogl": 27967,
  "Ġ88": 12956,
  "Ġresurgence": 29236,
  "ampions": 3494,
  "Ġdiffers": 24069,
  "Ġadvised": 11999,
  "Ġholding": 4720,
  "Ġusers": 2663,
  "ĠTunis": 17603,
  "Ġeffic": 17651,
  "ested": 10225,
  "Ġautomated": 14568,
  "ĠSeg": 25961,
  "Ġoffline": 17558,
  "ĠEbola": 13387,
  "ĠLincoln": 10585,
  "Ġshutdown": 14242,
  "omas": 24765,
  "Ġagreement": 4052,
  "rend": 5996,
  "Ġprofessor": 5114,
  "button": 23103,
  "ji": 8985,
  "ĠHarvard": 9093,
  "akh": 9654,
  "ĠEar": 24732,
  "Ġnav": 6386,
  "ĠObamacare": 9217,
  "Ġsincerely": 26721,
  "Ġgrew": 5490,
  "pload": 8197,
  "hou": 21564,
  "Ġslow": 3067,
  "Ġkay": 31946,
  "Ġcoats": 31731,
  "Ġtilt": 25068,
  "ottom": 15086,
  "missions": 9960,
  "Ġindivid": 16615,
  "Ġexported": 27624,
  "ffer": 31404,
  "82": 10129,
  "essions": 5584,
  "Ġsizable": 27155,
  "qual": 14094,
  "Ġbacker": 30770,
  "ĠKil": 16863,
  "ogs": 20587,
  "ition": 619,
  "vette": 29603,
  "oppers": 29746,
  "ell": 974,
  "ĠConway": 19324,
  "Ġmetro": 18523,
  "Inter": 19815,
  "ĠGonzalez": 18538,
  "ĠFM": 20281,
  "ĠCanadiens": 24759,
  "76": 8404,
  "oline": 13599,
  "Ġreflecting": 18373,
  "ĠGust": 23100,
  "band": 3682,
  "Ġconstruct": 5593,
  "Ġdeparted": 22562,
  "ĠMali": 24567,
  "ift": 2314,
  "ĠOlympic": 9033,
  "ĠThere": 1038,
  "Ġtheorists": 26795,
  "ffiti": 20453,
  "ĠThinking": 26880,
  "ĠPreviously": 19537,
  "ĠHB": 20867,
  "Ġweld": 31789,
  "istine": 27891,
  "Ġpar": 1819,
  "overty": 20949,
  "Ġdemographic": 14269,
  "ĠChel": 8670,
  "idered": 2979,
  "Ġown": 833,
  "Ġnewcom": 18689,
  "ieve": 16234,
  "ibles": 16799,
  "ĠNorton": 26067,
  "ĠPr": 1808,
  "ĠHugh": 20400,
  "olia": 21203,
  "ĠBog": 18851,
  "Ġmorally": 19135,
  "bows": 28299,
  "Ġcros": 21855,
  "ĠDr": 2188,
  "Ġindigenous": 13751,
  "cro": 20165,
  "Ġtransporting": 29899,
  "Ġerased": 30570,
  "Ġtresp": 28102,
  "ĠÑĩ": 30703,
  "Ġminimum": 5495,
  "iah": 11314,
  "GC": 18156,
  "Ġcinnamon": 30550,
  "Ġcarved": 21944,
  "ĠBradley": 12844,
  "Ġcommentary": 11845,
  "ĠSierra": 15626,
  "ĠHou": 5966,
  "ws": 20399,
  "Ġattraction": 15539,
  "Tex": 20547,
  "ritical": 16636,
  "USA": 14729,
  "Ġspook": 27813,
  "Ġfortune": 15326,
  "Ġthroat": 15965,
  "Ġbrackets": 30123,
  "Ġsisters": 14108,
  "Ġracing": 9827,
  "ĠLiter": 18379,
  "rans": 25243,
  "Ġmicros": 15766,
  "Ġfalsely": 21155,
  "Ġattempting": 8419,
  "ĠIraqis": 26919,
  "rupal": 30895,
  "Ġoppress": 30848,
  "Ġsubt": 16297,
  "ĠDil": 26986,
  "ĠJup": 18161,
  "Ġcookies": 17430,
  "Ġtraded": 11413,
  "Ġ1915": 26423,
  "Ġcurve": 11737,
  "ĠTrip": 17445,
  "ĠMix": 17243,
  "Ġlied": 17069,
  "ĠRum": 19581,
  "ĠCharlott": 20315,
  "ĠCay": 26196,
  "Ġconfer": 27147,
  "itional": 1870,
  "pie": 17126,
  "Ġcaveat": 30313,
  "alin": 14495,
  "Ġmiserable": 21335,
  "ĠEcl": 30070,
  "Ġhilar": 16087,
  "Take": 25203,
  "rison": 6603,
  "Į": 190,
  "Ġmigrants": 10073,
  "acre": 10340,
  "Ġcompulsory": 28306,
  "Ġfixed": 6721,
  "Ġevery": 746,
  "ilar": 1867,
  "ĠDivision": 8175,
  "levant": 13934,
  "Ġprogram": 1315,
  "Ġsuccessive": 22472,
  "ĠInfinite": 30411,
  "ĠRailroad": 30946,
  "Ġdisregard": 20036,
  "Ġconstit": 7195,
  "Ġprobable": 18726,
  "ĠMe": 2035,
  "affe": 13624,
  "baum": 21271,
  "ĠChem": 15637,
  "Ġfolded": 24193,
  "Ġglorious": 21168,
  "Ġinvestig": 1715,
  "Ġripped": 17333,
  "displaystyle": 18262,
  "ality": 1508,
  "Ġog": 27716,
  "Ġperce": 15956,
  "Ġordering": 16645,
  "Ð¾Ð²": 18835,
  "ĠBoyd": 22961,
  "Ġdepicting": 22195,
  "Ġglasses": 14949,
  "ĠRoom": 12813,
  "Ġcompat": 9873,
  "ippi": 11040,
  "larg": 15899,
  "ĠMalaysian": 25022,
  "Ġmechanism": 6459,
  "Ġtide": 17438,
  "Ġeuth": 31247,
  "AFTA": 23912,
  "Ġinflicted": 26150,
  "ĠOlivia": 30231,
  "ĠCommission": 4168,
  "jan": 11970,
  "Ġtoughest": 22868,
  "Okay": 23990,
  "Ġchairs": 16483,
  "Ġoutsk": 24716,
  "Ġhostility": 19794,
  "ree": 571,
  "Ġcompr": 10506,
  "Ġelegant": 19177,
  "isher": 5420,
  "Ġparad": 10153,
  "Ġhem": 14989,
  "Ġhomeowners": 18966,
  "ĠStafford": 24338,
  "Ġbeginning": 3566,
  "orted": 7039,
  "Ġcorners": 13777,
  "anye": 22770,
  "Ġremain": 3215,
  "Ġeighth": 14153,
  "Ġwildly": 17235,
  "istant": 10414,
  "Ġinsane": 12353,
  "Ġpreval": 12629,
  "laughter": 23923,
  "IES": 17240,
  "ĠMakes": 27846,
  "Ġmetric": 16057,
  "inte": 5340,
  "Ġmold": 16577,
  "Ġstatute": 17147,
  "Ġthunder": 20158,
  "Ġprow": 22879,
  "Ġoft": 24843,
  "thouse": 19501,
  "ĠChoice": 20387,
  "Ġtarg": 2090,
  "Ġmotorists": 26108,
  "Ġcoc": 8527,
  "Ġtill": 12291,
  "cent": 985,
  "Ġoneself": 26088,
  "Ġwounded": 9656,
  "Ġconflicts": 10962,
  "Ġtunnel": 12302,
  "ĠRES": 23335,
  "Ġdrug": 2278,
  "Ġchallenging": 8026,
  "begin": 31785,
  "ĠCarpenter": 26241,
  "Ġmedic": 6638,
  "ĠBlvd": 31512,
  "ĠCDs": 31678,
  "Ġconglomer": 29468,
  "Ġtiers": 30492,
  "ociated": 21353,
  "oria": 12198,
  "Ġrend": 10005,
  "Ã±a": 23025,
  "Ġsoundtrack": 16971,
  "Ġstove": 29742,
  "Ġmosqu": 18893,
  "Ġdump": 8809,
  "Ġinstit": 5280,
  "Ġmonster": 10550,
  "ĠInterstate": 24739,
  "Ġskipped": 27783,
  "ĠFunction": 22665,
  "Ġtitles": 7492,
  "ĠHospital": 8481,
  "Ġqueue": 17360,
  "ĠLess": 11410,
  "END": 17015,
  "afia": 19988,
  "geons": 30320,
  "ĠRural": 31574,
  "retion": 14589,
  "ĠAfrican": 4694,
  "ĠGh": 10507,
  "Ġplugins": 23240,
  "Br": 26326,
  "Ġbarn": 22383,
  "depth": 17945,
  "ĠHawks": 19951,
  "zman": 25412,
  "23": 3464,
  "arms": 8532,
  "iggs": 18452,
  "Ġcooperation": 9443,
  "Ġkm": 8673,
  "Manager": 27996,
  "Ġjournalistic": 29308,
  "Ġ],": 29501,
  "Ġobservations": 11861,
  "Ġmade": 864,
  "ĠSharon": 23425,
  "Ġrationale": 21854,
  "ĠÂ©": 9592,
  "Ġattractions": 24793,
  "ĠMorsi": 28583,
  "ĠAirport": 11361,
  "Ġ195": 5529,
  "nerg": 29816,
  "Ġadvocates": 8530,
  "utical": 13214,
  "Ġdemonstrators": 17350,
  "Ġdelegates": 11818,
  "ĠJews": 6110,
  "ĠDiablo": 29543,
  "ĠComb": 10345,
  "Ġ800": 10616,
  "Ġ190": 23955,
  "ab": 367,
  "Ġports": 14226,
  "Ġmargins": 16962,
  "Ġuniforms": 19315,
  "Ġcounselor": 29330,
  "Ġhormone": 20050,
  "Ġroots": 10128,
  "evil": 21985,
  "Ġhug": 22538,
  "Ġimperfect": 22989,
  "forms": 28493,
  "hett": 19306,
  "lain": 21279,
  "Ġaut": 1951,
  "Ġcommerce": 18201,
  "ĠGame": 4252,
  "Ġinduced": 19665,
  "Ġcanvas": 21473,
  "Le": 5523,
  "Ġconcerning": 10329,
  "MENT": 17355,
  "Ġorchest": 19752,
  "Ġbeautifully": 20087,
  "Ġironic": 20664,
  "1": 16,
  "Ġirre": 10373,
  "Ġva": 31337,
  "Ġdivers": 13530,
  "Ġdiscipline": 11893,
  "bands": 21022,
  "ĠFavorite": 31754,
  "writ": 5837,
  "Ġlikened": 31736,
  "thought": 24967,
  "ĠDep": 1950,
  "uls": 6010,
  "Ġweekday": 24804,
  "Ġcook": 4809,
  "Ġinconsist": 24051,
  "Ģ": 178,
  "Ġzoom": 18175,
  "Ġgreedy": 28651,
  "ĠFE": 22267,
  "ĠÂ½": 24633,
  "ÑĪ": 24478,
  "ĠME": 15471,
  "Ġjournals": 19848,
  "six": 17981,
  "à¥": 21821,
  "degree": 14491,
  "venant": 20807,
  "Semit": 14255,
  "Ġextraord": 8821,
  "Ġgestures": 22426,
  "ĠRepresent": 9207,
  "âĪ": 27320,
  "len": 13861,
  "ĠDar": 7044,
  "Ġdemon": 14020,
  "Ġlogistics": 22132,
  "Ġunacceptable": 14544,
  "reddit": 23509,
  "rikes": 16620,
  "Ġadmitting": 18777,
  "Jes": 29827,
  "ft": 691,
  "ĠSanders": 4216,
  "Ġagencies": 5148,
  "ĠHob": 15566,
  "Ġcares": 14976,
  "arations": 23383,
  "ĠDempsey": 31108,
  "ock": 753,
  "ALE": 26842,
  "fo": 17871,
  "Ġrequiring": 10025,
  "Ġproc": 14628,
  "ils": 5487,
  "green": 14759,
  "Ġacclaim": 17128,
  "pectives": 17436,
  "Ġfestivals": 20712,
  "Ġessential": 6381,
  "Ġdetective": 17812,
  "Ġ|": 2006,
  "ious": 648,
  "Ġbolster": 20959,
  "Ġchim": 16889,
  "ĠLone": 23949,
  "Ev": 26757,
  "ĠHong": 9294,
  "Ġwhatsoever": 15678,
  "ĠKu": 9811,
  "Ġtub": 13754,
  "Ġaffiliated": 17182,
  "ĠJew": 3028,
  "ĠSears": 30311,
  "Ġrec": 598,
  "odynam": 22463,
  "Ġdec": 681,
  "ĠYes": 3893,
  "ĠBarrett": 20654,
  "break": 9348,
  "ĠMinisters": 28909,
  "Ġpromin": 16224,
  "ĠSquare": 8145,
  "ĠLan": 15198,
  "ĠCeltic": 21590,
  "ĠPet": 4316,
  "Ġthrust": 17913,
  "ĠCBD": 24024,
  "Ġputting": 4488,
  "Her": 21240,
  "Ġvillain": 15230,
  "Ġshops": 10951,
  "Ġgarner": 26165,
  "Ġcal": 2666,
  "Ġexpected": 2559,
  "333": 31479,
  "ĠThings": 9695,
  "fair": 18406,
  "Ġdoctrine": 13968,
  "ĠPunk": 26918,
  "GL": 17824,
  "may": 11121,
  "Ġtentative": 30772,
  "Ġestablishment": 7803,
  "Ġconcurrent": 30044,
  "ĠEffect": 15698,
  "Ġdos": 21061,
  "Ġadjusted": 13791,
  "ĠMinutes": 22452,
  "front": 7700,
  "Ġprojection": 19110,
  "Ġbelief": 4415,
  "Ġreplies": 22012,
  "ĠMaduro": 22846,
  "Ġ2013": 2078,
  "Bar": 17777,
  "oves": 5890,
  "t": 83,
  "bit": 2587,
  "osed": 1219,
  "ĠAven": 15645,
  "ĠKerala": 27754,
  "BN": 10808,
  "ĠFactor": 27807,
  "Book": 13517,
  "ĠLow": 8444,
  "Ġgen": 2353,
  "ĠSchwar": 22684,
  "Ġrepression": 22008,
  "Ġelectro": 15175,
  "ĠBarber": 28441,
  "iples": 31221,
  "Ġpaint": 7360,
  "Ġglass": 5575,
  "Ġcards": 4565,
  "Ġmilitias": 20860,
  "ĠScal": 30574,
  "ĠJamie": 13949,
  "Ġuniverse": 6663,
  "ĠWhitney": 28005,
  "Ġrepublican": 31879,
  "Ġlenders": 22131,
  "ĠMORE": 8312,
  "Ġ&": 1754,
  "ĠAl": 871,
  "ride": 13600,
  "ĠEmily": 16757,
  "Ġmale": 4306,
  "Ġclassification": 17693,
  "Ġexhausted": 18468,
  "Ġinvasion": 10028,
  "ĠWere": 16673,
  "Ġstride": 28873,
  "ques": 11557,
  "ĠStore": 9482,
  "Ġbreathe": 17880,
  "Ġuncom": 7795,
  "ĠNSW": 18483,
  "Ġruled": 7150,
  "pet": 5623,
  "neutral": 27701,
  "ĠClippers": 25796,
  "ĠVatican": 15252,
  "adel": 6623,
  "Ġregard": 2807,
  "rah": 11291,
  "ĠDani": 5738,
  "Ġanat": 19481,
  "ĠBalk": 24117,
  "Ġcreditors": 25236,
  "lay": 15543,
  "Ġgluten": 21724,
  "Ġabortion": 6895,
  "Assad": 18422,
  "ters": 843,
  "ĠFreud": 27063,
  "ĠKilled": 27350,
  "Ġpregnant": 10331,
  "ĠBend": 22808,
  "Ġpresidency": 9050,
  "ĠTHAT": 18364,
  "Ġ911": 14564,
  "Ġcruiser": 31791,
  "Ġdeepest": 22301,
  "habi": 27443,
  "insk": 31333,
  "ups": 4887,
  "map": 11853,
  "tex": 11290,
  "ĠNVIDIA": 23134,
  "Ġphotographed": 21425,
  "Ġmurderous": 29615,
  "Ġcontingent": 21588,
  "ĠInformation": 7881,
  "cf": 20962,
  "Ġones": 3261,
  "etic": 5455,
  "bal": 7387,
  "Ġartistic": 15187,
  "Ġgive": 1566,
  "Ġreacted": 18958,
  "Or": 11435,
  "Aug": 21166,
  "Ġaffinity": 27627,
  "leton": 12350,
  "Ġgranting": 21079,
  "Ġchiefs": 24451,
  "ondu": 30007,
  "ĠPiper": 30587,
  "venue": 3646,
  "ĠSays": 22914,
  "Before": 21946,
  "ishop": 9486,
  "ap": 420,
  "Ġtake": 938,
  "Ġpink": 12392,
  "Ġwouldn": 3339,
  "ĠKick": 9555,
  "ilda": 28260,
  "Ġassault": 4141,
  "Ġtestimony": 9091,
  "gian": 13228,
  "ĠTorres": 22958,
  "Py": 26402,
  "ickets": 14818,
  "spot": 22907,
  "Ġempirical": 20496,
  "ĠSearch": 13277,
  "ĠMar": 1440,
  "ruction": 2791,
  "2010": 13230,
  "Ġpenny": 23677,
  "Ġplus": 5516,
  "Ġschedules": 22063,
  "ĠSue": 22966,
  "Ġmenu": 8274,
  "ĠNora": 25778,
  "ĠSever": 7394,
  "ĠStadium": 8595,
  "Ġlegislation": 4368,
  "distance": 29237,
  "Ġbind": 13891,
  "Ġmolecule": 25827,
  "ĠMillennium": 30629,
  "ĠJackie": 20754,
  "Ġmost": 689,
  "ĠPotter": 16015,
  "ĠChapel": 28939,
  "Ġsquares": 23821,
  "Ð´": 13403,
  "ĠDe": 939,
  "Ġseekers": 17878,
  "ulars": 28376,
  "handed": 12132,
  "Ġadd": 734,
  "ĠWolf": 9989,
  "ĠEnd": 6559,
  "Ġcogn": 8478,
  "ĠLion": 16407,
  "Ġoriginal": 2627,
  "ĠMaj": 14102,
  "ĠDale": 18119,
  "Ġsi": 18351,
  "atri": 19618,
  "Ġplayable": 22362,
  "regulation": 23086,
  "height": 26477,
  "Ġlaunching": 11163,
  "Ġapproving": 27248,
  "oku": 16484,
  "ĠAI": 8937,
  "Ġnoises": 27883,
  "Ġsteroids": 31625,
  "ĠPence": 12808,
  "ĠPin": 14997,
  "Ġtattoos": 27162,
  "assy": 9836,
  "ĠSina": 23767,
  "ĠFlores": 28310,
  "ELD": 29744,
  "Ġadvent": 11343,
  "Ġshameful": 28244,
  "Ġetc": 4190,
  "connect": 12386,
  "Ġshaking": 17194,
  "Ġhor": 3013,
  "acher": 9855,
  "Ġfig": 2113,
  "ĠUnited": 1359,
  "Ġassistance": 7385,
  "arettes": 12654,
  "tv": 20005,
  "Ġcarve": 30730,
  "Ġadditions": 18266,
  "OND": 21235,
  "marks": 14538,
  "sure": 30442,
  "borough": 14561,
  "Ġfacilitated": 29926,
  "ð": 170,
  "Center": 29691,
  "Ġvested": 31316,
  "ĠIncreasing": 28505,
  "Brit": 22627,
  "Ġreplicate": 20594,
  "Ġactors": 8496,
  "neck": 26969,
  "Ġbehave": 15927,
  "Ġimmigration": 5047,
  "Ġradius": 20604,
  "Ġskelet": 22264,
  "leaders": 29644,
  "Ġbill": 1948,
  "ĠAudio": 17211,
  "ĠVed": 30960,
  "Sure": 31996,
  "Ġashamed": 21002,
  "Ġpick": 2123,
  "ĠGMO": 28696,
  "ĠThought": 26884,
  "Ġassassination": 15381,
  "Ġrides": 16106,
  "isha": 18680,
  "Ġfilling": 12402,
  "ancing": 4960,
  "Ġaffili": 7704,
  "Ġfunctions": 6254,
  "asket": 16699,
  "antly": 3858,
  "ĠLevi": 24861,
  "ĠTiny": 30100,
  "cles": 7665,
  "Ġphysics": 10704,
  "Ġwished": 17225,
  "breaking": 11081,
  "def": 6231,
  "it": 226,
  "adia": 27437,
  "ĠAw": 12145,
  "Ġdistorted": 24410,
  "font": 26645,
  "ĠShepard": 27630,
  "enos": 25191,
  "dist": 18346,
  "Ġcheaper": 10163,
  "Ġinstallations": 22980,
  "ĠKabul": 23497,
  "ĠAaron": 9956,
  "Ġaged": 9710,
  "They": 3611,
  "Ġorganized": 7351,
  "Ġbitch": 24448,
  "anth": 30406,
  "Ġshorts": 20216,
  "72": 8788,
  "Ġrecess": 25349,
  "incial": 11433,
  "ĠReturns": 27874,
  "Ġjets": 16746,
  "ĠFill": 28133,
  "ĠPayPal": 22953,
  "Ġbottle": 9809,
  "adh": 17999,
  "ĠGuardian": 8343,
  "N": 45,
  "ĠGorsuch": 27786,
  "acies": 12336,
  "advant": 13106,
  "Ġinexpensive": 22902,
  "Ġlesbian": 15239,
  "Ġmaneuver": 19165,
  "osa": 9744,
  "Ġsay": 800,
  "EL": 3804,
  "Ġchocolate": 11222,
  "ĠMade": 15288,
  "Ġfocusing": 9238,
  "Ġcheek": 20894,
  "Ġcrosses": 22000,
  "ĠProducer": 25073,
  "orthy": 17478,
  "Ġdepending": 7503,
  "ĠAN": 5091,
  "Ġdiscovered": 4594,
  "ĠLo": 7952,
  "ĠBryant": 14185,
  "ĠTan": 11145,
  "ĠFraser": 22494,
  "eur": 23814,
  "ÑģÐº": 27769,
  "Ġconnectivity": 17171,
  "zer": 5732,
  "Cs": 27392,
  "Ġrh": 20950,
  "portant": 15545,
  "agar": 25747,
  "Ġthankful": 21994,
  "Ġmonstrous": 29231,
  "ĠLiam": 25079,
  "ĠSame": 17773,
  "Ġplaque": 29608,
  "Ġrenewal": 22390,
  "ĠMiami": 6843,
  "Ġpast": 1457,
  "ĠCeltics": 19924,
  "Ġoutbreaks": 29306,
  "Ġbust": 13512,
  "ĠKansas": 7948,
  "ded": 7916,
  "Åį": 13690,
  "gay": 17892,
  "ĠPublished": 18321,
  "Ġprevalent": 19644,
  "Ġavoids": 28443,
  "uchs": 29892,
  "ĠChr": 1377,
  "Ġpresses": 31365,
  "Ġsuffer": 8435,
  "phy": 6648,
  "ĠWould": 9472,
  "Ġseed": 9930,
  "ĠPony": 29766,
  "Ġrent": 5570,
  "ĠCory": 22660,
  "Through": 30985,
  "ĠConsum": 24708,
  "Ġunspecified": 28961,
  "Ġ[+": 27986,
  "HF": 31240,
  "ĠUt": 6935,
  "Ġheavier": 19795,
  "ĠEthiopia": 24986,
  "Ġexcuse": 11310,
  "ocker": 13467,
  "uto": 11940,
  "Ext": 24525,
  "Ġobesity": 15308,
  ".<|": 917,
  "Ġdetract": 25365,
  "Ġmanipulation": 16044,
  "Ġchance": 2707,
  "Ġreceived": 2558,
  "rÃ©": 23175,
  "Ġcentered": 17202,
  "last": 15257,
  "Ġlook": 761,
  "vertisement": 3201,
  "Ġbalance": 5089,
  "Ġ133": 29331,
  "ĠFilm": 10432,
  "offs": 11143,
  "ĠRange": 18776,
  "VM": 16558,
  "ĠAside": 17576,
  "st": 261,
  "Ġresponds": 18758,
  "Ġ9": 1073,
  "ches": 2054,
  "ilipp": 7820,
  "ĠPf": 31850,
  "ĠDaw": 14620,
  "Ġevaluating": 21120,
  "Ġimpairment": 28337,
  "Ġsit": 1331,
  "Ġmanufact": 3890,
  "Ġpinch": 24516,
  "Ġovers": 8542,
  "Just": 9860,
  "walks": 24563,
  "Ġchick": 16751,
  "Ġtelev": 16627,
  "Ġrigorous": 19744,
  "Ġbes": 7579,
  "Ġaccelerated": 20585,
  "Ġate": 15919,
  "Ø": 146,
  "ambers": 15715,
  "ficult": 2230,
  "ĠTy": 4290,
  "Ġdescend": 15146,
  "Something": 30219,
  "Ġ48": 6246,
  "woman": 6770,
  "Ġexcerpt": 25219,
  "Ġget": 602,
  "Ġinterest": 1266,
  "taking": 23013,
  "ĠCorey": 18936,
  "Pak": 30972,
  "Ġlawmakers": 7437,
  "ĠRub": 5118,
  "Ġprosecution": 11199,
  "Ġacquisitions": 28682,
  "Ġintegrated": 10762,
  "Ġworn": 13740,
  "ĠRig": 26720,
  "ĠAlaska": 10862,
  "idays": 13192,
  "Ġdangerously": 27516,
  "Va": 31649,
  "hip": 976,
  "Ġ\"": 399,
  "lv": 6805,
  "ĠLang": 14478,
  "Ġrailroad": 22729,
  "aghd": 13645,
  "ential": 1686,
  "erving": 12702,
  "Ġundefeated": 31061,
  "stakes": 31595,
  "aste": 4267,
  "Ġmechan": 4011,
  "dependent": 22399,
  "Ġdozen": 7323,
  "gypt": 5010,
  "esty": 8895,
  "Ġinfect": 5433,
  "Ġacres": 13508,
  "ogenic": 16898,
  "ĠSmash": 21692,
  "ĠPort": 4010,
  "ĠWords": 24550,
  "ĠGermans": 13665,
  "Ġsubway": 15310,
  "ĠStreet": 3011,
  "ounces": 28285,
  "vs": 23603,
  "ivic": 13555,
  "isexual": 18631,
  "match": 20870,
  "700": 10790,
  "Ġdesktop": 10410,
  "Ġvisibility": 19140,
  "ait": 4697,
  "Ġreasonable": 7127,
  "ama": 1243,
  "ĠCaliforn": 2851,
  "ĠPorts": 30640,
  "Ġintend": 14018,
  "Ġhel": 882,
  "Ġtargeting": 9151,
  "Ġordinary": 8902,
  "Ġunless": 5229,
  "Ġocc": 1657,
  "Ġprem": 3899,
  "more": 3583,
  "Ġspear": 17943,
  "ĠSafety": 11689,
  "fake": 25922,
  "Ġstock": 4672,
  "Ġresolve": 10348,
  "Val": 16076,
  "tesy": 30812,
  "Ġhumble": 17922,
  "renches": 29626,
  "Ġbelow": 2307,
  "Ġscratch": 12123,
  "rational": 17905,
  "Ġstrike": 4933,
  "Ġissuing": 16731,
  "Ġreproductive": 17236,
  "Ġmonarch": 21728,
  "Ġundert": 10040,
  "Ġslated": 16965,
  "]": 60,
  "Ġsuspected": 8456,
  "naire": 26642,
  "ĠTalking": 23754,
  "Ġfres": 31203,
  "Ġprotested": 21829,
  "åı": 25930,
  "ĠLB": 20225,
  "1992": 30647,
  "Ġprovocative": 22766,
  "awei": 27400,
  "urban": 30281,
  "since": 23143,
  "ifier": 10861,
  "Ġexha": 9390,
  "People": 9142,
  "ĠBundesliga": 30508,
  "Ġpip": 6555,
  "Ġlen": 24223,
  "ĠRules": 17183,
  "iver": 1376,
  "Ġvulnerabilities": 19298,
  "ingham": 19531,
  "vert": 1680,
  "iance": 3728,
  "Ġcities": 3941,
  "Ġpieces": 5337,
  "Ġrefe": 4592,
  "Ġsensitivity": 14953,
  "Ġrose": 8060,
  "burger": 23930,
  "Ġassert": 8870,
  "Ġanalyze": 15369,
  "Ġimposing": 17667,
  "Ġmarginal": 11985,
  "ĠHBO": 14325,
  "Ġcluster": 13238,
  "ĠVoice": 15530,
  "uggage": 28591,
  "Ñĩ": 15596,
  "ĠMind": 10804,
  "ĠArnold": 17382,
  "ilo": 26459,
  "first": 11387,
  "Ġretro": 14824,
  "Ġplural": 19102,
  "ĠWelch": 31857,
  "ACH": 21471,
  "ame": 447,
  "Ġunst": 13486,
  "Ġseverity": 20378,
  "Ġclaw": 27753,
  "astern": 5831,
  "ĠLikewise": 17947,
  "ĠRole": 20914,
  "Ġoccupied": 10978,
  "rolog": 29969,
  "ĠMental": 21729,
  "Ġhires": 29910,
  "fund": 8903,
  "Ġworthless": 26828,
  "hurst": 28348,
  "umer": 7891,
  "Ġanonymity": 14612,
  "Ġdining": 16890,
  "Ġosc": 24249,
  "Ġdwind": 23506,
  "between": 24128,
  "Ġdealers": 14109,
  "av": 585,
  "ĠLith": 18859,
  "electric": 25188,
  "Â»": 21663,
  "ĠWare": 26913,
  "Ġintake": 14163,
  "Ġranges": 17353,
  "ĠCop": 6040,
  "Ġslippery": 29952,
  "lee": 9173,
  "Ġattending": 10684,
  "ĠHAVE": 26552,
  "ĠBrit": 1932,
  "Ġtight": 5258,
  "Ġve": 1524,
  "Ġdiet": 6777,
  "mart": 11202,
  "ĠAlive": 30458,
  "isman": 22417,
  "é": 163,
  "ħ": 183,
  "lish": 2258,
  "ĠKash": 15670,
  "Ġrevealing": 12080,
  "ĠAmericas": 21885,
  "Ġmonst": 24120,
  "Ġhusbands": 26185,
  "Ġspect": 5000,
  "Ġscandal": 8290,
  "Ġratio": 8969,
  "worked": 28351,
  "onz": 10233,
  "Ġpostp": 17923,
  "data": 12011,
  "ĠChanges": 20548,
  "Ġscoop": 21430,
  "Ġgrandfather": 15583,
  "ĠPaula": 29684,
  "Ġgrabbed": 12820,
  "ĠCongressional": 11611,
  "ĠMic": 6300,
  "ĠContinue": 10101,
  "Ġcute": 14869,
  "orage": 5344,
  "ĠTas": 20810,
  "Ġperimeter": 22299,
  "ĠDVD": 11577,
  "Ġrhyth": 13372,
  "temporary": 26452,
  "ĠIncome": 21204,
  "ĠDouglas": 13129,
  "Ġworkout": 18550,
  "cation": 23415,
  "Ġ##": 25763,
  "Ġimplications": 9611,
  "ĠBattlefield": 28220,
  "have": 13741,
  "Ġbeforehand": 26039,
  "Ġremnants": 27278,
  "ĠFS": 20404,
  "Ġtariffs": 25545,
  "Ġamong": 1707,
  "reath": 23535,
  "ile": 542,
  "day": 704,
  "Ġsemes": 23391,
  "Ġimplies": 15341,
  "Ġtransactions": 8956,
  "ĠAviv": 21992,
  "Ġmultip": 19828,
  "ĠCanucks": 21038,
  "Ġhindsight": 29393,
  "Ç": 129,
  "ĠBroncos": 13732,
  "âĸĪâĸĪ": 13921,
  "endor": 29482,
  "IONS": 28988,
  "witter": 1909,
  "Ġconsiderations": 19248,
  "Ġfemales": 13080,
  "Ġshopping": 8943,
  "phasis": 28082,
  "Ġprecaution": 29104,
  "tenance": 9428,
  "Ġkernel": 13887,
  "ĠConf": 6748,
  "aque": 17262,
  "Ġeyeb": 20445,
  "ĠRenault": 30562,
  "ĠDeng": 30733,
  "Ġsalvage": 31264,
  "Ġsacks": 18149,
  "trained": 30537,
  "Ġhyd": 15438,
  "punk": 29123,
  "Ġhilarious": 18372,
  "Ġnorms": 16436,
  "ĠTucker": 21634,
  "iao": 22696,
  "Ġforgive": 21567,
  "Ġdessert": 27768,
  "Ġloving": 14110,
  "Ġtypically": 5713,
  "ĠAff": 6000,
  "Ġperf": 25999,
  "Ġincorpor": 8369,
  "Qaeda": 14365,
  "paid": 16879,
  "lav": 17106,
  "yt": 30359,
  "ĠHassan": 20779,
  "idate": 21303,
  "Ġmicrobi": 22588,
  "Ġcream": 9620,
  "Ġep": 2409,
  "ony": 1559,
  "Ġresponders": 27025,
  "Ġpressing": 12063,
  "por": 1764,
  "Ġminutes": 2513,
  "ĠTurkey": 5517,
  "Ġchancellor": 21677,
  "Ġrum": 6415,
  "Ġundermined": 23726,
  "peria": 30428,
  "Ġoxygen": 11931,
  "ĠDay": 3484,
  "ĠDixon": 24487,
  "Ġinexpl": 27870,
  "ĠSounds": 23171,
  "lynn": 10873,
  "oned": 10977,
  "ĠOmaha": 30930,
  "Ġnonpartisan": 31284,
  "Ġdefinite": 23149,
  "wh": 1590,
  "turn": 21526,
  "ĠNickel": 30813,
  "Care": 18358,
  "Ġcommemorate": 30649,
  "ĠFilms": 23795,
  "ĠYankees": 15328,
  "Ġflush": 26656,
  "Ġoxy": 10854,
  "Ġplaced": 4732,
  "Ġexploration": 11915,
  "Ġhypotheses": 31215,
  "Ġcontinuity": 22561,
  "Ġconnects": 19106,
  "ency": 1294,
  "ĠFBI": 4483,
  "Ġsimulations": 22938,
  "ĠScreen": 16352,
  "Ġpiss": 17689,
  "ĠJerusalem": 9403,
  "ĠConvers": 29880,
  "Ġstretches": 20452,
  "Ġdoubtful": 30386,
  "Ġeffort": 3126,
  "ĠCharlotte": 12858,
  "ĠArcade": 29602,
  "Ġsol": 1386,
  "enger": 6096,
  "itative": 13235,
  "Ġchar": 1332,
  "leased": 15796,
  "ĠRoth": 13987,
  "inating": 5522,
  "Ġstimuli": 25069,
  "ris": 2939,
  "seys": 22392,
  "ĠFil": 6282,
  "Ġautonomy": 17584,
  "ĠNSA": 8245,
  "Ġtaxpayer": 13207,
  "Ġoverd": 12423,
  "ãĤĤ": 30490,
  "ĠSaudi": 5867,
  "Ġshowed": 3279,
  "Ġsugar": 8263,
  "Ġflaws": 15605,
  "Ġmar": 1500,
  "ĠPer": 2371,
  "Ġorganizers": 14539,
  "Ġreck": 11247,
  "isans": 21149,
  "Ġexpress": 2533,
  "Ġathlete": 14122,
  "ĠBaby": 15723,
  "ĠSerbian": 29758,
  "iovascular": 23157,
  "ĠBernardino": 28863,
  "Ġreputation": 7523,
  "erald": 11227,
  "Ġstrip": 11085,
  "Ġneuro": 9125,
  "Ġirony": 16878,
  "ĠPearl": 17925,
  "body": 2327,
  "Ġreckless": 19040,
  "ĠAngular": 20447,
  "Ġrefugees": 6808,
  "ĠParsons": 27273,
  "Ġpossessing": 24488,
  "Ġminds": 8211,
  "Ġlaws": 2496,
  "Ġleaves": 5925,
  "Ġpopulation": 2958,
  "Ġrant": 25660,
  "']": 30939,
  "ĠWill": 2260,
  "ĠDocker": 21259,
  "160": 18546,
  "ĠGuardiola": 31696,
  "Ġcopyright": 5670,
  "Ġmidfield": 8900,
  "Ġretail": 5403,
  "Ġexerc": 4659,
  "Ġ77": 12020,
  "ĠGreenpeace": 27724,
  "Ġmu": 29847,
  "Ġrange": 3149,
  "ĠSelf": 13042,
  "ĠHost": 16375,
  "human": 10388,
  "stra": 11323,
  "Ġpuzz": 9452,
  "________________________________": 15837,
  "ology": 1344,
  "alie": 23655,
  "Ġtech": 6017,
  "ĠHuck": 20928,
  "Ġunsustainable": 28479,
  "ĠCON": 9794,
  "because": 12665,
  "ĠTab": 17280,
  "aho": 15229,
  "Ġhearings": 14636,
  "ohyd": 22388,
  "Ġelevate": 31087,
  "ILE": 22640,
  "Ġskewed": 30657,
  "ĠThus": 6894,
  "olit": 5484,
  "Ġpointers": 31532,
  "Ġquestion": 1656,
  "ĠChand": 14753,
  "Ġinspir": 7582,
  "Ġmessage": 3160,
  "osing": 2374,
  "ĠMars": 4981,
  "Ġalle": 28622,
  "ĠSter": 17140,
  "Ġbalcony": 30045,
  "Ġsee": 732,
  "Ġassist": 3318,
  "eness": 10027,
  "ĠCombined": 28147,
  "ĠÎ": 6760,
  "Ġ1961": 18104,
  "Ġoutfits": 24865,
  "Ġcreat": 1806,
  "Ġcolors": 8618,
  "ĠSV": 20847,
  "Ġcreator": 11559,
  "Ġmisogyn": 19386,
  "ĠUber": 9285,
  "Ġfinal": 2198,
  "ĠJacobs": 22554,
  "Ġauthorize": 30032,
  "Ġcrystall": 30168,
  "Dark": 31079,
  "aw": 653,
  "ĠBelle": 29349,
  "ĠYemeni": 28323,
  "ĠSmart": 11000,
  "ustral": 19527,
  "ko": 6658,
  "ĠSexual": 20489,
  "atel": 20650,
  "Ġnephew": 22688,
  "Ġorganic": 9882,
  "arch": 941,
  "brook": 17308,
  "liberal": 27035,
  "ĠBruce": 9018,
  "Ġbats": 16225,
  "Ġcompounds": 16010,
  "ĠSinger": 22906,
  "ĠWoodward": 31543,
  "ĠLibya": 9706,
  "ĠLouise": 27069,
  "ĠSunset": 31047,
  "ĠInterest": 10354,
  "FK": 24925,
  "Ġmidway": 31349,
  "Ġdestabil": 21246,
  "Ġfibre": 29140,
  "Ġgraduates": 16256,
  "Ġinsur": 11167,
  "Ġein": 24121,
  "Ġempire": 12731,
  "Ġnom": 3557,
  "director": 27208,
  "ĠCain": 22419,
  "Ġboon": 31835,
  "uddle": 23438,
  "Ġtouring": 20107,
  "Ġbase": 2561,
  "Ġinvading": 29337,
  "cknow": 4733,
  "Ġrevision": 18860,
  "tra": 10625,
  "Ġendorse": 9759,
  "ĠFukushima": 22927,
  "Ġprofiles": 16391,
  "pit": 14915,
  "Ġthemes": 11814,
  "utenant": 15010,
  "Ġ72": 10385,
  "Ġless": 1270,
  "Ġmist": 3771,
  "Ġenroll": 15660,
  "Ġempathy": 18471,
  "ĠDefence": 13964,
  "vernment": 10449,
  "formed": 12188,
  "Ġbits": 10782,
  "Ġobsc": 9937,
  "ĠVive": 24744,
  "Ġno": 612,
  "Ġword": 1582,
  "Ġunlike": 4371,
  "Ġtsunami": 23225,
  "pled": 8787,
  "Ġserve": 4397,
  "ĠKathleen": 23897,
  "sky": 12541,
  "ĠMatt": 5350,
  "Ġwine": 8207,
  "Ġ=>": 5282,
  "Ġauthority": 5157,
  "Ġreput": 6649,
  "Ġuseless": 14842,
  "ĠMess": 9289,
  "ĠOtto": 26763,
  "lan": 7415,
  "Ġorganisations": 13182,
  "ĠEVER": 22751,
  "ĠSalv": 17620,
  "integr": 18664,
  "Ġgunmen": 26512,
  "keeper": 12811,
  "oun": 823,
  "amacare": 8856,
  "Ġhomework": 23402,
  "Ġguitar": 8962,
  "reck": 10689,
  "Ġoutgoing": 23485,
  "know": 16124,
  "Af": 22762,
  "Ġcoaches": 8525,
  "ĠProp": 8637,
  "Ġskilled": 13874,
  "Ġexperimenting": 23122,
  "Ġslogans": 23699,
  "Ġheel": 25558,
  "ĠMaximum": 31076,
  "Ġreimburse": 27067,
  "ĠSUV": 19645,
  "Ġcompact": 16304,
  "ĠGallery": 12978,
  "ORE": 6835,
  "Ġcocaine": 13470,
  "Under": 21027,
  "Ġchaotic": 20175,
  "Ġlame": 26737,
  "ĠTTC": 30077,
  "Ġmercury": 26056,
  "Ġcooled": 31242,
  "ĠCities": 18813,
  "tta": 24312,
  "Ġsympathy": 18067,
  "Â¢": 25623,
  "ĠâĢĶ": 702,
  "INGTON": 14285,
  "Ġgatherings": 30255,
  "ark": 636,
  "Ġcurriculum": 17599,
  "ĠPS": 6233,
  "Ġdistortion": 26615,
  "ĠLind": 7784,
  "ĠAlthough": 3561,
  "Ġprospect": 5589,
  "ĠFlying": 22581,
  "ĠApps": 24521,
  "vm": 29834,
  "Ġbent": 18005,
  "Ġfelt": 2833,
  "Ġdegr": 22357,
  "Rob": 24042,
  "ĠCity": 2030,
  "ĠVe": 5083,
  "quality": 13066,
  "Ġlengths": 19770,
  "Ġrigged": 24292,
  "pired": 5492,
  "ĠDave": 8364,
  "Ġscare": 16370,
  "ĠHyper": 18464,
  "å¤": 24437,
  "lab": 24951,
  "ĠAbdel": 26238,
  "Ġdisenfranch": 30718,
  "ivo": 21055,
  "Ġcertified": 17397,
  "osphere": 18792,
  "Ġcontroversies": 29175,
  "Ġshotgun": 18603,
  "ĠJeb": 19682,
  "aser": 6868,
  "Ġfirefighters": 18618,
  "iful": 4426,
  "ĠGor": 16830,
  "Ġdamning": 27628,
  "Ġsocieties": 12864,
  "Ġpurchases": 12905,
  "ĠBattalion": 29499,
  "Ġbalanced": 12358,
  "Ġpupils": 22335,
  "Ġropes": 29592,
  "Ġcoping": 31517,
  "Ġmaximum": 6842,
  "gic": 24052,
  "Ġoptical": 18426,
  "object": 21238,
  "archive": 30057,
  "ĠComcast": 16211,
  "Ġcease": 11748,
  "produced": 25583,
  "Ġfaced": 6102,
  "Ġwarns": 18066,
  "Ġrematch": 29700,
  "Ġnewsletters": 11618,
  "ĠDiscovery": 19736,
  "Ġovernight": 11632,
  "Ġawards": 11357,
  "Money": 30988,
  "ĠLots": 22215,
  "ollow": 947,
  "untu": 11132,
  "comm": 14496,
  "Ġconfront": 6911,
  "XX": 11941,
  "Ġbases": 11028,
  "Ġpledge": 11797,
  "ĠBarton": 25789,
  "ĠSantorum": 22772,
  "ĠSons": 28579,
  "ĠRapp": 31322,
  "ILL": 10522,
  "Ġtense": 18174,
  "correct": 30056,
  "aires": 14659,
  "Ġaccept": 2412,
  "ally": 413,
  "Ġot": 28095,
  "ilaterally": 30614,
  "ht": 5436,
  "ĠAren": 29852,
  "aja": 23743,
  "Ġ1959": 20469,
  "Ġreviewers": 26170,
  "ĠTripoli": 28513,
  "ĠAC": 5760,
  "ĠCommunications": 12897,
  "oha": 27791,
  "common": 19149,
  "Ġmachines": 7294,
  "Ġveto": 13871,
  "Ġhighly": 3826,
  "Ġ1928": 29519,
  "And": 4211,
  "ĠIV": 11090,
  "ĠKingston": 29853,
  "ĠJeff": 4507,
  "heading": 30013,
  "Ġpermitted": 11932,
  "Ġrepay": 19491,
  "Ġfer": 11268,
  "a": 64,
  "Ġendangered": 17963,
  "ĠMake": 7253,
  "ĠFoster": 15284,
  "Ġconceptual": 21068,
  "Ġcollaborated": 28044,
  "Ġcoached": 23099,
  "ĠWork": 5369,
  "Ġinauguration": 18570,
  "uten": 9480,
  "ĠRd": 23998,
  "Ġhandcuffed": 30987,
  "bed": 3063,
  "ĠCap": 3617,
  "Ġinjury": 4799,
  "ĠMulcair": 31889,
  "Nobody": 25242,
  "Ġcrime": 3739,
  "Ġconversation": 4813,
  "Ġbananas": 31975,
  "ĠCamb": 17757,
  "Ġbandwidth": 19601,
  "Ġboards": 11131,
  "sm": 7340,
  "Ġdominates": 30999,
  "ĠWorking": 13221,
  "Ġchallenge": 3794,
  "ĠVillage": 14101,
  "Ãª": 19076,
  "Ġvisit": 2923,
  "Ġmaster": 5424,
  "ĠFour": 5889,
  "Ġimport": 1224,
  "hun": 21558,
  "Ġabilities": 9225,
  "Ġmechanic": 20758,
  "ĠGaal": 29642,
  "Ġsimply": 2257,
  "Ġsides": 4991,
  "osaurs": 18582,
  "raw": 1940,
  "ĠHat": 13310,
  "rer": 8319,
  "ĠWash": 22168,
  "ĠMilky": 29392,
  "ĠCommit": 28810,
  "W": 54,
  "Ġpark": 3553,
  "ĠSweet": 16964,
  "Ġwage": 6791,
  "Ġskyrock": 24133,
  "Ġpreaching": 29821,
  "Ġreligions": 16452,
  "ĠIslamists": 24332,
  "Ġbald": 26130,
  "Ġrecons": 19983,
  "ĠGriffith": 25102,
  "ĠBangladesh": 15714,
  "bud": 24532,
  "ĠDoll": 25701,
  "oes": 3787,
  "Ġtaste": 7274,
  "ĠEngineering": 15283,
  "ĠThem": 28180,
  "Ġliteracy": 26603,
  "response": 30456,
  "doc": 21196,
  "ĠKum": 16539,
  "Ġpresum": 8489,
  "Ġunderestimate": 29316,
  "Ġregistered": 7293,
  "atively": 9920,
  "ion": 254,
  "¢": 95,
  "ĠFlorida": 3961,
  "Ġamount": 2226,
  "ĠImam": 31320,
  "Ġelimination": 19334,
  "ĠHDMI": 29683,
  "Ġbrut": 7650,
  "tel": 9526,
  "Ġadvisers": 16113,
  "hy": 2073,
  "Ġteen": 5279,
  "Ġrequested": 9084,
  "sembly": 6152,
  "Ġslic": 14875,
  "Ġjaw": 18729,
  "ĠQur": 17258,
  "folk": 20191,
  "Ġtrader": 30296,
  "ĠST": 4792,
  "ĠTitan": 14370,
  "Ġusual": 6673,
  "ĠCo": 1701,
  "Ġdownward": 19321,
  "Ġthreads": 16639,
  "Ġhim": 652,
  "ĠOccupy": 15429,
  "ju": 15811,
  "Ġscreamed": 24957,
  "umi": 20885,
  "Ġw": 221,
  "ĠTi": 18526,
  "ĠEaster": 18001,
  "ĠMig": 18942,
  "Ġhitters": 25089,
  "ĠTrou": 22788,
  "FI": 18750,
  "ĠTroy": 18374,
  "azingly": 23387,
  "Ġimpartial": 28879,
  "Ġhighways": 23862,
  "Ġdisgrace": 24098,
  "ĠGovernments": 31995,
  "Ġimportantly": 9466,
  "ĠBased": 10714,
  "Ġscales": 17097,
  "ĠWater": 6768,
  "Ġunleash": 30030,
  "Republic": 21056,
  "Ġdupl": 15679,
  "Ġappreciated": 16745,
  "ĠEld": 22116,
  "Ġunans": 26292,
  "Ġremote": 6685,
  "home": 13441,
  "Ġservant": 22179,
  "Ġsightings": 29545,
  "Ġhttp": 3294,
  "astic": 3449,
  "hner": 14256,
  "ĠMus": 2306,
  "»": 119,
  "ĠSE": 11427,
  "Ġapartheid": 27134,
  "ĠPrimary": 22450,
  "Ġemphas": 5916,
  "described": 28848,
  "Ġimag": 3264,
  "Ġ(âĢľ": 8864,
  "tit": 12305,
  "Ġtough": 4889,
  "Ġnood": 24959,
  "ference": 1897,
  "Ġreferencing": 27657,
  "Russian": 17052,
  "ĠHQ": 24514,
  "ibal": 18855,
  "atti": 26072,
  "Ġtoday": 1623,
  "agnetic": 23771,
  "Ġquake": 27564,
  "attacks": 29776,
  "agan": 6380,
  "house": 4472,
  "Ġrepresentatives": 9214,
  "ĠGeneral": 3777,
  "Ġsimilarly": 11137,
  "born": 6355,
  "ĠEis": 20996,
  "Ġapologise": 31720,
  "BC": 2288,
  "Ġcollapsed": 13304,
  "ĠRu": 15267,
  "Ġauto": 8999,
  "ears": 4432,
  "cified": 20910,
  "Ġadvertising": 7663,
  "Ġdepartments": 11604,
  "Ġoriented": 24105,
  "ĠVirtual": 17314,
  "Ġpopul": 12278,
  "Ġrack": 21050,
  "Ġbuck": 10186,
  "ĠAges": 23611,
  "Ġindividual": 1978,
  "Ġconscious": 7325,
  "wise": 3448,
  "Ġparticipating": 11258,
  "ĠPacific": 7407,
  "Ġoffended": 19866,
  "Smith": 24591,
  "apture": 26639,
  "zsche": 31116,
  "Ġrational": 8505,
  "Ġexpensive": 5187,
  "Ġ2022": 25980,
  "ĠWil": 4279,
  "ĠKey": 6861,
  "ĠSunderland": 26451,
  "family": 18504,
  "ĠIX": 23793,
  "ĠHayden": 26808,
  "Ġmor": 1946,
  "ades": 2212,
  "Ġexciting": 6711,
  "Ġscrew": 11091,
  "ĠBuddha": 20833,
  "bourne": 10321,
  "Ġcommissioners": 27139,
  "apolis": 9585,
  "ARY": 19380,
  "Ġvulnerability": 13858,
  "Ġpushing": 6567,
  "rose": 13937,
  "Ġinadvert": 22486,
  "wig": 24101,
  "Ġtal": 2770,
  "ummer": 22819,
  "Ġsued": 13047,
  "iza": 27447,
  "oration": 6888,
  "Ġscenario": 7716,
  "Ġfaint": 21368,
  "Ġpertain": 20796,
  "ĠNotably": 30487,
  "Please": 15955,
  "550": 28390,
  "Ġlong": 842,
  "Ġsales": 3756,
  "ahu": 9461,
  "alian": 26082,
  "ĠTian": 28685,
  "Ġpity": 28755,
  "actions": 7438,
  "ĠCarlo": 31206,
  "ĠCoord": 21362,
  "gging": 17434,
  "ĠRepublican": 2430,
  "Ġgeopolitical": 26173,
  "Ġoil": 2706,
  "ĠCharter": 20630,
  "DD": 21026,
  "Ġhacks": 25756,
  "mel": 16721,
  "ĠWass": 24743,
  "state": 5235,
  "ĠSomalia": 17778,
  "got": 24245,
  "Ġlandscapes": 27738,
  "bury": 9516,
  "reland": 5967,
  "ĠResearchers": 14316,
  "king": 9537,
  "Ġfloat": 15840,
  "igue": 16390,
  "ĠQualcomm": 25637,
  "Ġaffordable": 9437,
  "St": 2515,
  "chair": 14474,
  "ĠWade": 14749,
  "Ġholder": 19250,
  "ĠFleet": 21562,
  "Fil": 25301,
  "ĠRudy": 29148,
  "Ġeventually": 3650,
  "Ġbak": 29196,
  "gal": 10902,
  "rones": 14839,
  "North": 20699,
  "Ġcongreg": 27016,
  "ĠModi": 10882,
  "ĠMan": 1922,
  "Ġdim": 5585,
  "ĠCalifornia": 2917,
  "ĠCenters": 20170,
  "acket": 9006,
  "ĠNebraska": 15809,
  "Ġcompelling": 11270,
  "elly": 5815,
  "Ġpolyg": 31698,
  "ĠUW": 25474,
  "Ġentrenched": 24994,
  "Ġexplanation": 7375,
  "Ġopp": 1113,
  "Ġcrawl": 27433,
  "Ġdevastated": 20066,
  "ĠMinecraft": 25572,
  "citation": 11184,
  "Ġchampionship": 7509,
  "ĠMaya": 25735,
  "Ġants": 25096,
  "ĠTul": 28115,
  "Ġmight": 1172,
  "ron": 1464,
  "ĠEvans": 11909,
  "Ġrecreation": 25013,
  "ĠBea": 28240,
  "Ġyounger": 6306,
  "ĠNetanyahu": 11699,
  "erness": 17578,
  "Ġpolitically": 9172,
  "F": 37,
  "Ġblue": 4657,
  "Ġecho": 9864,
  "Ġneural": 15357,
  "Ġdisturb": 17070,
  "Ġselling": 5358,
  "Ġconservative": 4491,
  "Ġweighed": 17253,
  "ata": 1111,
  "Ġinning": 18629,
  "assad": 28518,
  "Ġmonths": 1687,
  "Ġaccusing": 15298,
  "hens": 4953,
  "Î¼": 28128,
  "Ġf": 233,
  "Ġthumb": 14438,
  "Ġweek": 1086,
  "Ġhacked": 16002,
  "Ġstockp": 25083,
  "Direct": 26369,
  "Ġwar": 1089,
  "USD": 31200,
  "ouble": 21523,
  "Ġshif": 6360,
  "Ġalleges": 18003,
  "Ġthink": 786,
  "ĠTell": 11346,
  "ĠLives": 16193,
  "Ġwedding": 10279,
  "ensions": 5645,
  "ima": 7374,
  "ĠFlan": 31114,
  "ĠSTR": 28754,
  "Ġbeing": 768,
  "Ġscripted": 29851,
  "Ġassembly": 10551,
  "Ġlinem": 17141,
  "Ġphilosop": 6284,
  "Ġcomm": 673,
  "weight": 6599,
  "Ġexhibit": 14705,
  "whether": 25001,
  "Str": 29558,
  "EW": 7227,
  "sequently": 18624,
  "azing": 4312,
  "Ġblanket": 17901,
  "Ġsparking": 31260,
  "ĠBaghd": 14974,
  "Wind": 19961,
  "ystem": 8003,
  "Ġcause": 2935,
  "ĠRid": 22190,
  "Ġcelebr": 4193,
  "!,": 26362,
  "ĠGrant": 10760,
  "Ġviolence": 3150,
  "orig": 12631,
  "ĠGrey": 14980,
  "ĠSem": 15041,
  "Ġforwarded": 29520,
  "Ġfraud": 6362,
  "Ġ).": 10030,
  "Ġapp": 567,
  "metic": 17844,
  "Ġcounterterrorism": 28137,
  "Ġvillages": 13174,
  "Ġbees": 17265,
  "ĠLodge": 29157,
  "Ġknocked": 12620,
  "ĠMed": 2169,
  "istical": 19882,
  "Ġhaul": 15002,
  "Ġvenom": 28680,
  "ĠWinston": 18642,
  "Ġdoing": 1613,
  "ĠSlow": 21167,
  "Ġconducting": 12755,
  "Ġradiation": 10797,
  "ĠSylv": 25088,
  "Ġrebuilt": 26850,
  "Ġkinda": 18194,
  "Ġworse": 4238,
  "ĠTechnology": 8737,
  "Ġinhabited": 29656,
  "ĠTeresa": 30171,
  "del": 14737,
  "Ġradical": 6116,
  "Ġfinances": 16776,
  "Ġreve": 2474,
  "ĠTime": 4829,
  "Ġweighing": 19204,
  "antry": 20613,
  "ĠShi": 14731,
  "ĠSquadron": 29805,
  "Ġinforms": 30421,
  "ĠSony": 8097,
  "Ġpassionate": 12995,
  "Ġadversaries": 28734,
  "ĠAlbany": 24489,
  "ĠColts": 17330,
  "Ġtox": 21514,
  "SM": 14887,
  "Ġbackwards": 15947,
  "Ġrehabilitation": 21529,
  "ĠPra": 19541,
  "Ġpile": 14262,
  "Ġess": 3024,
  "Ġbeet": 26358,
  "ĠInvent": 31944,
  "iker": 17699,
  "Ġhex": 21600,
  "Ġhumiliating": 31416,
  "Ġjoked": 21248,
  "entially": 3190,
  "osaur": 17010,
  "Ġpredictable": 16697,
  "athan": 6131,
  "Ġidiot": 19452,
  "Ġemulate": 28360,
  "change": 3825,
  "dep": 10969,
  "Ġclever": 12513,
  "Ġmur": 4007,
  "Ġcanned": 29819,
  "ĠMaur": 15619,
  "Ġturbine": 30338,
  "Ġadvance": 5676,
  "°": 108,
  "ĠQatar": 14238,
  "Ġtouted": 20865,
  "Ġcraz": 23983,
  "Ġending": 7130,
  "ĠCul": 25376,
  "Ġinvade": 27195,
  "Ġresponded": 5749,
  "Ġpopulist": 18779,
  "Ġremn": 22506,
  "Ġoffshore": 13981,
  "Ġdemons": 22420,
  "ĠSandy": 14577,
  "olutions": 13923,
  "Ġmansion": 22083,
  "ĠWells": 14597,
  "Ġcausal": 25956,
  "Ġproblem": 1727,
  "March": 22252,
  "Ġwhispered": 30665,
  "Ġ1938": 23190,
  "<|": 659,
  "Ġexchanged": 20923,
  "ĠFIFA": 15581,
  "Ġbuddies": 30293,
  "ĠKem": 20338,
  "Ġrankings": 14138,
  "Ġgoalkeeper": 20074,
  "Ġbishop": 24890,
  "ĠGO": 9699,
  "Ġcorrectly": 10222,
  "ĠMinister": 3415,
  "inery": 14653,
  "Ġflipped": 23704,
  "Ġcries": 24714,
  "Ġchatter": 31592,
  "Ġlord": 23847,
  "LE": 5364,
  "ĠLegendary": 26038,
  "five": 13180,
  "Ġconclud": 4857,
  "Ġ!": 9883,
  "Ġworkers": 2717,
  "Ġcopy": 3565,
  "Ġpot": 1629,
  "ĠMcA": 19806,
  "Ġcracking": 22216,
  "Ġunnamed": 18612,
  "founded": 23125,
  "ĠDON": 24663,
  "Ġnoteworthy": 25051,
  "Ġgeographical": 25216,
  "itud": 30542,
  "ritional": 22838,
  "370": 26308,
  "Ġfabric": 10051,
  "sensitive": 28414,
  "<": 27,
  "Ġdivide": 12313,
  "Ġdivine": 15682,
  "isted": 5232,
  "Ġsplitting": 23627,
  "Ġfolder": 13562,
  "ĠBosnia": 27593,
  "Ġbarely": 7990,
  "ĠHoff": 17622,
  "Ġpron": 9499,
  "ĠBurke": 18013,
  "Ġbought": 5478,
  "Ġpacket": 24065,
  "Ġstandalone": 24822,
  "ĠNorris": 25699,
  "Ġapproval": 6699,
  "2006": 19590,
  "Ġsaturated": 26501,
  "Ġupward": 18010,
  "Ġgrocery": 14774,
  "strong": 10587,
  "Ġnormally": 8141,
  "ĠFY": 25952,
  "ĠXI": 27837,
  "haired": 28792,
  "Ġblog": 3487,
  "Ġcenters": 9092,
  "Ġlethal": 15726,
  "cano": 21325,
  "scribe": 9613,
  "Att": 20546,
  "Ġenhance": 9813,
  "Ġbarring": 27095,
  "pin": 12088,
  "Ġmarkers": 20925,
  "oos": 24074,
  "ĠLieberman": 30366,
  "rel": 2534,
  "Ġbother": 11275,
  "Ġadjustment": 17415,
  "eval": 24357,
  "ĠCaroline": 25369,
  "ĠEnter": 6138,
  "ther": 449,
  "Ġmathematic": 26142,
  "Ġfatty": 24819,
  "Ġdegradation": 25913,
  "Ġchaos": 10721,
  "ĠSummon": 29069,
  "Ġmock": 13340,
  "Ġnegatively": 20346,
  "Ġinsign": 23246,
  "Ġenrichment": 29627,
  "ut": 270,
  "flies": 28237,
  "ĠCoun": 3238,
  "hon": 20431,
  "Ġmacro": 16151,
  "ĠTonight": 21718,
  "update": 31486,
  "ossible": 4675,
  "Ġassociates": 17595,
  "Ïģ": 24089,
  "Ġgrievances": 28101,
  "Ġwhere": 756,
  "Ġopen": 1193,
  "img": 17356,
  "OK": 10338,
  "Ġingen": 24154,
  "Ġforge": 26798,
  "Ġpubl": 1991,
  "struct": 31100,
  "Map": 21498,
  "ĠMack": 13973,
  "Ġprose": 23169,
  "fee": 27340,
  "Ġmeaning": 3523,
  "Ġcontinuation": 21813,
  "via": 10629,
  "Ġhull": 26216,
  "Ġconstrained": 26630,
  "business": 19844,
  "Ġpetroleum": 25906,
  "Ġaiding": 31868,
  "Ġstrategies": 9612,
  "ĠSlim": 31435,
  "Ġerr": 22743,
  "Ġherald": 25462,
  "prus": 22402,
  "exe": 24554,
  "×Ļ": 30080,
  "ĠJupiter": 18865,
  "ambig": 25832,
  "Ġdinosaur": 24911,
  "ĠSpart": 19674,
  "-$": 21788,
  "Ġwrest": 8705,
  "Ġcostumes": 20747,
  "Ġartwork": 15248,
  "Ġfluid": 12661,
  "Ġundercover": 18948,
  "eption": 22668,
  "ĠDoesn": 25653,
  "gged": 10892,
  "fing": 30756,
  "ĠGear": 13765,
  "Ġoptimized": 23446,
  "Ġabsent": 12598,
  "Ġkn": 593,
  "Ġannoun": 1789,
  "Ġstaple": 21868,
  "Ġgarnered": 22110,
  "ĠPremium": 19640,
  "Ġbringing": 5351,
  "rehensible": 29682,
  "Ġknowledge": 3855,
  "Ġfound": 995,
  "Ġdiscussion": 4803,
  "Ġ150": 7726,
  "eu": 12766,
  "Ġperceive": 19167,
  "Ġneurolog": 20880,
  "Ġdissemin": 27436,
  "ÐµÑĢ": 29212,
  "Ġhumility": 30467,
  "Ġtumult": 31235,
  "Ġbids": 23787,
  "Ġouts": 8528,
  "ĠAna": 16226,
  "oke": 2406,
  "Ġoffense": 6137,
  "cry": 13189,
  "oy": 696,
  "&": 5,
  "ĠØ": 13440,
  "enders": 7048,
  "ĠMcM": 11614,
  "ompson": 9335,
  "ĠNPC": 21409,
  "Ġtasty": 26515,
  "Ġcapabilities": 8946,
  "Ġcombined": 5605,
  "pret": 6373,
  "Value": 21705,
  "ĠBuffett": 26605,
  "Ġeligibility": 21419,
  "Ġmerchants": 20609,
  "Ġalbum": 3959,
  "Ġacid": 9159,
  "Ġsecretary": 6019,
  "Ġtimber": 28271,
  "Ġexposed": 6973,
  "supported": 30601,
  "ĠErdogan": 15689,
  "à¸": 10793,
  "Ġcardboard": 25324,
  "ĠBaseball": 14890,
  "angle": 9861,
  "asser": 22437,
  "ggest": 1733,
  "ura": 7156,
  "ÄŁ": 20520,
  "ĠWalton": 26835,
  "ĠPascal": 28819,
  "$": 3,
  "Ġillegal": 4389,
  "Ġstem": 9660,
  "Ġpesticides": 23520,
  "pical": 17342,
  "ĠBC": 10465,
  "ĠNiet": 22026,
  "Ġkilomet": 9522,
  "Ġpages": 5714,
  "terror": 10960,
  "ĠEdge": 14638,
  "ĠNotes": 12182,
  "Ġvibe": 23645,
  "Ġcumulative": 24375,
  "bra": 15493,
  "Ġfunded": 8889,
  "ĠIPv": 26836,
  "Ġcausing": 6670,
  "Ġbears": 12230,
  "ĠKro": 26093,
  "Ġvalue": 2369,
  "ĠSecondly": 23905,
  "Ġlicens": 8440,
  "Ġfocal": 24630,
  "ĠGalile": 27569,
  "Ġcanceled": 16566,
  "Ġpayload": 18510,
  "Ġbadly": 10014,
  "Äģ": 10813,
  "Ġslowing": 18228,
  "Ġunlawful": 19064,
  "virt": 30339,
  "Ġinconven": 19295,
  "ĠDownload": 9776,
  "Ġcow": 9456,
  "Ġdamaging": 12818,
  "Ġquestionable": 15862,
  "Ġsignaled": 26570,
  "Ġfeas": 16146,
  "Ġnote": 3628,
  "Pad": 28937,
  "ĠBean": 25087,
  "ĠCommonwealth": 17332,
  "Ġdiscouraged": 26736,
  "Ġlicense": 6874,
  "Ġsimulate": 26815,
  "Ġdilemma": 21972,
  "ĠV": 577,
  "Ġinstructions": 9413,
  "Ġwildlife": 13525,
  "Ġreapp": 24650,
  "visible": 28162,
  "money": 23080,
  "ibus": 28759,
  "Ġstellar": 20206,
  "gage": 21254,
  "ĠAk": 8910,
  "Real": 22987,
  "Ġ1935": 25795,
  "rib": 796,
  ".âĢĶ": 23452,
  "braska": 15443,
  "Ġreliant": 30642,
  "Ġinspiring": 17378,
  "ouk": 31966,
  "ĠAccess": 9637,
  "Ð¹": 20560,
  "Ġscene": 3414,
  "Ġeyebrows": 26078,
  "Ġdecided": 2727,
  "Ġauthored": 26905,
  "Ġearthquakes": 24530,
  "brain": 27597,
  "ĠOpposition": 19395,
  "Ġreaders": 5968,
  "Ġsync": 19734,
  "ĠTouch": 15929,
  "Ġstation": 4027,
  "Ġsturdy": 31807,
  "Ġmuch": 809,
  "oses": 3235,
  "arent": 1516,
  "Ġ31": 4286,
  "otechnology": 27000,
  "Ġbites": 26169,
  "ĠUse": 7561,
  "maker": 8679,
  "Ġpier": 20668,
  "yon": 17268,
  "Ġinnovative": 11362,
  "Ġwidth": 12821,
  "ĠThose": 4257,
  "Ġfactory": 8450,
  "billion": 18465,
  "Sw": 27131,
  "ARP": 29290,
  "igan": 4725,
  "inite": 11215,
  "ĠClemson": 24497,
  "Ġpseud": 14281,
  "Ġeither": 2082,
  "colm": 15794,
  "Ġgrowers": 27829,
  "lt": 2452,
  "ĠShape": 28325,
  "ĠHip": 25259,
  "Ġsorted": 23385,
  "Ġhurdle": 27087,
  "Ġsighed": 28991,
  "bin": 10694,
  "Ġmaterials": 6063,
  "Ġgifts": 13155,
  "mith": 24168,
  "Ġreflected": 11649,
  "Ġseparated": 11672,
  "Ġslide": 11690,
  "Ġalbums": 13411,
  "Ġbroadcasters": 28747,
  "Ġfavourite": 11425,
  "itations": 22900,
  "ĠKimber": 30425,
  "ĠHD": 8208,
  "Ġdensity": 12286,
  "Ġdaily": 4243,
  "Ġbow": 9949,
  "Ġens": 2942,
  "ĠMission": 12612,
  "Ġflying": 7182,
  "asha": 17602,
  "ĠRequ": 21595,
  ".\"": 682,
  "ĠNeuro": 22649,
  "endment": 5387,
  "Ġclassroom": 14266,
  "ĠJuan": 13883,
  "adal": 28912,
  "Ġcritics": 6942,
  "ĠQuebec": 11545,
  "ĠCanad": 1889,
  "NBA": 30582,
  "isy": 23227,
  "Ġnever": 1179,
  "ĠFergus": 11537,
  "ĠStudio": 12890,
  "Ġarrow": 18697,
  "Ġgag": 28592,
  "early": 20957,
  "resp": 4521,
  "Ġeff": 890,
  "ha": 3237,
  "Ġsetback": 24654,
  "iago": 23305,
  "idable": 21304,
  "Ġleague": 3586,
  "Ġreluct": 11166,
  "ĠWay": 6313,
  "Ġgetting": 1787,
  "ounce": 8834,
  "asers": 28940,
  "ĠDodgers": 18159,
  "Ġnutrition": 17074,
  "ĠBlade": 20757,
  "flow": 11957,
  "Green": 22178,
  "Ġidentifying": 12698,
  "Ġestablish": 4722,
  "PG": 8347,
  "¹": 117,
  "names": 14362,
  "ĠUh": 31743,
  "special": 22164,
  "Ġrapidly": 8059,
  "ĠPennsylvania": 8102,
  "viol": 14191,
  "ĠABC": 7863,
  "agh": 9344,
  "Ġarrested": 4130,
  "sil": 20259,
  "ĠGod": 2566,
  "Ġfoc": 1862,
  "Ġguilt": 14667,
  "Ġwhatever": 4135,
  "cipled": 31579,
  "ka": 4949,
  "ĠJudiciary": 20562,
  "Ġeducated": 13369,
  "ignty": 14107,
  "ĠBuccane": 29876,
  "Ġclearance": 20304,
  "rific": 7518,
  "ĠRecords": 11834,
  "ĠCarn": 22016,
  "().": 25992,
  "Ġcriminals": 10732,
  "anto": 13612,
  "Ġsurgical": 22103,
  "UK": 17687,
  "Ġcompression": 21768,
  "Ġrestoring": 22541,
  "Play": 22565,
  "Ġfertility": 20715,
  "liness": 26183,
  "SW": 21476,
  "ĠAgainst": 11404,
  "ĠFol": 23511,
  "Ġlength": 4723,
  "Ġheight": 6785,
  "ĠKy": 11506,
  "Ġvisions": 23936,
  "ĠHole": 29324,
  "ĠNorman": 16097,
  "Ġinhab": 11347,
  "mand": 19009,
  "Ġsubstance": 9726,
  "Ġracist": 8164,
  "stop": 10620,
  ").[": 11194,
  "Ġoverr": 23809,
  "C": 34,
  "bet": 11758,
  "ĠVlad": 10554,
  "ĠRaj": 10261,
  "ĠSK": 16069,
  "atoes": 12137,
  "ĠLy": 7851,
  "nine": 27725,
  "ossibly": 20200,
  "ĠHud": 13725,
  "89": 8477,
  "ocol": 5042,
  "ĠSpring": 8086,
  "Ġchampioned": 28817,
  "Ġblatant": 23349,
  "Ġshed": 13638,
  "De": 8974,
  "ĠNorfolk": 26667,
  "ĠRB": 17115,
  "Ġparts": 3314,
  "ĠSub": 4057,
  "Ġwhoever": 16011,
  "Ġcreature": 10357,
  "onduct": 11026,
  "Ġdude": 17768,
  "lived": 19942,
  "ĠDEC": 26942,
  "Ġtelesc": 28366,
  "Ġed": 959,
  "Ġlos": 10881,
  "gom": 16073,
  "ĠLe": 986,
  "ÂŃ": 2875,
  "%.": 7560,
  "Ġarchaeologists": 31421,
  "ĠMerced": 15608,
  "orous": 9170,
  "OUND": 22578,
  "una": 11360,
  "iances": 15225,
  "izard": 12613,
  "Ġfailures": 12997,
  "Ġtwo": 670,
  "Ġfilters": 18103,
  "ĻĤ": 25420,
  "Ġbron": 17649,
  "ĠLancaster": 31225,
  "pread": 7725,
  "testing": 31637,
  "icus": 21876,
  "fan": 16072,
  "ãĤĵ": 29799,
  "ĠHod": 17805,
  "ĠSEL": 26215,
  "Ġhundreds": 4331,
  "Ġlabeled": 14471,
  "Ġindictment": 16567,
  "ĠLetter": 19034,
  "ĠBernie": 7930,
  "Ġfavorable": 15365,
  "Ġnoodles": 31220,
  "Ġnorthern": 6792,
  "Ġdoesn": 1461,
  "index": 16172,
  "ĠHis": 2012,
  "Ġeasier": 4365,
  "Ġframework": 8271,
  "Ġempowered": 25196,
  "olution": 2041,
  "uds": 20565,
  "Ġweekly": 9307,
  "Ġrequirements": 6740,
  "oped": 20781,
  "Ġmemorandum": 30651,
  "ĠMacron": 22331,
  "Ġrecovering": 17364,
  "Ġdeadlines": 30855,
  "Ġserial": 12403,
  "Ġperpetrated": 29291,
  "remlin": 14400,
  "Ġarms": 5249,
  "ĠSport": 10948,
  "ĠJag": 26553,
  "ro": 265,
  "Ġsaving": 9243,
  "ĠFemin": 22249,
  "ĠLabs": 22032,
  "Ð": 138,
  "ery": 2209,
  "Ġexposes": 28418,
  "Ġbracket": 19277,
  "INGS": 27499,
  "ĠOscar": 12509,
  "Ġrulings": 25740,
  "man": 719,
  "Ġiv": 23077,
  "Ġculinary": 31041,
  "Ġgeneration": 4699,
  "ĠRule": 16122,
  "rick": 4691,
  "Ġacted": 11686,
  "Ġstakeholders": 21169,
  "mate": 7879,
  "ĠCons": 3050,
  "asting": 9661,
  "ĠNissan": 22172,
  "Ġworm": 23617,
  "Ġoverse": 7524,
  "ordinary": 31474,
  "Ġtweak": 24862,
  "Ġdraws": 13051,
  "Ġdesignation": 21441,
  "ĠCou": 14604,
  "ĠCaval": 19480,
  "Ġhassle": 30953,
  "Ġrequest": 3327,
  "Ġcovered": 5250,
  "ĠEngland": 3910,
  "Ġrisky": 15340,
  "quest": 8638,
  "iba": 24198,
  "ributes": 9672,
  "Ġanonymously": 28703,
  "ĠDefense": 6426,
  "Ġintroduced": 4763,
  "stant": 22789,
  "Ġsummed": 26405,
  "ĠKushner": 19934,
  "urred": 13073,
  "een": 9577,
  "nex": 15241,
  "ĠHarley": 26681,
  "44": 4391,
  "flation": 26812,
  "ĠTurkish": 7751,
  "ĠConsequently": 23031,
  "Ġenlight": 18556,
  "Ġpistol": 14945,
  "ĠAssistant": 14050,
  "ĠREST": 30001,
  "Ġchallenged": 10785,
  "Ġmixing": 16959,
  "Ġspecified": 13459,
  "ĠOC": 19318,
  "ranted": 28211,
  "Ġthrone": 19453,
  "ĠRep": 1176,
  "^^": 26729,
  "Ġfluctuations": 28799,
  "Ġtransferred": 10931,
  "song": 28621,
  "Ġcompelled": 19008,
  "Ġdigital": 4215,
  "Ġaspect": 4628,
  "rowing": 10175,
  "Ġinsecure": 27283,
  "Ġvolcanic": 25800,
  "azz": 7717,
  "ĠThreat": 22619,
  "Ġsynt": 7994,
  "ĠMinistry": 8246,
  "Ġholdings": 23600,
  "OTH": 25584,
  "Ġopin": 3474,
  "ĠPrice": 8511,
  "Ġescorted": 27179,
  "vertisements": 9644,
  "Ġethics": 12005,
  "ĠYoga": 30087,
  "ĠAmerican": 1322,
  "Ġapolog": 7594,
  "Ġshare": 2458,
  "Ġah": 31461,
  "fort": 3363,
  "Ġnaturally": 8858,
  "ĠRichmond": 14133,
  "Ġdeck": 7011,
  "Ġliving": 2677,
  "Ġshowc": 17881,
  "ĠFirst": 2679,
  "Ġanal": 1893,
  "ĠTRUMP": 30083,
  "ĠMO": 12991,
  "Ġobjection": 19843,
  "ĠWindows": 4256,
  "Ġfutile": 30863,
  "Ġencouraged": 8713,
  "Ġabortions": 16717,
  "Hello": 20234,
  "Ġfeared": 13274,
  "Ġcakes": 30882,
  "ĠÐ·": 31345,
  "%,": 8001,
  "Ġisolation": 13319,
  "Left": 30801,
  "net": 3877,
  "ĠMorales": 27531,
  "ĠAM": 4003,
  "Ġstuffed": 21226,
  "Ġparties": 4125,
  "ĠPurd": 24840,
  ".\"<|": 5830,
  "She": 6605,
  "ificant": 16314,
  "Ġpressured": 24980,
  "Ġresearc": 3432,
  "Ġ('": 31037,
  "Ġdenial": 13312,
  "ĠUpon": 13882,
  "Ġfinanced": 23429,
  "olphin": 25656,
  "about": 11196,
  "Ġhunting": 10807,
  "ĠEve": 10273,
  "Ġteaser": 30757,
  "Ġguilty": 6199,
  "ĠAPIs": 20462,
  "Ġpromote": 6847,
  "Ġbreakthrough": 15364,
  "ĠRecommend": 28706,
  "Ġscreaming": 13492,
  "uania": 27839,
  "2007": 18135,
  "Ġgroup": 1017,
  "level": 6108,
  "Ġtouched": 12383,
  "ĠIss": 13746,
  "Ġoutcry": 25731,
  "ĠIE": 26333,
  "Ġcelebrated": 11746,
  "ĠPerformance": 15524,
  "Ġunrestricted": 29681,
  "cards": 30957,
  "ĠJazz": 20024,
  "Ġ54": 9300,
  "ĠThrow": 27020,
  "arr": 3321,
  "ĠAnimal": 14723,
  "Welcome": 25815,
  "+": 10,
  "--------------------------------": 10916,
  "agu": 11673,
  "Ġtournament": 6530,
  "Ġopinions": 8549,
  "Ġreconc": 16091,
  "believ": 15880,
  "ĠCongress": 2538,
  "thread": 25530,
  "ray": 2600,
  "ĠApart": 17186,
  "Ġtumor": 22119,
  "Ġgreed": 16182,
  "Ġuniversally": 22981,
  "ivan": 12033,
  "ĠClick": 6846,
  "Ġimaginary": 23891,
  "Ġopenness": 23536,
  "hab": 5770,
  "Ġmasculinity": 28007,
  "Ġband": 3608,
  "Ġagreed": 4258,
  "Ġrhetoric": 9958,
  "ĠNew": 826,
  "Ġmoral": 6030,
  "Ġrows": 17495,
  "Ġtraced": 20556,
  "\")": 8508,
  "ĠStein": 11825,
  "Ġmotions": 24830,
  "ricted": 21356,
  "Ġvetting": 30768,
  "endoftext": 661,
  "Ġparish": 25124,
  "Ġhay": 25387,
  "Ġmarathon": 19567,
  "ĠTories": 18310,
  "Ġcamps": 10190,
  "ĠJames": 3204,
  "Ġtodd": 21106,
  "ĠBros": 13493,
  "Ġinclusion": 13258,
  "Ġaunt": 24809,
  "ĠGraph": 18193,
  "Ġfishing": 11646,
  "ullah": 26530,
  "EN": 2619,
  "Ġcompetence": 29277,
  "polit": 12025,
  "Ġbackground": 4524,
  "ria": 7593,
  "Ġdevelops": 20173,
  "JP": 11119,
  "Ġtelescope": 21642,
  "ancial": 2451,
  "Ġpeoples": 13477,
  "ns": 6003,
  "Ġcomputers": 7771,
  "Ġcohort": 23602,
  "arrow": 27864,
  "Ġindoors": 30342,
  "ĠFuller": 21882,
  "Ġconvinced": 8187,
  "Ġavoiding": 13587,
  "AX": 30204,
  "ĠMiss": 4486,
  "English": 27780,
  "Ġassets": 6655,
  "ĠSuddenly": 21208,
  "rencies": 11873,
  "ederation": 9258,
  "ĠSessions": 11472,
  "ĠGin": 28305,
  "thanks": 31398,
  "Ġlid": 21825,
  "ĠMount": 5933,
  "Ġokay": 9405,
  "Ġseverely": 13650,
  "Ġdisse": 20690,
  "ĠSadd": 17370,
  "Ġcritically": 16470,
  "rottle": 28378,
  "Chat": 31548,
  "ĠMAR": 15677,
  "Ġupl": 26004,
  "Ġclashed": 28738,
  "Ġrounds": 9422,
  "Ġ1957": 21725,
  "ĠAbuse": 25839,
  "ĠGreg": 7321,
  "Ġskirt": 28000,
  "Ġadvertise": 29179,
  "Remember": 30283,
  "ĠSle": 28616,
  "ees": 2918,
  "ĠDrop": 16092,
  "ĠEmergency": 16911,
  "Ġcelebrates": 23039,
  "Ġwitnessing": 25529,
  "Ġprosec": 8344,
  "CL": 10983,
  "Ġdismal": 30434,
  "Ġfatal": 10218,
  "Ġverbal": 17118,
  "Ġindec": 26026,
  "ĠTrading": 25838,
  "ĠPalace": 14408,
  "ruit": 5120,
  "Ġjerk": 30692,
  "Ġprosecute": 20649,
  "Ġcry": 4029,
  "Ġfitted": 18677,
  "Ġhalfway": 17533,
  "Ġcontin": 1116,
  "Ġhockey": 9085,
  "Ġwritings": 18467,
  "Ġshining": 22781,
  "Ġsuggestions": 11723,
  "Ġnut": 7383,
  "AA": 4310,
  "ĠJac": 7559,
  "Ġcleared": 11493,
  "ĠBrain": 16053,
  "ĠVanderbilt": 30124,
  "Ġrevised": 14221,
  "Ġdrops": 11551,
  "Ġfort": 6133,
  "Ġverse": 19214,
  "iaz": 16258,
  "Ġconcerts": 22100,
  "Ġdisarm": 31094,
  "ĠBrunswick": 26682,
  "Ġtelevision": 4259,
  "Ġhours": 2228,
  "ĠPitt": 22232,
  "Ġlitter": 29535,
  "report": 26457,
  "Ġgast": 24067,
  "Ġremoving": 10577,
  "ĠKrish": 29199,
  "division": 30060,
  "dot": 27526,
  "Ġaccompanied": 11316,
  "Ġunpredict": 17152,
  "Ġrehears": 23991,
  "ĠQue": 4475,
  "Ġdesert": 11527,
  "Ġ1924": 30216,
  "ownt": 5566,
  "Ġrequ": 1115,
  "Ġla": 1618,
  "ĠLife": 5767,
  "Ġexposure": 7544,
  "Ġcyl": 20037,
  "ĠEpic": 21629,
  "Ġunsur": 25726,
  "ĠVehicle": 26361,
  "ĠNearly": 14189,
  "Ġpainted": 12271,
  "Ġdub": 9066,
  "Ġsu": 387,
  "Ġprecinct": 25182,
  "ĠWorkshop": 29059,
  "rane": 12615,
  "Ġeasy": 2582,
  "Ġdebuted": 19121,
  "KO": 28195,
  "ines": 1060,
  "Ġheard": 2877,
  "Ġregistration": 10509,
  "Ġcataly": 18782,
  "used": 1370,
  "Ġ17": 1966,
  "Ġbreak": 2223,
  "Ġproblems": 2570,
  "Ġcorridors": 27997,
  "ĠSomeone": 14931,
  "ĠFeatures": 19297,
  "Ġtrig": 5430,
  "Ġscrews": 29859,
  "Ġstreets": 5293,
  "ĠEducation": 7713,
  "Ġmounting": 17119,
  "Ġdecreased": 13021,
  "Ġcyber": 7855,
  "Ġmeltdown": 24386,
  "117": 25012,
  "ĠTeen": 20971,
  "ĠRutgers": 23111,
  "ĠPes": 30368,
  "ĠTet": 28550,
  "Ġmeal": 10460,
  "Ġemploy": 1836,
  "ĠCable": 18505,
  "arching": 30739,
  "ĠBet": 5097,
  "iso": 29449,
  "Ġarticulated": 30903,
  "ĠAlso": 3824,
  "Ġrecruit": 9846,
  "olves": 9235,
  "ĠWelcome": 17814,
  "ludes": 21515,
  "ĠMt": 18454,
  "wic": 20493,
  "ĠMas": 11370,
  "Ġpuzzle": 14506,
  "Ġdebate": 3469,
  "ĠInit": 13442,
  "ĠMusic": 7710,
  "ĠScottish": 9269,
  "ĠTrain": 19825,
  "Ġtree": 5987,
  "reported": 26286,
  "ĠNY": 6446,
  "writing": 14198,
  "Ġnarc": 15838,
  "Ġnail": 17409,
  "ĠKenneth": 19651,
  "ĠRevolutionary": 22247,
  "ĠCrawford": 19631,
  "],": 5821,
  "Ġtolerated": 24827,
  "ĠISP": 27818,
  "Ġimmediately": 3406,
  "Ġallev": 20733,
  "ĠQu": 2665,
  "ategy": 3863,
  "Ġcross": 3221,
  "ranean": 14671,
  "Ġspinning": 18532,
  "Ġexpenditures": 23109,
  "iously": 1653,
  "ihar": 28232,
  "1991": 31708,
  "appropriate": 12002,
  "deep": 18930,
  "ĠEuropa": 21676,
  "Ġattempts": 5686,
  "ĠMun": 10298,
  "Ġprohibits": 21769,
  "az": 1008,
  "âĪĴ": 13382,
  "ĠACLU": 17910,
  "sac": 30006,
  "Ġunpleasant": 21390,
  "ĠEngineers": 24378,
  "ITY": 14001,
  "ĠCause": 25426,
  "ĠUNC": 31819,
  "cause": 24586,
  "Ġencouraging": 10177,
  "Ġcircumstance": 25651,
  "with": 5141,
  "s": 82,
  "ET": 3786,
  "55": 4724,
  "Ġk": 441,
  "zing": 8952,
  "ĠJen": 11453,
  "ĠNep": 15082,
  "Ġinqu": 7035,
  "ĠConc": 19362,
  "ĠCelebr": 24470,
  "ĠInner": 30822,
  "al": 238,
  "ĠTowers": 30343,
  "ĠDerby": 25101,
  "Ġillustrate": 17684,
  "ĠTar": 12941,
  "Ġinaugural": 19653,
  "ĠLicense": 21832,
  "ĠIR": 16139,
  "ĠFebruary": 3189,
  "ical": 550,
  "Group": 29861,
  "ogn": 2271,
  "rev": 18960,
  "Ġtherefore": 4874,
  "Ġsafest": 30544,
  "Ġfreshman": 14454,
  "ĠTommy": 16523,
  "Ġspiral": 20686,
  "Ġrelegated": 27287,
  "Ġdeposit": 17371,
  "Ġbarrage": 27579,
  "ĠSEO": 28928,
  "Ġurban": 6651,
  "ĠCommittee": 4174,
  "ĠCoal": 10116,
  "Ġincorporating": 26203,
  "Ġgravitational": 24238,
  "Ġearning": 11639,
  "ĠCritics": 16864,
  "ĠExcell": 23465,
  "Ġdemos": 28577,
  "ĠBene": 17826,
  "Ġwand": 14222,
  "Ġabout": 473,
  "ĠFlames": 25380,
  "irus": 20528,
  "Ġspice": 27672,
  "Ġfamiliarity": 28065,
  "alion": 19629,
  "Ġprototype": 12366,
  "ĠEmails": 28511,
  "ĠItalian": 7158,
  "performing": 26159,
  "ĠMedicaid": 11218,
  "Ġintercepted": 24688,
  "Ġsocietal": 22230,
  "Ġdiary": 25048,
  "ior": 1430,
  "Ġalert": 10767,
  "Ġemotional": 6438,
  "Ġfeel": 1205,
  "ĠPly": 31825,
  "ĠFocus": 17560,
  "lickr": 14950,
  "augh": 1523,
  "Ġ1982": 13030,
  "Ġexpressed": 5395,
  "Ġbetray": 13551,
  "Ġreps": 21144,
  "ĠMeanwhile": 5451,
  "Ġnumbered": 25406,
  "Ġadoption": 11620,
  "Ġele": 3967,
  "ĠMcK": 9223,
  "Û": 149,
  "uates": 11817,
  "Ġdiamonds": 29408,
  "Ġraft": 27670,
  "Ġimproperly": 30695,
  "Ġoffer": 2766,
  "ĠSchwartz": 23049,
  "Ġsevered": 29736,
  "Ġendless": 12078,
  "udd": 4676,
  "athing": 23289,
  "ĠOfficial": 9655,
  "ifted": 20343,
  "380": 30499,
  "ĠFuck": 30199,
  "ding": 11066,
  "ingu": 6821,
  "child": 9740,
  "Ġgenus": 29983,
  "Ġfeature": 3651,
  "ĠWalking": 18745,
  "around": 12867,
  "inel": 19706,
  "Î»": 28565,
  "ĠNexus": 15043,
  "Ġfigures": 4847,
  "Ġofficially": 7078,
  "Ġpoles": 24276,
  "ĠWhit": 11062,
  "ĠBelow": 8561,
  "ĠShel": 13677,
  "ĠWrite": 19202,
  "Ġassessing": 22642,
  "sett": 19070,
  "Ġunderstanding": 4335,
  "William": 28595,
  "Ġhoney": 12906,
  "umbing": 29836,
  "ct": 291,
  "Ġcoalition": 7242,
  "12": 1852,
  "Ġpayments": 7121,
  "Ġgent": 9476,
  "Ġinstinct": 12621,
  "ishing": 2934,
  "Ġmotivations": 23744,
  "ACK": 12399,
  "oneliness": 30845,
  "prote": 14297,
  "ĠBit": 4015,
  "Ġvoc": 10920,
  "ĠParad": 18475,
  "cling": 7698,
  "128": 21780,
  "ĠCFL": 30433,
  "INE": 14326,
  "Ġgrounded": 20898,
  "ĠTennessee": 9724,
  "Ġheadset": 19561,
  "leck": 30331,
  "ĠSpoiler": 31189,
  "Ġunanimous": 22102,
  "ĠVolume": 19462,
  "Ġafternoon": 5577,
  "Ġanticip": 7479,
  "Ġunexpl": 26771,
  "Ġmitochond": 25512,
  "Ġchap": 12587,
  "Ġextremists": 16078,
  "ospital": 3257,
  "overy": 4674,
  "ĠVog": 29376,
  "ournals": 17992,
  "Ġmaid": 21804,
  "Ġskin": 5188,
  "Ġpassing": 5631,
  "ĠLeap": 31761,
  "ĠYan": 9830,
  "Ġassess": 4814,
  "Ġoutdoors": 23239,
  "Ġpup": 15386,
  "Rad": 23796,
  "il": 310,
  "ĠAuthor": 6188,
  "lia": 21337,
  "zza": 28793,
  "othy": 14179,
  "Ġscattered": 16842,
  "erer": 20238,
  "kin": 4855,
  "Ġthous": 2868,
  "Ġselection": 6788,
  "Ġstrict": 7673,
  "Ġvoid": 10353,
  "giene": 27440,
  "Ġfavoured": 31292,
  "ĠInstall": 19355,
  "vity": 19923,
  "Ġsimilarity": 24938,
  "ĠHayward": 31366,
  "gical": 17191,
  "ente": 19451,
  "Ġinferior": 19260,
  "Ġanswered": 9945,
  "chel": 29807,
  "San": 22650,
  "Ġseats": 7134,
  "Ġ1080": 19198,
  "bai": 22584,
  "Ġendure": 20326,
  "houses": 18648,
  "antic": 7695,
  "ÑģÑĤ": 17006,
  "Ġsil": 3493,
  "thy": 21286,
  "ĠIgn": 17791,
  "Ġabs": 2362,
  "Ġbugs": 11805,
  "Ġassertions": 24948,
  "ende": 28985,
  "Pack": 31636,
  "Ġ****": 25323,
  "otos": 28474,
  "ĠS": 273,
  "Ġconventional": 8979,
  "Ġinfinitely": 30889,
  "Ġhelm": 16797,
  "dimensional": 18127,
  "Ġbody": 2047,
  "ĠMaced": 26316,
  "Ġdeclares": 23674,
  "Ġepid": 12101,
  "Ġobst": 7741,
  "Ġincoming": 14662,
  "Ġchickens": 22550,
  "ĠCel": 17868,
  "ĠGrad": 18730,
  "ĠNu": 22790,
  "omp": 3344,
  "Ġdefic": 14720,
  "ĠOFF": 24940,
  "Ġoverweight": 24485,
  "Ġloyalty": 14245,
  "ĠNS": 10253,
  "Ġspokesman": 4739,
  "ĠInstitution": 24462,
  "ĠOnt": 8007,
  "up": 857,
  "ledge": 3009,
  "icides": 15918,
  "Ġdepiction": 26708,
  "Ġsuspect": 3531,
  "Ġcheers": 29025,
  "resh": 3762,
  "lock": 7446,
  "comb": 21504,
  "ĠAvenue": 7567,
  "Ġast": 5646,
  "ta": 6316,
  "Ġportfol": 12697,
  "Ġthreats": 6151,
  ".)": 2055,
  "ĠIndeed": 7083,
  "ĠBelt": 15886,
  "Ġslips": 31309,
  "nes": 1995,
  "Ġgotten": 7069,
  "ĠOkay": 14921,
  "TI": 29747,
  "ĠFlow": 30309,
  "vd": 24239,
  "ĠAurora": 22861,
  "ĠSpe": 2726,
  "dig": 13147,
  "both": 16473,
  "Ġobsessed": 18451,
  "ĠSmoke": 27717,
  "ĠCout": 29038,
  "Ġinner": 8652,
  "ĠGaw": 25658,
  "Ġrelatives": 11692,
  "Ġdawn": 16780,
  "ĠPaul": 2688,
  "Ġcoll": 2653,
  "ATION": 12187,
  "Ġclosures": 25650,
  "Ġcues": 22986,
  "Ġ1993": 9588,
  "ĠBor": 10292,
  "obby": 11670,
  "ĠManz": 29353,
  "ĠEnergy": 6451,
  "Without": 28659,
  "Ġformidable": 22206,
  "Ġ38": 6042,
  "Ġtobacco": 11987,
  "âĢĻ:": 31885,
  "ophy": 19006,
  "ĠâĢĭ": 14449,
  "Ġvinyl": 20723,
  "='": 21823,
  "Ġconfiguration": 10461,
  "Ġallowed": 2893,
  "ĠMaking": 13267,
  "ĠLake": 5850,
  "Ġaccessible": 9640,
  "ateral": 9914,
  "Ġhumidity": 29286,
  "Ġteenagers": 14552,
  "ĠAlpha": 15542,
  "Ġante": 29074,
  "ed": 232,
  "Ġranked": 8466,
  "Ġfun": 1300,
  "Ġlecturer": 31268,
  "Ġscram": 14489,
  "ĠSkin": 19224,
  "ĠInstant": 25671,
  "olith": 19404,
  "Ġcapacities": 29709,
  "care": 5737,
  "ĠBeth": 17317,
  "idering": 5032,
  "ĠEconomic": 9848,
  "ĠSpot": 14313,
  "Ġspite": 14486,
  "ĠHoly": 10491,
  "ĠNum": 16195,
  "Ġdazz": 30090,
  "Ġextingu": 27227,
  "ÙĬ": 17636,
  "Ġubiqu": 19095,
  "ĠOperating": 27445,
  "Ġtelecom": 21883,
  "Ġexh": 21551,
  "ĠRAW": 31149,
  "ĠOrthodox": 14975,
  "called": 5918,
  "Ġtransaction": 9837,
  "ĠYesterday": 19883,
  "ĠEmployment": 24851,
  "osta": 29713,
  "Ġindiscrim": 29750,
  "clock": 18404,
  "ÃĥÃĤÃĥÃĤÃĥÃĤÃĥÃĤÃĥÃĤÃĥÃĤÃĥÃĤÃĥÃĤ": 16768,
  "ĠKos": 15153,
  "ĠParliamentary": 30008,
  "Ġministers": 10630,
  "ĠCompetition": 24088,
  "must": 28624,
  "ocated": 10671,
  "aru": 15411,
  "ĠMorrison": 18739,
  "Ġassaulting": 25355,
  "Ġconj": 12522,
  "Ġrat": 4366,
  "Ġrespir": 22667,
  "Ġappease": 29997,
  "ĠÃĸ": 30118,
  "Ġdispar": 12576,
  "ĠClass": 6461,
  "regular": 17761,
  "Good": 16578,
  "tml": 24343,
  "Ġreunion": 26635,
  "Ġstark": 15235,
  "Ġ###": 29401,
  "ĠBooker": 23088,
  "ĠDaesh": 30571,
  "Ġlaugh": 6397,
  "ĠMate": 20836,
  "inke": 31481,
  "cook": 31325,
  "Ġmetaphor": 20502,
  "ĠLam": 9303,
  "ĠCad": 18910,
  "ĠActive": 19339,
  "izoph": 18414,
  "Ġstab": 7797,
  "install": 26936,
  "vent": 2947,
  "ĠÅ": 15756,
  "...\"": 14026,
  "hess": 12999,
  "cond": 15101,
  "ĠNvidia": 25053,
  "ĠPlus": 8299,
  "Ġwaking": 22006,
  "Ġmilestone": 19187,
  "ĠCO": 7905,
  "ĠBud": 9114,
  "Ġwears": 18090,
  "ĠPengu": 17840,
  "ĠHello": 18596,
  "ĠLock": 12307,
  "paying": 25841,
  "Ġov": 22537,
  "Ġturnaround": 26666,
  "FW": 28812,
  "isters": 5773,
  "dated": 8840,
  "Ġcrypto": 20394,
  "Ġintended": 5285,
  "Ġcirculating": 22412,
  "Ġlateral": 26841,
  "table": 13549,
  "Ġcaller": 24603,
  "10": 1347,
  "ĠHarvey": 12496,
  "Ġadvocating": 19465,
  "ĠMariners": 26175,
  "touch": 29285,
  "ĠBernstein": 29907,
  "åĪ": 30000,
  "Ġrelying": 15359,
  "Ġusing": 1314,
  "Ġunjust": 19523,
  "Ġlarg": 2252,
  "Ġconve": 23682,
  "ĠHalloween": 15222,
  "oca": 9947,
  "Ġsurpass": 15083,
  "ĠRece": 19431,
  "Ġcur": 1045,
  "Ġhook": 8191,
  "ĠStudies": 10378,
  "ĠPlay": 3198,
  "Ġabuses": 15864,
  "Ġnoticeably": 30881,
  "Ġbenefic": 10066,
  "ĠFinals": 16952,
  "ĠReyn": 16644,
  "Ġraped": 14298,
  "Ġled": 2470,
  "Ġcurrencies": 15833,
  "Ġmud": 16996,
  "Ġwoe": 30924,
  "Ġportion": 7581,
  "Ġacademics": 16995,
  "Ġignoring": 14241,
  "ĠFREE": 20340,
  "Ġrenewables": 24891,
  "uper": 9246,
  "ĠCongo": 22049,
  "Ġluggage": 29550,
  "ĠZero": 13744,
  "Ġpronounced": 15274,
  "Ġgrip": 12814,
  "gradation": 24687,
  "urch": 1706,
  "Ġknowledgeable": 29364,
  "ĠConor": 30448,
  "bly": 30762,
  "Ġtrans": 990,
  "Ġshades": 25276,
  "Ġcalculated": 11457,
  "ela": 9361,
  "Ex": 7427,
  "oler": 13303,
  "ĠRegarding": 25385,
  "gets": 10435,
  "Ġsad": 5667,
  "Ġextends": 14551,
  "Ġcopper": 16396,
  "Ġdomains": 20322,
  "Ġastronomy": 30818,
  "Ġstripes": 26634,
  "Ġboarding": 22793,
  "osph": 16542,
  "ĠTimber": 27042,
  "ĠScan": 27575,
  "ĠKickstarter": 11781,
  "ancers": 20072,
  "ĠDortmund": 24805,
  "Ġphysiological": 25743,
  "ribut": 2319,
  "Ġparamed": 27873,
  "Ġec": 5895,
  "Ġstrugg": 3033,
  "ĠEli": 22018,
  "Ġcomet": 26217,
  "Ty": 12595,
  "ĠFourth": 14151,
  "stone": 6841,
  "ĠNas": 18309,
  "29": 3883,
  "CC": 4298,
  "Ġgentleman": 24624,
  "ĠLok": 23119,
  "Ġcomple": 1227,
  "iki": 9615,
  "Ġinher": 10956,
  "ight": 396,
  "forward": 11100,
  "ĠMons": 16486,
  "ĠCoke": 30834,
  "ĠWang": 15990,
  "stud": 19005,
  "Ġsurprised": 6136,
  "Ġtightening": 29825,
  "Ġmana": 17609,
  "5": 20,
  "Ġgrandmother": 15936,
  "ĠGE": 20110,
  "Ġopt": 2193,
  "Ġmanslaughter": 29303,
  "ral": 1250,
  "ilingual": 31261,
  "Ġbacklog": 30977,
  "udge": 15565,
  "FA": 8807,
  "udeau": 11902,
  "ĠWizards": 19446,
  "Ġundergraduate": 22572,
  "ĠDw": 16188,
  "die": 9928,
  "ohan": 26428,
  "ĠCountries": 29240,
  "ĠGael": 29941,
  "Ġglobal": 2696,
  "Ġgreet": 12102,
  "ĠServices": 7080,
  "Ġtraffickers": 30874,
  "ĠModern": 10875,
  "Stack": 29032,
  "Ġcoordination": 18115,
  "iu": 19991,
  "Ġtomorrow": 8515,
  "ĠBrom": 25293,
  "Ġpresumably": 12762,
  "middle": 26180,
  "Ġpriv": 1725,
  "ĠMarcel": 28270,
  "Ġillustrated": 18208,
  "als": 827,
  "love": 22955,
  "cip": 24342,
  "ĠMeans": 29251,
  "levision": 3880,
  "Ġauthentic": 15362,
  "Ġiceberg": 27239,
  "ĠSy": 1562,
  "Ġunderground": 10336,
  "lad": 8608,
  "Ġposted": 4022,
  "Ġslides": 17887,
  "Ġwillingly": 30344,
  "Ġbeverage": 23742,
  "Ġrelay": 26091,
  "gering": 22913,
  "Ġsegregation": 21908,
  "Ġbelonged": 18230,
  "Ġstationed": 22052,
  "each": 31355,
  "abor": 4220,
  "Ã¥": 11584,
  "Ġforgetting": 29190,
  "bons": 21723,
  "ĠBuddhism": 21983,
  "Ġnaive": 20873,
  "ĠGrand": 5742,
  "ĠMuham": 13064,
  "Ġmath": 10000,
  "ĠZim": 10661,
  "ĠItaly": 6739,
  "ASS": 16876,
  "Ġdescent": 16819,
  "Ġfiles": 4832,
  "ĠWi": 10730,
  "ĠAbility": 30751,
  "mail": 5305,
  "Ġdistract": 8960,
  "Ġmanaged": 4843,
  "Ġstared": 24119,
  "ollen": 30376,
  "ction": 591,
  "Ġpol": 638,
  "Ġmim": 15860,
  "Ġdisadvant": 13963,
  "Ġexamines": 27737,
  "ĠWiki": 11311,
  "ultan": 24585,
  "Ġweird": 7282,
  "Ġnotification": 16625,
  "Ġduty": 7519,
  "ĠActing": 28607,
  "Ġbicy": 11443,
  "ĠPir": 15466,
  "tr": 3184,
  "Ġpolitics": 3735,
  "ooting": 13825,
  "Ġsquare": 6251,
  "Ġdu": 6541,
  "root": 20992,
  "ĠMandela": 29786,
  "ĠSome": 2042,
  "ĠDM": 13011,
  ".:": 13379,
  "Ġconsulting": 15720,
  "Ġautomobile": 24531,
  "Ġanim": 2358,
  "ĠOw": 11302,
  "Ġathe": 10535,
  "istol": 10012,
  "Ġceleb": 8556,
  "Ġvirtual": 6621,
  "Ġattitudes": 12883,
  "Ġcompetitor": 17166,
  "Ġquot": 17815,
  "ios": 4405,
  "Ġtoll": 11992,
  "ront": 4270,
  "Ġpatches": 17307,
  "Ġcyclists": 18250,
  "ĠBris": 19342,
  "vered": 21073,
  "Ġrealized": 6635,
  "iating": 24201,
  "Ġgra": 5813,
  "Ġhelmets": 27154,
  "ĠAlgeria": 28776,
  "oxy": 28711,
  "Ġscratching": 31563,
  "Ġvintage": 19992,
  "2001": 21619,
  "Ġleverage": 13370,
  "dc": 28314,
  "Ġbutton": 6236,
  "Ġterrible": 7308,
  "ĠBenjamin": 11854,
  "Ġundergo": 16118,
  "Ġrenders": 30036,
  "ĠNinja": 26065,
  "Ġpropos": 4080,
  "Ġedge": 5920,
  "ables": 3333,
  "Ġdownloading": 22067,
  "ĠLuk": 22319,
  "Ġbeach": 9923,
  "iot": 5039,
  "ĠLab": 3134,
  "Ġrumor": 21566,
  "Ġ1921": 29382,
  "000000": 26640,
  "ĠGender": 22984,
  "Ġbegan": 2189,
  "ĠGig": 23678,
  "Ġaround": 1000,
  "ĠIF": 19940,
  "Ġmyself": 3555,
  "Ġmethod": 2786,
  "Ġtrades": 16119,
  "Ġfreed": 17544,
  "Ġgrap": 10032,
  "te": 357,
  "Ġbundle": 19174,
  "Ġshrinking": 21388,
  "Ġpatrols": 27798,
  "Ġpatients": 4000,
  "ÑĢÐµ": 22591,
  "ĠPatrick": 7941,
  "Ġenterprise": 12009,
  "ĠRegist": 21256,
  "></": 19729,
  "BE": 16888,
  "Ġaffection": 18718,
  "Ġeasiest": 16978,
  "Ġquestioned": 9330,
  "ĠHatch": 27308,
  "Ġrise": 3918,
  "osen": 5225,
  "Ġunprecedented": 10127,
  "Ġat": 331,
  "Ġinfuri": 29509,
  "ĠZak": 26256,
  "ĠLum": 17590,
  "Ġhavoc": 24798,
  "ĠHit": 7482,
  "ĠSilva": 17713,
  "inge": 10627,
  "keep": 8707,
  "worm": 24969,
  "Ġelections": 5274,
  "Ġdrinks": 11962,
  "mag": 22107,
  "ĠParent": 24156,
  "ĠSpielberg": 29503,
  "ĠGreens": 14224,
  "Ġcloset": 21540,
  "noticed": 26543,
  "Ġreveal": 7142,
  "Ġflagged": 27944,
  "Ġrenamed": 20508,
  "ĠKathy": 27942,
  "Ġdemonst": 3312,
  "Ġze": 17076,
  "Ġassaulted": 15722,
  "ĠSince": 3276,
  "Ġstring": 6264,
  "Ġheadline": 12791,
  "Ġconditioned": 31375,
  "Ġmicro": 5002,
  "ĠTracy": 25554,
  "ĠDigg": 25066,
  "Ġcivilian": 9367,
  "Ġguidance": 11237,
  "ĠBuck": 12086,
  "Ġinvesting": 12379,
  "ĠGlass": 12884,
  "ĠColbert": 21778,
  "ĠWOR": 27457,
  "ĠYuk": 26760,
  "Ġthereby": 12932,
  "Other": 23194,
  "Ġecology": 30527,
  "Ġretain": 7117,
  "ĠRecre": 28787,
  "Ġcollected": 7554,
  "emin": 12108,
  "RI": 8361,
  "ĠBraz": 5734,
  "Ġ53": 9064,
  "ĠCharg": 13803,
  "Ġhateful": 25459,
  "ovy": 22196,
  "NG": 12848,
  "squ": 16030,
  "title": 17505,
  "Ġjudiciary": 23231,
  "ĠLag": 18684,
  "Ġscheme": 6978,
  "Ġpave": 19666,
  "ĠPractice": 24337,
  "Ġwat": 4136,
  "Ġcommons": 29897,
  "inate": 4537,
  "Secret": 30066,
  "Ġdisabilities": 19423,
  "ĠFat": 12346,
  "null": 20742,
  "ĠGlobe": 15046,
  "Ġbonus": 9063,
  "ĠSche": 11224,
  "Ġcorrid": 14656,
  "Ġgraveyard": 31315,
  "Ġpanic": 12555,
  "ģ": 179,
  "ĠEdit": 10532,
  "ĠSeptember": 2757,
  "ĠDelhi": 9968,
  "Ġceiling": 12049,
  "Ġaide": 14394,
  "ĠSaskat": 19459,
  "Ġinnoc": 7324,
  "Ġportions": 17163,
  "Ġtin": 19323,
  "rate": 4323,
  "Ġdeployed": 10187,
  "Ġteaspoon": 24077,
  "ĠBank": 4388,
  "zero": 23437,
  "owers": 3846,
  "ĠBarnett": 29128,
  "Ġlacking": 13120,
  "bat": 13994,
  "ischer": 20472,
  "ĠHer": 2710,
  "liner": 22047,
  "OG": 13143,
  "operative": 27926,
  "b": 65,
  "Ġjuice": 14302,
  "Ġparents": 3094,
  "ylum": 9894,
  "ĠGarland": 29356,
  "Ġrac": 3015,
  "Ġoverlapping": 30353,
  "Ġpipeline": 9260,
  "Ġplants": 5660,
  "Ġtremendously": 28914,
  "iko": 17029,
  "Ġnotebook": 24458,
  "Ġemails": 5919,
  "Ġturned": 2792,
  "ĠHew": 24920,
  "ĠDelivery": 27323,
  "ĠSports": 6160,
  "ĠUkraine": 5917,
  "Ġcurb": 16528,
  "ĠPastor": 31011,
  "Ġoutbur": 29056,
  "Ġjo": 2061,
  "adow": 5708,
  "Ġbeloved": 12751,
  "Ġconsidering": 5565,
  "Ġturbul": 25184,
  "ĠArn": 13995,
  "Ġterminated": 24100,
  "ĠListen": 16510,
  "Ġshelf": 17449,
  "ĠImm": 10503,
  "Ġpiv": 14639,
  "Ġbite": 13671,
  "Ġpresents": 10766,
  "onen": 28997,
  "Ġanticipated": 12543,
  "ĠFlex": 27848,
  "urer": 29521,
  "Ġfences": 30340,
  "ĠHeart": 9807,
  "ĠRodgers": 15180,
  "ernandez": 15330,
  "Ġscaled": 24028,
  "Ġembarrassing": 15851,
  "ĠPublic": 4939,
  "ĠBeau": 27176,
  "ĠApplication": 21165,
  "per": 510,
  "ĠJune": 2466,
  "Ġslack": 28471,
  "Ġagainst": 892,
  "Ġmeant": 3648,
  "ĠPhysical": 21858,
  "antically": 29372,
  "Ġr": 325,
  "tail": 13107,
  "Ġcomplaining": 16100,
  "osystem": 9839,
  "ogan": 6955,
  "emetery": 17036,
  "wives": 30796,
  "Ġabstraction": 29029,
  "Ġresponding": 12199,
  "Ġexplore": 6765,
  "ĠRabb": 18881,
  "ĠAtmosp": 28960,
  "ĠIs": 994,
  "ĠHyd": 27659,
  "Ġdecisions": 4682,
  "ĠUniversity": 1782,
  "Ġid": 5596,
  "ĠCome": 7103,
  "equ": 4644,
  "Ġtrainer": 20694,
  "ĠAuth": 29530,
  "ulu": 14444,
  "ĠNews": 2276,
  "ĠBluetooth": 18847,
  "Ġpromot": 3730,
  "strap": 26719,
  "Ġalarming": 19178,
  "ignment": 20119,
  "Ġdiffe": 943,
  "ass": 534,
  "flower": 28422,
  "Ġhail": 28862,
  "Ġsubmar": 14528,
  "ret": 1191,
  "meter": 26366,
  "Ġcondo": 28527,
  "cott": 10102,
  "Ġassaults": 18513,
  "syn": 29728,
  "iated": 13245,
  "Ġincumb": 14640,
  "Ġreceptor": 20181,
  "Ġtast": 16814,
  "çļĦ": 25849,
  "ĠPakistan": 4745,
  "ĠiOS": 8136,
  "Ġspeeds": 11393,
  "Ġlot": 1104,
  "Ġstylish": 30143,
  "Ġcher": 14216,
  "ĠVega": 30693,
  "gro": 13826,
  "Ġtrack": 2394,
  "ĠCork": 18935,
  "achment": 11168,
  "Ġleaking": 20570,
  "Nusra": 30379,
  "ottenham": 16795,
  "Ġconvenient": 11501,
  "Ġdose": 12664,
  "rad": 4473,
  "ĠSuperman": 13613,
  "Ġ1965": 15650,
  "adium": 5055,
  "mod": 7317,
  "ĠRus": 7723,
  "ĠNHS": 15461,
  "Ġlac": 27930,
  "Ġdead": 2536,
  "Ġdetermine": 5301,
  "ĠGeneration": 16957,
  "Ġcycling": 13900,
  "oyd": 11859,
  "Ġintervene": 18032,
  "Ġathletes": 9781,
  "Ġhere": 999,
  "ĠAtari": 31413,
  "DNA": 31582,
  "Ġhomicide": 17703,
  "Plan": 28248,
  "Ġheterosexual": 21493,
  "phone": 4639,
  "Ġ2001": 5726,
  "Ġplaintiffs": 18714,
  "letcher": 24972,
  "IA": 3839,
  "ĠOffensive": 26616,
  "Ġbudgets": 16003,
  "Ġtribal": 14279,
  "ĠLE": 18070,
  "Ġ160": 16096,
  "ĠBetter": 13097,
  "Ġpaperwork": 19759,
  "ĠCrypt": 18778,
  "Ġlanded": 10288,
  "ĠLand": 6687,
  "ĠCha": 17784,
  "uture": 1599,
  "Ġwool": 29665,
  "fer": 2076,
  "irty": 6128,
  "Ġmaintaining": 10332,
  "ĠLor": 24772,
  "ĠMoreno": 31808,
  "CE": 7398,
  "iga": 14231,
  "value": 12701,
  "Ġshroud": 30663,
  "Ġlosers": 23822,
  "Ġsecured": 12515,
  "Ġdissolved": 25002,
  "Ġbroker": 19914,
  "Ġrebuild": 15020,
  "ĠDIY": 23348,
  "ardo": 11140,
  "rar": 23852,
  "ĠGS": 24269,
  "ilitation": 17685,
  "Ġnitrogen": 22368,
  "ĠRF": 19782,
  "Ġnit": 13593,
  "Sch": 24945,
  "âĢ¢": 12605,
  "ernand": 10981,
  "ological": 2714,
  "Ġquiet": 5746,
  "Ġcomb": 2019,
  "utz": 23856,
  "direct": 13289,
  "ĠPO": 24215,
  "Ġelevated": 15209,
  "Ġsettlers": 19657,
  "Ġsmells": 26653,
  "Õ": 143,
  "airy": 13343,
  "Ġperme": 27857,
  "Ġdistributor": 28878,
  "Ġinternet": 4441,
  "ĠWalmart": 16572,
  "Ġartifact": 28910,
  "ĠGaza": 8539,
  "rid": 5952,
  "Ġroyalty": 27117,
  "oker": 10580,
  "Ġcompound": 13110,
  "ince": 845,
  "Ġfindings": 5869,
  "Ġsusp": 3697,
  "lists": 23653,
  "Ġcardiovascular": 24599,
  "ĠVladimir": 11682,
  "Ġrobots": 11523,
  "Ġirrit": 16165,
  "Ġtested": 6793,
  "CON": 25802,
  "BA": 4283,
  "Ġlaw": 965,
  "Ġmelody": 29230,
  "Ġnationals": 20053,
  "ĠNoel": 27614,
  "ĠTao": 28054,
  "ĠFou": 30737,
  "Ġslaughter": 17078,
  "ĠPenguins": 23542,
  "eeks": 26448,
  "arta": 28198,
  "Ġrank": 4085,
  "Ġsuperintendent": 28520,
  "ĠMultiple": 19143,
  "Ġlinger": 29620,
  "Ġmatched": 14039,
  "ĠCody": 23098,
  "ructure": 2874,
  "Ġwin": 1329,
  "Ġstack": 10463,
  "rust": 12341,
  "iving": 1334,
  "Ġjudges": 8714,
  "rypt": 22445,
  "Ġinjunction": 22747,
  "Ġprogrammed": 25304,
  "Ġunwilling": 16425,
  "ader": 5417,
  "Ġstiff": 16918,
  "ĠIndie": 26021,
  "wind": 10614,
  "Ġlocked": 8800,
  "ĠMontreal": 10031,
  "Ġliability": 14725,
  "Ġsire": 28691,
  "through": 9229,
  "anced": 3173,
  "Ġradioactive": 20352,
  "ĠTower": 10743,
  "rient": 8766,
  "atible": 23901,
  "ĠOswald": 29800,
  "Ġneat": 13996,
  "Ġsharp": 7703,
  "Gu": 15295,
  "ĠHeb": 22732,
  "ĠSorry": 17745,
  "Ġin": 242,
  "ĠEspecially": 16474,
  "Ġrunoff": 27089,
  "ĠQuint": 30727,
  "ĠJar": 13692,
  "idespread": 7946,
  "nyder": 16688,
  "usr": 24627,
  "ĠKauf": 30415,
  "ĠAnch": 26745,
  "Ġinfinite": 16817,
  "ĠBlank": 28212,
  "Ġins": 991,
  "Ġremedies": 31383,
  "ĠGomez": 25886,
  "ĠFox": 4294,
  "ľ": 206,
  "Ġfortun": 14833,
  "Ġexch": 9025,
  "ĠBulgar": 22276,
  "Ġpavement": 28695,
  "ĠMAY": 31981,
  "Ġsuppress": 17406,
  "ĠWikiLeaks": 12644,
  "imes": 922,
  "would": 16651,
  "ĠTax": 9604,
  "ĠTourism": 31998,
  "Ġlobb": 10739,
  "Ġsorry": 8499,
  "Ġinsistence": 24004,
  "Ġacquired": 8880,
  "ĠâĢĿ": 8557,
  "Ġjoin": 4313,
  "atically": 4468,
  "Ġpipe": 14351,
  "worker": 26136,
  "ĠEb": 10596,
  "ĠHigh": 3642,
  "Ġbriefed": 25248,
  "Ġcrossover": 25240,
  "ĠSongs": 29783,
  "Ġrough": 4741,
  "erk": 19696,
  "Ġprovided": 3286,
  "Ġpremiums": 18514,
  "Ġundermining": 23095,
  "Ġleather": 13855,
  "ĠSto": 21943,
  "Ġcompanion": 16178,
  "comes": 8993,
  "123": 20449,
  "Ļ": 203,
  "ĠSnow": 7547,
  "Ġtorso": 31277,
  "ĠIsis": 21232,
  "Ġplague": 21499,
  "ĠHal": 9984,
  "Ġdisc": 957,
  "Ġspent": 2895,
  "Ġobtaining": 18177,
  "ventions": 16271,
  "Ġwho": 445,
  "omes": 9109,
  "ĠFashion": 29197,
  "Ġrates": 3816,
  "Ġcontext": 4677,
  "ĠHold": 8939,
  "Ġlectures": 23042,
  "ĠExpl": 8439,
  "Ġlegislators": 14857,
  "ister": 1532,
  "Ġbranding": 22147,
  "reated": 15529,
  "tingly": 28123,
  "Ġfinancially": 15064,
  "Ġcommem": 15834,
  "67": 6871,
  "ĠPubMed": 31664,
  "Ġinaccur": 16205,
  "ĠYeah": 8399,
  "Ġabundant": 21613,
  "ĠBucc": 27637,
  "Ġrocky": 23574,
  "ĠWashington": 2100,
  "Ġstrange": 6560,
  "Ġelectrons": 23994,
  "ĠSol": 4956,
  "Ġincrease": 2577,
  "45": 3685,
  "elle": 10528,
  "ishes": 5865,
  "ĠApril": 2602,
  "Ġspend": 3937,
  "Ġcontroversy": 8331,
  "ovo": 15856,
  "ĠFranc": 3784,
  "Ġpray": 15219,
  "orship": 9450,
  "Ġsuck": 11195,
  "Ġresponsibilities": 14206,
  "Ġdivisions": 14582,
  "Ġdeploying": 23538,
  "Ġcleansing": 30460,
  "rete": 7409,
  "Ġcombination": 6237,
  "Ġ08": 15090,
  "Ġirrig": 24849,
  "shots": 24915,
  "ĠTur": 3096,
  "ãĤĭ": 19589,
  "babwe": 19789,
  "Ġdefined": 6338,
  "ĠDesign": 8490,
  "Ġjustices": 20942,
  "ĠAthe": 23978,
  "Ġflavour": 28926,
  "Ġdeterrent": 27498,
  "Ġexist": 2094,
  "Ġentirety": 19509,
  "Ġbroadcaster": 20299,
  "Ġsucc": 16633,
  "Ã©l": 28857,
  "ability": 1846,
  "ĠOrig": 7221,
  "Ġcoverage": 4515,
  "Ġapologies": 29882,
  "Ġtrauma": 14076,
  "Have": 24066,
  "Ġmisunderstood": 29387,
  "Ġflew": 11994,
  "ĠSL": 13908,
  "grat": 16691,
  "Ġclimbing": 13444,
  "Ġcann": 5797,
  "Ġhandful": 8392,
  "rin": 12024,
  "visor": 13069,
  "Ġgospel": 21973,
  "ĠMay": 1533,
  "Ġpersisted": 28843,
  "llington": 21267,
  "ĠNO": 10221,
  "ĠAdrian": 17169,
  "Ġcrushed": 17722,
  "Ġamenities": 31332,
  "Ġconferences": 16371,
  "Ġassignment": 16906,
  "Ġnotable": 10108,
  "Ġ\"/": 29526,
  "ic": 249,
  "ĠCharacter": 19840,
  "Ġaccident": 5597,
  "ĠChargers": 18992,
  "ĠHodg": 26963,
  "ĠSupporters": 22777,
  "olden": 20653,
  "âĢ¦]": 21470,
  "Ġimplementing": 13649,
  "ux": 3207,
  "Ġchecking": 10781,
  "ĠâĢĵ": 687,
  "Ġbehaving": 31567,
  "Ġbelong": 5562,
  "be": 1306,
  "Ġconsistent": 6223,
  "ĠBert": 20010,
  "legal": 16201,
  "omez": 24510,
  "Ġformula": 11064,
  "Ġbet": 680,
  "Ġroyal": 13716,
  "Ġtele": 5464,
  "Ġsophomore": 18888,
  "ĠYoung": 6505,
  "Ġcontributor": 15607,
  "Ġperipheral": 25970,
  "Ġstupid": 8387,
  "enburg": 30963,
  "Ġcoastal": 14787,
  "imation": 22349,
  "Ġnarrow": 6747,
  "union": 22369,
  "include": 27491,
  "Ġoddly": 27993,
  "Ġkind": 1484,
  "Ġentered": 6221,
  "unch": 1901,
  "Ġthin": 7605,
  "oufl": 27318,
  "Ġtips": 9257,
  "tar": 21641,
  "cially": 1936,
  "ĠAlmost": 12224,
  "ĠAbs": 13905,
  "Ġpriests": 18165,
  "Ġunres": 31288,
  "ĠGroup": 4662,
  "Ġmob": 3295,
  "this": 7945,
  "Ġfrightened": 24374,
  "Ġordinance": 18276,
  "ĠAnsw": 19811,
  "olyn": 30325,
  "ĠRanch": 23906,
  "ĠâĢĺ": 1134,
  "ctor": 2671,
  "Ġarc": 10126,
  "production": 21989,
  "Ġpolish": 24875,
  "Ġsuppressed": 25247,
  "ĠShar": 13957,
  "governmental": 26979,
  "blank": 28864,
  "ĠNewton": 14632,
  "ĠProm": 11147,
  "rice": 21584,
  "ĠUSL": 28672,
  "Ġroommate": 29384,
  "Ġally": 11080,
  "Ġportraying": 31749,
  "way": 968,
  "ceed": 2946,
  "Ġhugely": 17515,
  "EA": 7608,
  "Ġreduction": 7971,
  "Ġreturn": 1577,
  "olitical": 18789,
  "iott": 17269,
  "ĠSiber": 25210,
  "Ġsets": 5759,
  "Ġ?": 8471,
  "Ġrebuilding": 19810,
  "estern": 2921,
  "Ġdat": 4959,
  "Ġfuzzy": 31457,
  "Did": 19398,
  "ĠPav": 21987,
  "othing": 28886,
  "ech": 2932,
  "kh": 13814,
  "ĠWer": 20426,
  "ĠNX": 24317,
  "meal": 27358,
  "Ġfacilitating": 30712,
  "anche": 5361,
  "Ġcircle": 9434,
  "Ġought": 11022,
  "Count": 22865,
  "Ġfactors": 5374,
  "ester": 10729,
  "Ġdivid": 13633,
  "rosh": 27424,
  "ĠJR": 28481,
  "Ġeloqu": 29903,
  "ĠChampion": 17064,
  "ĠDoor": 27815,
  "Ġiniti": 4757,
  "Ġfantas": 21700,
  "Ġantis": 25430,
  "ĠClarkson": 30315,
  "ĠArch": 6385,
  "ĠGujar": 21525,
  "op": 350,
  "Ġlets": 8837,
  "Ġpigs": 20607,
  "Ġcomparable": 13447,
  "04": 7082,
  "ks": 547,
  "Ġobser": 4062,
  "ĠRoc": 11918,
  "Ġansw": 2540,
  "ĠHuawei": 27978,
  "ĠHunt": 13219,
  "rahim": 20663,
  "iamond": 9135,
  "Ġreferen": 15024,
  "aha": 13521,
  "Ġkeeper": 25994,
  "ĠOD": 31621,
  "Ġintelligence": 3809,
  "Å£": 25436,
  "ĠTes": 8863,
  "Ġscanning": 21952,
  "ĠNir": 30916,
  "Ġpersists": 31851,
  "ĠConservation": 19750,
  "Ġauthorities": 4001,
  "Ġclearer": 19375,
  "ashion": 5482,
  "Ġlast": 803,
  "ĠBrighton": 27209,
  "ĠTate": 24286,
  "ĠBristol": 19874,
  "ĠCotton": 24505,
  "Ġrestaurants": 9165,
  "Ġpeaks": 23610,
  "Ġhippocamp": 27233,
  ")": 8,
  "Ġlaunched": 4500,
  "rical": 8171,
  "Ġslave": 13071,
  "defense": 17719,
  "raits": 23417,
  "Ġprofitable": 15399,
  "ĠIslanders": 25019,
  "Ġweak": 4925,
  "Ġlocks": 19528,
  "Ġcompensated": 30794,
  "ĠUruguay": 29177,
  "Ġliberties": 16832,
  "Ġpresidential": 3636,
  "Ġdonating": 25860,
  "ĠMicrosoft": 4498,
  "ky": 2685,
  "urable": 13502,
  "Ġhumanitarian": 12507,
  "Ġvertically": 31234,
  "Ġcomedian": 18724,
  "Ġlocations": 6832,
  "Ġsubpo": 20058,
  "ĠUCLA": 17117,
  "ĠPOL": 18239,
  "support": 26872,
  "mails": 20772,
  "ighters": 5532,
  "Ġrespondents": 12483,
  "path": 13041,
  "ortunately": 4430,
  "Ġlargely": 4655,
  "ĠGates": 13225,
  "Ġbullying": 16966,
  "Ġregional": 6552,
  "Ġlining": 19266,
  "Ġtended": 17755,
  "util": 29717,
  "ĠSF": 14272,
  "ĠGree": 4614,
  "ĠNev": 9652,
  "ĠUniverse": 12962,
  "Ġoverdue": 29554,
  "Ġflux": 27104,
  "iatus": 28676,
  "politics": 28721,
  "Ġfreak": 20434,
  "ĠLane": 13397,
  "inc": 1757,
  "odo": 26658,
  "ĠCase": 9627,
  "Ġ103": 20955,
  "iter": 4846,
  "anka": 13275,
  "Ġhasn": 4755,
  "ĠCousins": 24170,
  "Ġundergoing": 20041,
  "ĠHol": 5401,
  "Ġcle": 1124,
  "estic": 4198,
  "sis": 14682,
  "ĠCraft": 18668,
  "Ġassass": 9473,
  "Ġrestriction": 19985,
  "Ġcandles": 30738,
  "Ġinstallation": 11780,
  "Source": 17577,
  "ĠAf": 1969,
  "ias": 4993,
  "ĠProcess": 15311,
  "Ġlyrics": 13488,
  "Ġsuspended": 8552,
  "Ġsigned": 3709,
  "Ġcleric": 31138,
  "Ġranking": 10982,
  "ĠMeat": 26188,
  "Ġsore": 19317,
  "Ġspecs": 22703,
  "oust": 14770,
  "ĠBod": 23605,
  "ĠMouse": 25264,
  "ĠDag": 31870,
  "Ġscripts": 15752,
  "Ġnecessarily": 6076,
  "Ġdrunken": 23774,
  "ĠNevada": 10290,
  "ĠFreder": 16138,
  "shirts": 19015,
  "Ġcrus": 9858,
  "Ġgear": 8432,
  "Ġ();": 31468,
  "yss": 20741,
  "Ġtaller": 26225,
  "ahi": 29753,
  "Ġnucle": 17400,
  "Ġvac": 4067,
  "Ġdebunk": 24401,
  "Ġrumours": 23974,
  "Ġaka": 21907,
  "Ġ85": 10067,
  "acked": 7335,
  "Ġwriting": 3315,
  "Ġchased": 23486,
  "Ġsher": 12499,
  "ĠSherlock": 25226,
  "ĠLev": 14420,
  "Ġsq": 24324,
  ")\"": 25109,
  "ĠCH": 7337,
  "Ġintervened": 27647,
  "Ġshields": 24666,
  "ĠWag": 17862,
  "Ġsubmarines": 25504,
  "Ġrecurs": 26397,
  "Ġaltar": 28146,
  "Ġborrowed": 19903,
  "ĠSSL": 28126,
  "Ġtutorials": 26773,
  "ologist": 6453,
  "ĠWinnipeg": 17571,
  "ĠISO": 21324,
  "ami": 8029,
  "pub": 25918,
  "ĠLyft": 28689,
  "ĠRough": 23461,
  "Ġadopting": 19563,
  "regard": 17050,
  "Ġdisposal": 17216,
  "Ġmutually": 24265,
  "Ġfriendships": 29144,
  "ovan": 18183,
  "ĠGrac": 31871,
  "byn": 12217,
  "Ġcameo": 31266,
  "Ġrecognise": 17817,
  "Ġquirky": 30567,
  "aways": 20714,
  "ĠShop": 17643,
  "ĠJill": 18861,
  "ĠExxon": 20568,
  "ĠDevil": 12949,
  "ough": 566,
  "Red": 16355,
  "ĠVPN": 23284,
  "ĠSurvival": 28766,
  "Ġtired": 9790,
  "Ġlabeling": 23665,
  "Ġdebit": 29020,
  "Ġmarket": 1607,
  "Ġesp": 13914,
  "educ": 15599,
  "ite": 533,
  "elin": 24216,
  "Ġabducted": 29580,
  "otten": 7268,
  "orf": 20287,
  "Ġcommunic": 3256,
  "hp": 27574,
  "Ġsque": 26956,
  "Ġsubstit": 24106,
  "White": 17357,
  "Ġconsisting": 17572,
  "placement": 19892,
  "Ġfrost": 30009,
  "pict": 18520,
  "ernel": 11705,
  "Ġlyr": 12186,
  "Ġsim": 933,
  "Ġaccordance": 16293,
  "Ġhonored": 17697,
  "ĠGreenland": 24786,
  "ppers": 11468,
  "Ġorchestra": 30732,
  "otle": 21565,
  "gor": 6659,
  "rather": 30298,
  "Ġrobotic": 20461,
  "Ġdisqual": 31271,
  "gu": 4562,
  "Ġ250": 9682,
  "Ġkilometres": 16806,
  "Ġfamously": 15388,
  "idth": 12220,
  "Ġunm": 19777,
  "ĠHarbaugh": 29096,
  "edia": 6403,
  "Ġhappy": 3558,
  "Ġsketches": 27975,
  "Life": 17985,
  "gorith": 7384,
  "ommod": 8546,
  "lli": 11793,
  "aternity": 16176,
  "file": 12289,
  "Ã": 125,
  "Ġhardcore": 20199,
  "Ġsting": 21139,
  "elp": 22829,
  "ĠPDF": 15405,
  "Ġunfinished": 30235,
  "ĠRupert": 27766,
  "Ġhunter": 20450,
  "ĠSwitzerland": 12287,
  "Ġshaped": 13625,
  "Ġconstructive": 23138,
  "ĠAshton": 29924,
  "sf": 31815,
  "Ġcoherent": 22521,
  "Ġdeclaration": 12705,
  "Ġoutright": 13354,
  "NS": 9857,
  "Ġadmissions": 23638,
  "ching": 10858,
  "ispens": 30263,
  "ARE": 17834,
  "Ġgeneric": 14591,
  "Ġrule": 3810,
  "Ġwarn": 9076,
  "Today": 13842,
  "Ġlending": 16503,
  "Ġdisk": 13708,
  "ĠLex": 16987,
  "Ð¿": 20750,
  "Ġvil": 30234,
  "ĠPersonally": 22625,
  "ĠFrame": 19691,
  "Ġlungs": 21579,
  "ĠSlav": 30482,
  "Ġsince": 1083,
  "Ġfucked": 29088,
  "here": 1431,
  "Ġkil": 7286,
  "charge": 12518,
  "Ġbrief": 4109,
  "ĠAbrams": 25152,
  "Ġorientation": 12256,
  "Ġskept": 8996,
  "akespeare": 17588,
  "arly": 834,
  "ĠBryan": 14112,
  "Ġdeputy": 8249,
  "Ġtally": 20780,
  "Ġprinter": 20341,
  "Ġleaned": 25540,
  "Ġflock": 27398,
  "Ġenhancements": 28636,
  "Ġswing": 8768,
  "min": 1071,
  "rez": 10376,
  "Ġbrowsers": 19353,
  "Ġprimary": 3852,
  "Ġpleasing": 28876,
  "Ġintercept": 13886,
  "ĠGut": 21164,
  "ĠEverton": 18692,
  "Ġintrins": 20874,
  "ocal": 4920,
  "Â®": 14234,
  "Ġbending": 31832,
  "Ġdefendants": 14800,
  "EU": 19209,
  "Ġrookies": 29607,
  "Ġdock": 21857,
  "wealth": 14347,
  "Ġwheat": 16707,
  "ked": 8117,
  "Ġpork": 17503,
  "ĠMcCoy": 24887,
  "OLL": 20202,
  "Ġsubpoena": 24673,
  "Ġparadox": 19122,
  "aker": 2985,
  "ĠMenu": 31894,
  "bt": 24495,
  "\").": 17961,
  "Ġunveil": 31491,
  "Ġincome": 3707,
  "ĠParkinson": 26575,
  "ern": 1486,
  "Ġprint": 3972,
  "given": 31956,
  "ience": 1153,
  "Ġfrightening": 19926,
  "United": 29668,
  "ĠDE": 10229,
  "olan": 14321,
  "existent": 28774,
  "Ġgrabbing": 21506,
  "Ġenfor": 11281,
  "ĠNature": 11089,
  "Ġsustainable": 10641,
  "amphetamine": 30825,
  "Ġphysicians": 17431,
  "agent": 23620,
  "Ġenhanced": 13070,
  "Ġwoods": 16858,
  "Ġcontrols": 7223,
  "che": 2652,
  "ĠTemple": 11975,
  "Ġholy": 13807,
  "Ġunnecessary": 12183,
  "ĠArena": 11867,
  "Breaking": 28805,
  "ĠJuda": 21512,
  "ept": 7514,
  "Ø¯": 27481,
  "Apple": 24745,
  "ĠJa": 12939,
  "ĠRuss": 1549,
  "ĠElizabeth": 9436,
  "Ġvast": 5205,
  "gang": 25366,
  "Ġheadaches": 26825,
  "War": 17300,
  "Ġtrap": 13821,
  "ĠBS": 22628,
  "Ġpurchased": 8455,
  "ĠNeither": 12301,
  "Ġvegetarian": 22087,
  "mas": 4987,
  "Man": 7918,
  "Ġoppose": 10359,
  "ĠWendy": 23046,
  "Ġsons": 11563,
  "Ġgoalie": 22290,
  "ĠZerg": 30205,
  "ĠMax": 6320,
  "2004": 21074,
  "ĠBRE": 28921,
  "Ġenormously": 29431,
  "Ġpseudo": 22531,
  "ĠDisease": 17730,
  "ĠPh": 1284,
  "Ġbrill": 8447,
  "ĠConnect": 8258,
  "axy": 6943,
  "ĠSer": 3167,
  "Ġinfringe": 16511,
  "ĠSite": 17637,
  "Ġbanana": 24190,
  "Ġreliable": 8995,
  "Ġteenage": 13958,
  "Ġcocktail": 21708,
  "version": 11822,
  "Ġannot": 22292,
  "Ġrecur": 27695,
  "ĠMegan": 24259,
  "ĠKelley": 25578,
  "O": 46,
  "Ġalleged": 3518,
  "Ġprivat": 16238,
  "Ġbottled": 29313,
  "Ġmonumental": 28932,
  "Ġres": 530,
  "Ġprocedures": 9874,
  "Ġindustries": 9912,
  "ĠApache": 21549,
  "Ġgang": 6727,
  "ĠPens": 31897,
  "ĠHann": 11306,
  "ĠJohannes": 28975,
  "Ġhundred": 3220,
  "Ġinviting": 20092,
  "Ġche": 1163,
  "ow": 283,
  "acon": 8385,
  "ĠRobinson": 10300,
  "Ġtakeover": 20057,
  "MC": 18248,
  "ĠTwenty": 16857,
  "orient": 12410,
  "ym": 5174,
  "Ġdemocrat": 19132,
  "ĠBull": 7352,
  "Ġallege": 27005,
  "ĠTruck": 30179,
  "list": 6925,
  "Ġshack": 28130,
  "loaded": 19090,
  "Ġconfinement": 24166,
  "Ġsourced": 27830,
  "aith": 3935,
  "On": 5346,
  "Ġwarmth": 24296,
  "ĠSoc": 3147,
  "Ġundisclosed": 26124,
  "âĸĪ": 11569,
  "umbles": 23524,
  "oux": 19371,
  "ĠCoul": 22039,
  "Ġsomebody": 7129,
  "Look": 12987,
  "aution": 28298,
  "ĠYOU": 8922,
  "MT": 25515,
  "ĠForget": 25347,
  "xy": 6611,
  "ewitness": 23643,
  "threatening": 22815,
  "Ġideal": 7101,
  "Ġobscene": 29527,
  "Ġrevolutionary": 10668,
  "True": 31647,
  "town": 10900,
  "Ġselect": 3366,
  "Ġgone": 3446,
  "Ġrockets": 16849,
  "Ġisland": 6255,
  "Ġresemblance": 27289,
  "ent": 256,
  "Ġgoodness": 20402,
  "Ġ1953": 21762,
  "Drive": 30316,
  "Big": 17189,
  "cert": 31652,
  "Ġoversight": 12296,
  "ĠCircuit": 12441,
  "anners": 18195,
  "bably": 11711,
  "Ġ3": 583,
  "ĠDream": 8879,
  "aff": 1406,
  "Ġdating": 9798,
  "Ġbol": 11120,
  "Ġextent": 6475,
  "Ġelect": 1501,
  "Ġintimid": 10919,
  "ĠVeterans": 17363,
  "Ġ43": 7827,
  "ĠApollo": 18068,
  "Ġreinforce": 17424,
  "ĠSeth": 16801,
  "Ġabolished": 27175,
  "Ġextraordinarily": 26521,
  "Ġasserts": 25358,
  "Ġcompl": 2127,
  "ĠIndians": 12039,
  "Ġgateway": 23479,
  "mat": 8636,
  "Ġreop": 21550,
  "Ġplay": 626,
  "ĠKings": 10598,
  "Ġocean": 8068,
  "Ġopenings": 26750,
  "Ã±o": 22425,
  "Ġouter": 13000,
  "aint": 3606,
  "ĠForces": 11916,
  "ĠGam": 14906,
  "erm": 18307,
  "Ġ1978": 14131,
  "Ġloser": 26268,
  "ĠStatus": 20439,
  "Ð¾Ð¼": 24652,
  "Ġtyp": 2291,
  "Ġdispensaries": 26731,
  "Ġprope": 24917,
  "Ġgrave": 11903,
  "Ġfascist": 22391,
  "%": 4,
  "ĠNap": 11434,
  "ster": 1713,
  "Ġvariations": 14244,
  "Ġhow": 647,
  "Ġsty": 8976,
  "ï¼": 10578,
  "Ġbitter": 12209,
  "2000": 14874,
  "hee": 19909,
  "Ġconfronting": 25375,
  "ĠAFL": 17744,
  "books": 10562,
  "utory": 22698,
  "Ġpreserved": 16421,
  "Ġentrepreneurial": 30870,
  "ĠEag": 8825,
  "Ġexams": 24922,
  "ĠSinclair": 27261,
  "University": 31626,
  "range": 5023,
  "Ġswiftly": 21901,
  "ĠCustomers": 27644,
  "ĠCivil": 7057,
  "ĠPortugal": 15290,
  "istic": 2377,
  "Ġrefers": 10405,
  "ĠSad": 11785,
  "ĠAdvertisements": 11765,
  "ĠPlease": 4583,
  "Ġdelays": 13863,
  "Ġinstructor": 21805,
  "rington": 21281,
  "ĠGate": 13764,
  "lligence": 3069,
  "xton": 18432,
  "ĠGonz": 12924,
  "ĠFO": 10707,
  "Ġreg": 788,
  "game": 6463,
  "li": 5711,
  "ĠTal": 6478,
  "ĠTigers": 14798,
  "Ġaxis": 18573,
  "Ġeman": 20783,
  "Ġshifted": 12660,
  "Ġpert": 22738,
  "ĠWhites": 23899,
  "iani": 19017,
  "Ġprince": 21077,
  ";": 26,
  "EC": 3745,
  "ing": 234,
  "Ġavid": 27004,
  "ĠWald": 21184,
  "ĠAngry": 31000,
  "Ġwinds": 13078,
  "ĠNEWS": 24763,
  "wy": 24808,
  "Ġconsciousness": 10315,
  "Ġinit": 2221,
  "Ġdistance": 5679,
  "AK": 14335,
  "ĠDirectors": 29689,
  "ĠGamer": 22576,
  "Ġcland": 31881,
  "ivities": 23898,
  "ĠÐ²": 15168,
  "FX": 24939,
  "ĠSang": 29803,
  "ĠNT": 24558,
  "Ġwalked": 6644,
  "Ġrunner": 15264,
  "Ġstars": 5386,
  "Ġbetrayal": 26069,
  "iam": 1627,
  "Ġhopeful": 12746,
  "Ġup": 465,
  "ĠMario": 10871,
  "ĠLib": 6089,
  "Ġwatches": 16892,
  "ĠTreasury": 10499,
  "Ġphon": 30950,
  "Ġsat": 3538,
  "Ġutility": 10084,
  "Ġmurd": 8358,
  "ĠSec": 1850,
  "Ġdestroyed": 6817,
  "Ġaccessed": 17585,
  "Ġonset": 21569,
  "ecause": 3026,
  "ĠLad": 11172,
  "Ġneglect": 12641,
  "ĠTelegraph": 16279,
  "Ġlooming": 21108,
  "Ġcou": 2058,
  "Ġfranchise": 6854,
  "Ġatmosphere": 7250,
  "uble": 27934,
  "Ġseldom": 24752,
  "Ġacoustic": 24022,
  "Ġorche": 14081,
  "Ġfinding": 4621,
  "Ġreluctance": 27351,
  "Ġtri": 1264,
  "lant": 4457,
  "ĠWalter": 13431,
  "ctic": 8966,
  "ĠPirates": 20273,
  "Ġlakes": 21816,
  "Ġcolumnist": 16724,
  "Ġple": 2376,
  "WH": 21806,
  "Ġsmokers": 23947,
  "½": 121,
  "ĠGOOD": 16287,
  "share": 23834,
  "Ġhigher": 2442,
  "Ġmig": 27834,
  "ĠIncre": 13273,
  "Ġcleaner": 19984,
  "Ġobs": 9162,
  "ĠCoch": 28386,
  "Ð°ÑĤ": 27756,
  "ķ": 199,
  "atellite": 26895,
  "Ġsubstitute": 15407,
  "Ġcerebral": 29249,
  "Ùħ": 20116,
  "Ġsmo": 30473,
  "Ġfunction": 2473,
  "ĠRights": 6334,
  "vet": 15646,
  "gressive": 24038,
  "aren": 4903,
  "raved": 30696,
  "ĠU": 429,
  "ĠTwitter": 2281,
  "using": 3401,
  "Ġorganize": 13903,
  "orton": 17750,
  "Ġcontaining": 7888,
  "ĠRhod": 19097,
  "Ġstore": 2736,
  "Ġstatistics": 8214,
  "Ġ+": 2424,
  "Ġdece": 13254,
  "Ġinvented": 13375,
  "ĠKendall": 30330,
  "ĠRSS": 21218,
  "Ġmosquito": 29440,
  "ocity": 14051,
  "phabet": 18869,
  "Ġbothered": 18415,
  "Ġsuggested": 4549,
  "Ġstatist": 9940,
  "Ġexpect": 1387,
  "Ġadept": 31191,
  "ESS": 11263,
  "Ġmodified": 10270,
  "·": 115,
  "Ġinvestigator": 17911,
  "Ġimmers": 18308,
  "ĠDeveloper": 21119,
  "rics": 10791,
  "File": 18393,
  "ollah": 13367,
  "Ġserver": 5113,
  "ĠDiane": 20511,
  "Cour": 28155,
  "Ġdefending": 9823,
  "Ġcontem": 7228,
  "ĠPST": 27698,
  "Ġpharmaceutical": 15900,
  "ould": 375,
  "Paul": 17785,
  "Ġhospitals": 9933,
  "Ġtreating": 12444,
  "ĠCris": 15639,
  "Ġsatirical": 30599,
  "Ġdemocracies": 30908,
  "Ġmasturb": 27317,
  "Ġdev": 1594,
  "iliar": 4505,
  "Ġlead": 913,
  "ĠCrazy": 26651,
  "à´": 27949,
  "Ġpsych": 3734,
  "Bit": 20432,
  "ĠGrayson": 31782,
  "Ġdisrupt": 8575,
  "Ġcolonial": 13985,
  "Ġmarsh": 20871,
  "Ġfingerprints": 29885,
  "ĠAdult": 24617,
  "Ġaccessing": 20790,
  "Ġlau": 13414,
  "chet": 23615,
  "ĠÐ½Ðµ": 29855,
  "ĠGar": 6241,
  "ĠiPod": 25786,
  "Ġgrounds": 8522,
  "Ġregained": 31462,
  "Ġrecogn": 2790,
  "ĠCongrat": 27968,
  "Ġalleg": 2345,
  "ĠRepe": 21280,
  "ĠReading": 12663,
  "ancouver": 8182,
  "Ġic": 15397,
  "und": 828,
  "strike": 26623,
  "Ter": 31053,
  "ĠSnowden": 10942,
  "ĠOd": 13164,
  "ĠFairfax": 24336,
  "Ġlessons": 10322,
  "ĠTay": 6427,
  "mos": 14608,
  "Ġinvolve": 5473,
  "ĠKov": 31976,
  "Ġholiday": 8462,
  "IN": 1982,
  "mind": 9398,
  "Ġspecially": 20994,
  "ocrat": 1545,
  "Ġquad": 14270,
  "Ġswitch": 5524,
  "Ġcrafting": 21834,
  "ĠCJ": 27220,
  "Ġfelony": 14769,
  "ĠErin": 25788,
  "Ġ86": 13936,
  "Ġaccommodation": 19694,
  "ounge": 20555,
  "Ġa": 213,
  "Ġexam": 3055,
  "all": 407,
  "ĺ": 202,
  "Ġtrends": 9982,
  "Ġaccordingly": 16844,
  "Ġanxious": 17260,
  "anz": 26323,
  "ĠRust": 17579,
  "Ġlimitations": 11700,
  "Ġsecond": 1182,
  "recy": 16693,
  "Ġexisted": 10427,
  "team": 14814,
  "obody": 21991,
  "Ġlabs": 23946,
  "orts": 1839,
  "uded": 16928,
  "Ġswinging": 24047,
  "Ġdonation": 13279,
  "innamon": 24322,
  "ĠDemocratic": 3289,
  "ĠMod": 3931,
  "Ġbuilds": 11627,
  "ĠSpell": 27096,
  "ĠTaiwan": 11451,
  "Ġanarch": 12133,
  "Ġlevy": 30573,
  "ĠSheriff": 10369,
  "31": 5347,
  "Ġsperm": 19861,
  "imize": 10490,
  "ĠAcc": 2153,
  "ompl": 5787,
  "ĠBuffalo": 12349,
  "ciously": 18783,
  "umably": 27216,
  "ĠSociety": 6887,
  "Ġling": 16540,
  "Ġjointly": 24266,
  "Ġboundaries": 12237,
  "Ġexamination": 14207,
  "Ġpony": 24434,
  "igator": 26048,
  "225": 28344,
  "raz": 2992,
  "ĠRemote": 26784,
  "V": 53,
  "ĠONLY": 30345,
  "Ġsound": 2165,
  "Ġflipping": 29424,
  "Ġmogul": 28554,
  "Ġdoll": 3104,
  "ĠNAS": 5422,
  "Ġinbox": 11127,
  "ĠPry": 26354,
  "Ġnarrowed": 31182,
  "Ġabuse": 4751,
  "Ġteam": 861,
  "âĸĪâĸĪâĸĪâĸĪ": 27235,
  "bee": 20706,
  "Ġpatriotism": 28722,
  "Ġadm": 6445,
  "iro": 7534,
  "Ġhair": 4859,
  "Ġdifficulties": 12462,
  "255": 24515,
  "number": 21824,
  "Ġhurry": 24110,
  "ĠFL": 14103,
  "ĠSims": 24240,
  "Ġindividually": 17311,
  "Ġtooth": 15760,
  "Ġspirit": 4863,
  "Ġinformed": 7273,
  "cia": 15302,
  "racuse": 23292,
  "istle": 10731,
  "ĠKelly": 7173,
  "Ġmyth": 7419,
  "requ": 12125,
  "Ts": 30678,
  "Despite": 23708,
  "Ġrented": 22393,
  "ĠAlliance": 10440,
  "ĠKend": 16807,
  "Ġquint": 25278,
  "Ġmentor": 19094,
  "Ġview": 1482,
  "ĠFramework": 27831,
  "Ġdied": 3332,
  "Ġbacterial": 23700,
  "Ġfleet": 10492,
  "Ġangered": 27045,
  "Ġconcepts": 10049,
  "Ġbidding": 21018,
  "ĠBulls": 13730,
  "ĠOrchestra": 31630,
  "ĠShanghai": 17184,
  "ĠSide": 11482,
  "Ġbiof": 28282,
  "Ġshoes": 10052,
  "Ġcontent": 2629,
  "-": 12,
  "eder": 5297,
  "ICS": 22310,
  "Ġcorps": 16148,
  "ãģĵ": 30991,
  "Ġguests": 10326,
  "Ġcarpet": 19669,
  "placed": 20475,
  "Ġvain": 26145,
  "ĠBay": 3939,
  "Ġthickness": 24568,
  "rovers": 25138,
  "Ġdeserve": 9487,
  "igating": 26372,
  "Ġsequencing": 28286,
  "gebra": 29299,
  "ĠHouston": 6275,
  "ĠGlory": 30351,
  "ĠSty": 26166,
  "asonable": 17580,
  "Ġpirate": 24071,
  "Ġdescription": 8077,
  "alysis": 9863,
  "âĢĵâĢĵ": 18926,
  "Ġrevolution": 5037,
  "Ġblown": 14881,
  "ĠMaxim": 28742,
  "Ġhypot": 8373,
  "Ġstyle": 4012,
  "isf": 4922,
  "ĠScand": 23457,
  "Ġbelieving": 13350,
  "Ġanalyzing": 19887,
  "matched": 30374,
  "Ġoverhaul": 14664,
  "onte": 27820,
  "est": 344,
  "reading": 20945,
  "Ġbec": 561,
  "ĠHubble": 29166,
  "Ġpadding": 31389,
  "ĠâĢķ": 21511,
  "Ġcitizens": 3637,
  "ĠTB": 19858,
  "Ġsnapped": 20150,
  "Ġquarterly": 25078,
  "ĠStanley": 10890,
  "Ġpedestrians": 21603,
  "Ġtune": 12377,
  "Ġtakedown": 27703,
  "Ġrepair": 10289,
  "Ġ1946": 22430,
  "sold": 24529,
  "ĠCart": 15553,
  "cc": 490,
  "Ġsixth": 9979,
  "Ġdemolished": 25257,
  "Ġfug": 28096,
  "ĠBj": 26873,
  "Ġaveraged": 13714,
  "Ġvolume": 6772,
  "Ġestablishments": 29492,
  "Ġdefinitions": 18943,
  "Ġtempt": 15253,
  "Ġpriority": 7733,
  "uted": 8723,
  "ĠTs": 10199,
  "daily": 26486,
  "Ġventures": 26920,
  "ĠÐ¼": 25496,
  "mes": 5628,
  "Ġmidnight": 14525,
  "ĠVC": 23251,
  "Ġ500": 5439,
  "ĠSergeant": 26923,
  "ĠJess": 11118,
  "Ĥ": 180,
  "ĠEarn": 22663,
  "Ġunfolding": 27385,
  "effect": 27933,
  "ble": 863,
  "ional": 1517,
  "Ġbath": 7974,
  "ĠEugene": 20989,
  "Ġoutp": 25591,
  "ĠAlexa": 27293,
  "Ġoperators": 11394,
  "ĠPKK": 27301,
  "Ġiterations": 29787,
  "water": 5817,
  "Ġargues": 9291,
  "Ġreelection": 24826,
  "Ġbilling": 26680,
  "ĠRodriguez": 15094,
  "Ar": 6391,
  "Ġv": 370,
  "ĠGiant": 20268,
  "ĠKenny": 17328,
  "Ġcareful": 8579,
  "ĠGupta": 31331,
  "Ġsocialist": 12804,
  "Ġthrill": 24392,
  "Ġwhereby": 22316,
  "ocate": 12734,
  "ĠSmall": 11113,
  "night": 4632,
  "ĠMont": 4884,
  "oyle": 18443,
  "66": 6143,
  "Ġted": 25997,
  "ys": 896,
  "ured": 1453,
  "Ġaw": 3249,
  "Ġunab": 31516,
  "Ġregimes": 20321,
  "Ġimmune": 11114,
  "Ġexecutions": 24438,
  "Ġrocks": 12537,
  "prises": 16084,
  "Ġentry": 6198,
  "ĠNepal": 21291,
  "Ġtype": 2609,
  "ellar": 14466,
  "rik": 8032,
  "ĠCool": 15575,
  "Ġlisteners": 19707,
  "##": 4796,
  "hibition": 22997,
  "Ġsculpture": 24771,
  "Ġmetal": 6420,
  "ĠRud": 14782,
  "Ġposes": 15172,
  "uder": 19368,
  "uty": 3751,
  "Ġdecl": 2421,
  "Ġclocks": 28316,
  "Qaida": 29098,
  "Ġpart": 572,
  "iol": 1544,
  "ĠKaren": 16189,
  "Ġ(Â£": 16981,
  "Ġjump": 3973,
  "where": 2379,
  "mining": 17513,
  "ĠSav": 9833,
  "Ġdivor": 9917,
  "omach": 11925,
  "ĠBerry": 20689,
  "ĠSkull": 31682,
  "ĠBenn": 11519,
  "Ġ(#": 21856,
  "ĠCube": 28945,
  "NT": 12910,
  "iates": 30638,
  "ĠHar": 2022,
  "ĠHornets": 31663,
  "Ġparadise": 29017,
  "ĠSuccess": 18191,
  "Ġfasc": 6735,
  "zyme": 27090,
  "icity": 9795,
  "ĠChambers": 27825,
  "Ġbrothers": 8506,
  "ĠGret": 27947,
  "ĠDogs": 22208,
  "Ġtread": 24597,
  "ĠPit": 7967,
  "ulum": 13658,
  "ĠKate": 14630,
  "Ġunsettling": 30774,
  "Ġwelcomes": 31160,
  "ĠRank": 12828,
  "ĠEarl": 18164,
  "Produ": 30807,
  "ĠVacc": 30761,
  "Ġrefuge": 4735,
  "ĠSwit": 11573,
  "Ġarchives": 20155,
  "ĠBlake": 11160,
  "Ġpain": 2407,
  "Ġpanc": 21836,
  "Ġsupplements": 23376,
  "tre": 26533,
  "Ġ``": 29260,
  "Ġweakened": 21464,
  "iner": 7059,
  "ĠPoverty": 26049,
  "orthern": 4339,
  "ĠAri": 5146,
  "Ġstreet": 4138,
  "Ð»Ð°": 29865,
  "Ġcereb": 27439,
  "ĠEnough": 27689,
  "ĠMolly": 28138,
  "ĠMari": 25425,
  "Ġcoincide": 29991,
  "Ġencourage": 7041,
  "Ġrefuses": 16501,
  "Ġdysfunction": 18220,
  "Ġcharism": 21360,
  "ĠToday": 4484,
  "Ġorbit": 10581,
  "semble": 14462,
  "Ġprotocols": 18500,
  "irling": 22881,
  "Ġindef": 14826,
  "Ġinformation": 1404,
  "Ġhighest": 4235,
  "Ġsocial": 1632,
  "ĠPokÃ©mon": 13926,
  "ĠCompar": 25397,
  "ĠMur": 4992,
  "Ġcant": 23494,
  "Ġreserved": 10193,
  "Ġdemonstrating": 18446,
  "ĠTheodore": 29902,
  "Ġgrains": 22613,
  "Ġcatalog": 17872,
  "ims": 12034,
  "ĠSpons": 25733,
  "Ġextremism": 19437,
  "Ġtoward": 3453,
  "Ġextras": 24646,
  "Ġweight": 4065,
  "Ġlamb": 18640,
  "Ġsuspicions": 26220,
  "ĠStephen": 6417,
  "Ġfetus": 29951,
  "ĠAfricans": 23480,
  "ĠSilent": 26495,
  "?),": 30897,
  "ef": 2370,
  "vable": 21671,
  "Ġespionage": 23312,
  "ĠAtlantic": 8844,
  "ĠDak": 10769,
  "ãģĹ": 18773,
  "ĠBears": 12643,
  "ĠPatri": 8635,
  "Ġbogus": 26345,
  "Ġobserved": 6693,
  "Ġshield": 9353,
  "Ġimprove": 2848,
  "ĠLyon": 27338,
  "Ġvolt": 18326,
  "formance": 11882,
  "Ġlonely": 20410,
  "Ġmoney": 1385,
  "Che": 16534,
  "ĠMalt": 22769,
  "ĠCapitals": 30789,
  "Ġdream": 4181,
  "Ġexits": 30091,
  "Ġunhealthy": 24542,
  "ĠCord": 19921,
  "ĠMagn": 16129,
  "wolf": 31243,
  "Ġarchaeological": 25926,
  "Ġagrees": 13409,
  "ĠSe": 1287,
  "urches": 11245,
  "Ġinstitutional": 13296,
  "important": 21608,
  "oi": 24540,
  "Ġgenerals": 22647,
  "ĠSecurities": 23660,
  "Ġunle": 14194,
  "oqu": 18903,
  "ĠMyanmar": 22477,
  "aper": 1996,
  "Ġalive": 6751,
  "Â¨": 31841,
  "Ġsignificance": 11303,
  "ĠPR": 5883,
  "ĠLibrary": 10171,
  "Ġbacon": 19196,
  "leaning": 20411,
  "Ġresisting": 23836,
  "Ġshortcuts": 31891,
  "Ġcited": 7682,
  "\");": 22621,
  "see": 4054,
  "Ġgrace": 13324,
  "Ġlou": 23895,
  "Ġremembering": 23069,
  "Ġbarric": 26409,
  "role": 16283,
  "Ġhats": 21326,
  "omsky": 30837,
  "ĠResult": 27496,
  "Ġhelicopters": 18766,
  "Ġeup": 24405,
  "Ġpersist": 15023,
  "act": 464,
  "Ġintegrate": 16259,
  "oug": 21618,
  "Ġbundled": 30469,
  "ages": 1087,
  "Ġfool": 9339,
  "Ġambul": 16081,
  "CO": 9731,
  "ĠLot": 14835,
  "Ġâĸł": 26221,
  "Ġshadow": 9241,
  "Ġscrut": 9866,
  "ĠCoin": 16277,
  "Ġblockbuster": 24463,
  "Ġuncond": 28963,
  "ãģ¨": 19870,
  "Ġhammer": 16020,
  "Ġna": 9761,
  "Ġprim": 2525,
  "ĠKin": 19715,
  "tesque": 31285,
  "Ġfriends": 2349,
  "ĠDelta": 16679,
  "hall": 19562,
  "ĠSales": 17936,
  "Ġunidentified": 22332,
  "Ġterr": 9925,
  "Over": 13472,
  "Ġrestrictions": 8027,
  "Ġnature": 3567,
  "ĠAppeals": 18634,
  "iologist": 25371,
  "Ġblasting": 31759,
  "ĠTou": 25164,
  "ĠCam": 6783,
  "Ġtraction": 19888,
  "inder": 7555,
  "Ġinmate": 23413,
  "Ġchosen": 7077,
  "Ġtum": 11550,
  "orter": 3861,
  "ajo": 25679,
  "thal": 11382,
  "Ġcheapest": 26064,
  "Ġperspectives": 19832,
  "ATT": 24902,
  "she": 7913,
  "Ġstriker": 14142,
  "Ġprecipitation": 27128,
  "Ġeverywhere": 7648,
  "breaker": 27136,
  "ape": 2139,
  "Ġunus": 6524,
  "ĠCPU": 10720,
  "Ġinventory": 15731,
  "Ġbash": 27576,
  "isode": 11663,
  "ask": 2251,
  "ĠMale": 19118,
  "Ġaddict": 18243,
  "ĠNine": 15027,
  "ĠPhel": 28369,
  "Ġstrain": 13060,
  "Ġtheater": 11279,
  "Ġobserving": 20219,
  "built": 19022,
  "ĠHampshire": 11189,
  "Ġdistinction": 12365,
  "usra": 21915,
  "ĠImproved": 26447,
  "Ġratios": 23050,
  "ĠManagement": 9614,
  "Ġspecifications": 22090,
  "Message": 27027,
  "Ġinformant": 29660,
  "Ġrelief": 7848,
  "Ġintoxicated": 30943,
  "America": 18595,
  "Ġrolls": 15062,
  "Ġpersecution": 19385,
  "Ġflows": 14821,
  "Ġfar": 1157,
  "Four": 28057,
  "ruption": 5591,
  "ĠSpecifically": 17720,
  "acts": 9444,
  "Ġprox": 13986,
  "risk": 17068,
  "ogy": 9911,
  "ratives": 19915,
  "ighter": 4954,
  "ĠDest": 12476,
  "ĠSamuel": 15005,
  "Ġballistic": 19338,
  "Ġlived": 5131,
  "Ġunreal": 20052,
  "Ġoverhead": 16351,
  "ĠAnother": 3849,
  "ĠWear": 24446,
  "oody": 22454,
  "ĠCh": 555,
  "ĠShaun": 26319,
  "BB": 19364,
  "ĠCertain": 13970,
  "Ġnext": 1180,
  "Ġdossier": 27357,
  "Ġintermedi": 15704,
  "Ġadults": 6349,
  "ĠLink": 7962,
  "Ġdisgu": 16954,
  "Ġfallen": 8521,
  "Ġ1979": 12173,
  "urally": 17316,
  "Ġgotta": 16862,
  "ĠCoca": 24866,
  "ĠHook": 17701,
  "Ġaddition": 3049,
  "Ġracism": 9007,
  "Ġoversees": 24163,
  "ĠSynt": 31427,
  "Donald": 7169,
  "Ġbankrupt": 10557,
  "ĠiT": 13857,
  "reci": 26381,
  "Ġinsurers": 19238,
  "ĠBold": 29334,
  "Ġinward": 30572,
  "Ġexcessive": 12745,
  "Ġreddit": 20940,
  "Ġspider": 21962,
  "Ġscans": 22305,
  "Ġsuing": 21614,
  "shore": 11561,
  "Ġaffidav": 19917,
  "outheastern": 24291,
  "ĠJord": 6462,
  "Ġpartnerships": 18950,
  "Ġimperson": 25129,
  "Ġwasting": 22150,
  "Ġissue": 1829,
  "Ġdatabases": 18425,
  "lex": 2605,
  "Ġcrashes": 17423,
  "Ġnuanced": 26938,
  "ĠHarold": 21690,
  "Ġslapped": 27546,
  "Pass": 23386,
  "Ġmph": 14167,
  "necess": 10121,
  "hoff": 31757,
  "owa": 7037,
  "ĠBT": 19475,
  "Ġmanages": 14463,
  "Ġvenues": 17865,
  "ĠMain": 8280,
  "Ġnause": 24073,
  "ĠWarriors": 12695,
  "its": 894,
  "ĠDevin": 28526,
  "Ġbatter": 11010,
  "Ġproximity": 18524,
  "ĠNatural": 12062,
  "ĠRoss": 8166,
  "Ã´": 24187,
  "Ġripe": 26010,
  "ĠReports": 16285,
  "ĠLike": 3519,
  "Ġwondered": 13124,
  "kered": 26675,
  "ĠJamaica": 25501,
  "Ġwrapped": 12642,
  "ĠEqual": 28169,
  "Ġbaking": 18638,
  "Ġeruption": 28512,
  "Ġtied": 7283,
  "ĠGaga": 31935,
  "Ġcriticisms": 19739,
  "ouf": 30632,
  "ĠInterface": 31586,
  "Ġsyn": 6466,
  "other": 808,
  "Ġir": 4030,
  "Ġfiltered": 28740,
  "âĢĶâĢĶâĢĶâĢĶ": 8741,
  "Ġflip": 12968,
  "ationally": 13008,
  "Ġbegging": 24302,
  "Ġcertainty": 17200,
  "metal": 31542,
  "px": 14534,
  "Top": 22480,
  "Ġjob": 1403,
  "secure": 20802,
  "Ġdeton": 19774,
  "Ġplugged": 29567,
  "Ġaccount": 1833,
  "ĠZam": 30148,
  "Ġdisl": 17466,
  "acious": 13763,
  "Ġricher": 22053,
  "aunch": 21468,
  "loop": 27889,
  "soft": 4060,
  "57": 7237,
  "According": 19460,
  "ĠSochi": 29968,
  "Ġencl": 22460,
  "inary": 3324,
  "Ġrestricted": 11587,
  "script": 15960,
  "types": 26101,
  "imum": 3481,
  "hetical": 18229,
  "Ġstolen": 8891,
  "ĠOlsen": 29696,
  "astery": 27794,
  "ĠCD": 6857,
  "Ġkingdom": 13186,
  "ceptions": 9575,
  "BLE": 29631,
  "Ġcongressman": 20726,
  "coun": 17796,
  "Ġunleashed": 23544,
  "Ġcommit": 1869,
  "ĠBeat": 11530,
  "ywood": 6276,
  "omon": 17977,
  "aut": 2510,
  "eting": 21006,
  "Ġwider": 9149,
  "Ġbooth": 16063,
  "Ġcyclist": 27084,
  "ĠCaribbean": 16381,
  "eye": 27174,
  "Ġoutweigh": 26955,
  "Ġsources": 3907,
  "ĠGardens": 25455,
  "ĠMiguel": 22234,
  "sd": 31979,
  "Ġwants": 2914,
  "ĠCarney": 28802,
  "Ġelectronics": 14799,
  ")|": 15014,
  "eline": 4337,
  "azy": 12608,
  "ulates": 15296,
  "Ġadvertised": 22002,
  "Ġsized": 22166,
  "ĠBaron": 22620,
  "estinal": 25023,
  "Ġgoddess": 25384,
  "Ġclich": 28196,
  "Arch": 31328,
  "ĠSpotify": 22841,
  "ĠBurg": 23367,
  "ithe": 27858,
  "ĠTrial": 28052,
  "ĠPant": 10618,
  "ĠSurface": 17491,
  "ĠCage": 24281,
  "Ġhead": 1152,
  "ĠSebastian": 21472,
  "Ġdetected": 12618,
  "itious": 24005,
  "exam": 29014,
  "ĠRound": 10675,
  "Ġimpressed": 11125,
  "Ġallot": 27389,
  "Sometimes": 21760,
  "ĠDownt": 18716,
  "anza": 30715,
  "ĠCall": 6877,
  "well": 4355,
  "bing": 4569,
  "Ġcharacterized": 14876,
  "ĠMcL": 14181,
  "ĠMonroe": 22635,
  "atta": 23008,
  "Americ": 5208,
  "Ġrealise": 16520,
  "James": 26193,
  "Ġnortheast": 20030,
  "Ġsimilar": 2074,
  "ĠRene": 24229,
  "Ġperpetrator": 30370,
  "Ġefficient": 6564,
  "ĠHate": 25695,
  "Ġtemplate": 13049,
  "Ġmash": 27894,
  "ricane": 10215,
  "yards": 30275,
  "Ġmaking": 1490,
  "Ġlands": 8690,
  "ĠProtection": 10264,
  "identally": 20648,
  "Ġsavvy": 25249,
  "ĠMahar": 23976,
  "Ġfist": 19681,
  "plex": 13056,
  "ĠJed": 16359,
  "ĠCommon": 8667,
  "etc": 20401,
  "ĠGi": 6945,
  "ĠAm": 1601,
  "Ġdisputes": 16278,
  "ĠNit": 24686,
  "idge": 3116,
  "Ġcommits": 25561,
  "Ġjustify": 10615,
  "Ã§Ã£o": 28119,
  "Ġsquirrel": 29085,
  "Ġpharmacy": 29536,
  "utch": 6515,
  "Ġaim": 3581,
  "ĠParticip": 17890,
  "ĠSword": 23034,
  "Ġprest": 13967,
  "Ġphotography": 14257,
  "Ġpixels": 19571,
  "ĠHash": 22886,
  "Ġreven": 8378,
  "Ġcorn": 11864,
  "j": 73,
  "oji": 26776,
  "Ġturtles": 30033,
  "ĠCaf": 30750,
  "Ġattained": 31688,
  "Ġadministrators": 15772,
  "brow": 30240,
  "Ġthanked": 22040,
  "yle": 2352,
  "Ġtrophy": 17969,
  "ĠMatthews": 17217,
  "Ġprivileges": 19331,
  "established": 23578,
  "Ġliterally": 6691,
  "Ġhorrified": 28452,
  "Ġbra": 8096,
  "Ġobligation": 14047,
  "osition": 2730,
  "make": 18969,
  "cl": 1207,
  "rica": 27817,
  "ĠCalif": 2705,
  "ĠComey": 9559,
  "ĠAmerica": 1842,
  "Ġpenetrate": 28861,
  "pping": 2134,
  "Ġconfig": 6178,
  "ĠTest": 6916,
  "ĠVit": 21339,
  "ĠLeave": 16066,
  "Ġmuster": 30409,
  "Ġimports": 15747,
  "Ġkeep": 1298,
  "pod": 30241,
  "Ġbloody": 14233,
  "Ġ170": 19704,
  "ĠImmediately": 27792,
  "ĠComic": 16478,
  "stown": 23636,
  "Ġoblig": 6897,
  "rage": 7313,
  "respect": 15157,
  "ĠThrones": 18449,
  "ĠLevy": 24578,
  "Ġstature": 29200,
  "ĠQueensland": 15396,
  "uristic": 22499,
  "ĠStark": 21483,
  "Ġrate": 2548,
  "ĠKam": 12651,
  "boat": 23048,
  "anted": 4571,
  "into": 20031,
  "ĠMonetary": 25569,
  "ĠAD": 5699,
  "ATH": 18593,
  "ĠShapiro": 26916,
  "Ġgrit": 19521,
  "prising": 12706,
  "ĠPK": 28507,
  "ĠMartin": 4766,
  "Ġrese": 1421,
  "ĠDW": 23727,
  "ongevity": 23972,
  "ĠKush": 17452,
  "Ġdrought": 14218,
  "Ġtank": 7243,
  "________": 4309,
  "ĠPag": 26324,
  "Ġmourn": 26232,
  "ĠSnapdragon": 30239,
  "Ġcasinos": 31986,
  "Ġvolcano": 27552,
  "ĠAndrews": 21803,
  "Ġdocumentation": 11420,
  "ĠGarner": 29755,
  "Ġempt": 22710,
  "ĠShadow": 13162,
  "eared": 10159,
  "Ġperformers": 19469,
  "Ġfix": 3323,
  "Ġdamp": 22212,
  "Ġenduring": 20060,
  "Ġmornings": 24857,
  "Ġembarrassment": 21141,
  "event": 23526,
  "Ġolig": 20835,
  "ĠGrim": 28485,
  "ĠNow": 1968,
  "ĠMit": 9266,
  "ican": 6310,
  "Ġaggression": 13811,
  "ufficient": 14939,
  "Ġcountryside": 21748,
  "ĠUSS": 15009,
  "usp": 19157,
  "Ġnotes": 4474,
  "ĠInv": 13157,
  "ĠDru": 24545,
  "ordering": 30543,
  "Ġdelivery": 7996,
  "Ġtrace": 13527,
  "Ġconsumed": 13667,
  "ĠIvanka": 23474,
  "ĠMarqu": 23785,
  "Ġlouder": 25723,
  "ĠLast": 3447,
  "I": 40,
  "ĠNeander": 31536,
  "ojure": 27979,
  "ully": 2092,
  "Ġliking": 23986,
  "Ġcaucus": 17046,
  "idious": 29722,
  "ĠAmid": 24589,
  "dain": 22724,
  "Ġsurve": 3159,
  "Ġpermanent": 7477,
  "Ġradio": 4485,
  "Ġaccusations": 11342,
  "ĠPut": 4899,
  "ĠAthlet": 15394,
  "ranch": 23518,
  "Ġcaptured": 7118,
  "Ġaspir": 11910,
  "ĠWildlife": 17847,
  "geoning": 26210,
  "Ġrookie": 9546,
  "nan": 10944,
  "]:": 13050,
  "Ġbuys": 21266,
  "Ġconfigure": 22870,
  "ĠZionist": 23028,
  "ULL": 16820,
  "Ġ46": 7886,
  "Ġrecounted": 26783,
  "Ġclue": 17386,
  "Ġencoding": 25106,
  "ĠBrown": 3726,
  "Ġtreatments": 13096,
  "ĠCBC": 14716,
  "Ġsoldier": 10367,
  "Ġproudly": 20090,
  "Ġposture": 23043,
  "ĠUsers": 17301,
  "Ġchecked": 10990,
  "obal": 2194,
  "Ġinte": 930,
  "Ġsponsorship": 22167,
  "iphate": 27707,
  "Ġdrown": 15262,
  "ĠProgram": 7165,
  "Ġlocal": 1747,
  "Ġlap": 14041,
  "Ġquantity": 15768,
  "Ġbunk": 21424,
  "Ġirresponsible": 22381,
  "Ġconsolidate": 31538,
  "ĠFoods": 20403,
  "ISE": 28492,
  "Ġheading": 8394,
  "ĠOrb": 23783,
  "Ġdystop": 29779,
  "ibilities": 7501,
  "Ġmountains": 12055,
  "Ġprotein": 8848,
  "Ġpublication": 8448,
  "ĠBath": 22899,
  "Ġcertain": 1663,
  "hetics": 22856,
  "Ġstartup": 11736,
  "ĠCho": 9253,
  "Ġantiqu": 24304,
  "hetamine": 25611,
  "Ġlecture": 14033,
  "Ġhidden": 7487,
  "ancies": 15852,
  "Ġburns": 20317,
  "Ġhosting": 11525,
  "Ġsand": 6686,
  "Ġbrutal": 10513,
  "âĢ¦âĢĿ": 14369,
  "Ġquart": 29422,
  "oki": 30964,
  "ĠPhD": 15421,
  "Show": 27039,
  "ĠOg": 20590,
  "Ġparl": 22754,
  "Ġcreativity": 13674,
  "Ġminimize": 17440,
  "Ġimporting": 30540,
  "ĠProceedings": 31799,
  "ĠEditor": 10152,
  "ons": 655,
  "íķ": 28105,
  "ĠJak": 20551,
  "illions": 24396,
  "ĠDepot": 30536,
  "Ġzero": 6358,
  "otine": 18794,
  "Ġgrandchildren": 23691,
  "ĠCe": 14509,
  "adelph": 7288,
  "rimp": 25625,
  "heast": 8201,
  "ouch": 8206,
  "ĠFriend": 9251,
  "Ġarm": 3875,
  "La": 17672,
  "ĠSeoul": 19354,
  "Ġspoilers": 30618,
  "ix": 875,
  "ottest": 21545,
  "Ġoverride": 23264,
  "Ġproble": 1239,
  "ilt": 2172,
  "Ġsubsidy": 23079,
  "ĠDemocrats": 3424,
  "ĠANY": 23298,
  "itant": 22411,
  "cut": 9046,
  "ALLY": 23395,
  "ĠFahren": 31340,
  "Ġrequired": 3193,
  "ĠRavens": 16938,
  "arg": 818,
  "umbo": 24703,
  "Ġthinking": 3320,
  "ĠBrewer": 29043,
  "akers": 3291,
  "lers": 7367,
  "Ġdismay": 25080,
  "Ġlapt": 9697,
  "PE": 20963,
  "client": 26424,
  "Ġfright": 12466,
  "Ġskeptics": 28329,
  "ĠSHARES": 31036,
  "ĠIsraelis": 15464,
  "nm": 26128,
  "ĠFixed": 12490,
  "ñ": 171,
  "ĠHun": 6879,
  "Ġairport": 7822,
  "Ġbreakfast": 12658,
  "eny": 30089,
  "Ġsidewalks": 30503,
  "Ġcomposition": 12241,
  "Ġgenerator": 18623,
  "ĠâĨĴ": 19860,
  "ĠRaqqa": 24628,
  "nation": 25149,
  "ĠBrewers": 27100,
  "Ġglaring": 25282,
  "Ġbu": 760,
  "Ġvaccine": 11973,
  "Ġsincere": 16190,
  "Ġcollisions": 27973,
  "Ġprovincial": 12716,
  "esity": 13922,
  "Ġ^": 12135,
  "ĠScript": 17728,
  "achelor": 19533,
  "ĠOwners": 28872,
  "ĠEssex": 30435,
  "Ġremained": 5427,
  "Ġ55": 7154,
  "faced": 21253,
  "ĠMiche": 24459,
  "Ġsounds": 5149,
  "Ġ2014": 1878,
  "Ġcoord": 5719,
  "Ġide": 1237,
  "GS": 15914,
  "Ġn": 257,
  "Ġwishes": 12944,
  "Ġunconscious": 16812,
  "Wall": 30802,
  "Ġexecutive": 3649,
  "ĠAdd": 3365,
  "Ġkick": 4244,
  "Ġtouchdowns": 13630,
  "ĠWide": 22517,
  "Ġbiological": 10285,
  "ĠSacrament": 15228,
  "ĠGuns": 25761,
  "ĠNorth": 1934,
  "Ġsne": 10466,
  "Ġdisconnected": 28588,
  "Ġclust": 30257,
  "ushima": 21418,
  "ĠJennings": 23786,
  "etition": 16132,
  "Ġsadly": 18863,
  "Ġairlines": 21192,
  "Ġlodged": 26820,
  "ĠMahmoud": 25745,
  "RP": 18360,
  "astered": 29258,
  "shoot": 26875,
  "ĠMartinez": 15905,
  "Ġflame": 20209,
  "Ġ1988": 11384,
  "Ġgas": 3239,
  "ĠRev": 5751,
  "Ġgays": 21637,
  "ĠLED": 13262,
  "Facebook": 27297,
  "Ġeye": 3856,
  "ethical": 26579,
  "Ġmigration": 11792,
  "ĠBad": 8221,
  "Ġgreater": 3851,
  "ĠÏ": 12989,
  "lich": 21848,
  "Ġlying": 8798,
  "Ġdisillusion": 31027,
  "Ġprogressively": 31610,
  "Ġinquiries": 21370,
  "chnology": 23807,
  "Ġanonym": 11666,
  "ĠIran": 3061,
  "Ġviolates": 20591,
  "Ġvinegar": 30052,
  "Ġconsumption": 7316,
  "const": 10297,
  "Ġforced": 3613,
  "ob": 622,
  "Ġsocio": 19856,
  "doors": 19067,
  "Ġalarmed": 27311,
  "po": 6988,
  "paper": 19293,
  "Ġstoring": 21343,
  "designed": 26643,
  "Yeah": 14661,
  "84": 9774,
  "Ġskeptical": 14484,
  "ĠInsider": 18535,
  "tems": 23242,
  "ĠBangkok": 28039,
  "ĠMap": 10242,
  "erg": 9596,
  "Ġboyfriend": 13333,
  "Ġpicks": 9441,
  "izes": 4680,
  "Ġescort": 27543,
  "Ġhub": 11053,
  "Ġencompass": 18522,
  "Ġnight": 1619,
  "Ġhailed": 20725,
  "ĠRemember": 9780,
  "ĠFilip": 19044,
  "Ġrenegoti": 29618,
  "ĠWii": 14802,
  "Ġpopped": 20573,
  "Ġale": 25442,
  "Ġet": 2583,
  "ĠOF": 6477,
  "Ġspecialists": 20252,
  "Ġsupermarket": 21214,
  "Ġseparate": 4451,
  "Ġfin": 860,
  "Ġtrials": 9663,
  "ĠQaeda": 13672,
  "1996": 28139,
  "Ġfootball": 3397,
  "ĠGy": 18920,
  "Ġbots": 26689,
  "Ġcomplications": 18974,
  "Ġexit": 8888,
  "ÅŁ": 21260,
  "Ġsudden": 5017,
  "urp": 30414,
  "ynt": 31758,
  "arily": 2975,
  "bo": 2346,
  "ĠMovie": 16372,
  "Ġcommissioned": 16173,
  "ardi": 18413,
  "Ġintrodu": 2801,
  "pically": 18093,
  "Ġexempl": 19137,
  "valid": 12500,
  "Ġstirred": 31132,
  "Ġattacking": 8410,
  "Ġmisogyny": 29992,
  "Ġpasser": 22957,
  "Ġ1": 336,
  "Ġhaunted": 25010,
  "Ġtoys": 14422,
  "ĠDidn": 29741,
  "Ġsunlight": 18461,
  "ĠBoost": 26532,
  "Ġsymptoms": 8434,
  "astics": 22126,
  "ovie": 27687,
  "Ġpledged": 12630,
  "Ġlooks": 2964,
  "cule": 21557,
  "Ġvariant": 15774,
  "Malley": 26851,
  "Ġlines": 3819,
  "ĠÂ·": 13032,
  "appa": 23613,
  "âĢĶâĢĶâĢĶâĢĶâĢĶâĢĶâĢĶâĢĶâĢĶâĢĶâĢĶâĢĶâĢĶâĢĶâĢĶâĢĶ": 31847,
  "zech": 13709,
  "ĠMuslim": 3099,
  "nic": 6499,
  "inqu": 19862,
  "ĠACT": 23091,
  "Ġcaf": 17095,
  "Ġtechniques": 7422,
  ">>>>": 13550,
  "ĠRodrig": 12538,
  "restrial": 19878,
  "ĠDud": 28814,
  "Ġprotections": 11966,
  "Ġfive": 1649,
  "ĠSoviets": 26454,
  "den": 2445,
  "ĠRomanian": 27461,
  "Ġdwell": 20442,
  "Once": 17412,
  "Ġaff": 1481,
  "mann": 7586,
  "Ġworsh": 28280,
  "ĠFitz": 14157,
  "Ġtim": 4689,
  "ivable": 20769,
  "ĠTC": 14610,
  "ĠSandra": 26610,
  "Ġfoo": 28534,
  "SS": 6383,
  "HH": 24368,
  "Ġremarkably": 17931,
  "ĠHy": 5606,
  "Ġninth": 16318,
  "Ġvegetables": 14032,
  "ocaly": 13636,
  "ĠTicket": 24829,
  "çļ": 24873,
  "ĠRubin": 25785,
  "Ġimped": 27493,
  "vant": 4837,
  "Ġfav": 1917,
  "ĠÐ½": 15528,
  "Ġunified": 18811,
  "Very": 31430,
  "Ġshortages": 22193,
  "anoia": 26378,
  "ĠPadd": 30360,
  "Ġtapped": 19711,
  "comed": 12334,
  "Ġappropriate": 5915,
  "eches": 13839,
  "ĠIslamist": 13204,
  "ĠCincinnati": 12981,
  "Ġpoised": 18269,
  "Ġmos": 8672,
  "Ġevacuation": 22298,
  "ĠRepresentatives": 13726,
  "Ġbystand": 27470,
  "Ġreservoir": 27483,
  "Ġtam": 20478,
  "ĠRoman": 7220,
  "Ġtrek": 26534,
  "ĠDiana": 23014,
  "Ġexcel": 24900,
  "Ġsize": 2999,
  "ĠMosul": 16781,
  "ĠFree": 5215,
  "ĠRequest": 28463,
  "Ġscript": 5033,
  "Ġlineback": 12193,
  "vote": 27476,
  "akes": 1078,
  "pill": 29009,
  "47": 4885,
  "Ġroasted": 30333,
  "bered": 9506,
  "ĠFacebook": 2360,
  "Ġdubbed": 13619,
  "Ġrefuse": 10611,
  "ĠDart": 25780,
  "estones": 28535,
  "Ġstabil": 13171,
  "Ġappropriately": 19407,
  "ĠMc": 1522,
  "ĠIrvine": 30162,
  "unc": 27803,
  "aine": 5195,
  "Ġexploding": 27700,
  "Ġpodium": 20850,
  "ĠMang": 25291,
  "Ġwithheld": 28464,
  "Ġincredibly": 7301,
  "Ġsouthwest": 21714,
  "Ġstunt": 19814,
  "essler": 27705,
  "Ġblasp": 27545,
  "whel": 6185,
  "News": 11455,
  "itives": 19409,
  "side": 1488,
  "ĠMub": 22694,
  "intelligence": 26544,
  "Ġguardian": 27735,
  "ĠMoh": 7489,
  "Ġevid": 23797,
  "Ġhabits": 12720,
  "168": 24471,
  "ĠMercer": 30896,
  "Ġrelegation": 31992,
  "ĠCroat": 18131,
  "ĠApparently": 14115,
  "idental": 31044,
  "frey": 31190,
  "Ġexclusively": 10606,
  "Ġsleeping": 11579,
  "Ġconver": 6869,
  "Ġtones": 24211,
  "Ġchanged": 3254,
  "Ġsurgeries": 27314,
  "Ġroughly": 6280,
  "ĠCurrently": 11791,
  "Ġpredicting": 20245,
  "Ġsmok": 19210,
  "Ġfollows": 6105,
  "Bro": 26306,
  "Ġforgot": 17007,
  "ĠSham": 24108,
  "ushing": 15950,
  "cu": 25343,
  "Ġpredictive": 29403,
  "Ġrepeats": 29801,
  "Ġsecession": 31834,
  "Ġdepth": 6624,
  "ĠUniversal": 13044,
  "Ġpatents": 16905,
  "ĠBronze": 28252,
  "ĠHeath": 20567,
  "ĠLine": 8491,
  "opathy": 28153,
  "ĠPhilippe": 30132,
  "Ġlesson": 10355,
  "gel": 13585,
  "erting": 15508,
  "lasting": 27034,
  "ĠKR": 27477,
  "ĠTF": 31824,
  "âĢĿ;": 19442,
  "Ġmater": 26116,
  "ĠDarkness": 26861,
  "Ġanime": 13542,
  "ĠRAF": 28781,
  "ĠClause": 30722,
  "aled": 2765,
  "Ġunint": 16850,
  "ĠATM": 27977,
  "Ġhandy": 15342,
  "nton": 22941,
  "onents": 3792,
  "Europe": 17462,
  "Ġdeserved": 17345,
  "Ġbrigade": 28865,
  "ĠHunter": 11460,
  "Ġescapes": 31690,
  "Ġcounter": 3466,
  "Ġinfrastructure": 5383,
  "Ġretained": 16299,
  "Ġmisunder": 15574,
  "price": 24784,
  "Ġworldwide": 7208,
  "ĠMurd": 16634,
  "Ġprocess": 1352,
  "uf": 3131,
  "Ġok": 7458,
  "Ġslim": 16903,
  "ĠPiet": 30022,
  "Ġspeed": 3054,
  "Ġquery": 14118,
  "ĠEdinburgh": 19199,
  "Ġsupervisor": 19837,
  "Ġcompletion": 12436,
  "Ġlob": 5266,
  "ĠAng": 2814,
  "Ġmachinery": 19021,
  "partisan": 20938,
  "inav": 23772,
  "usive": 8054,
  "Ġjudicial": 12517,
  "era": 7510,
  "quin": 22077,
  "Ġneighbour": 8339,
  "Ġintensified": 25560,
  "enny": 8205,
  "esteem": 28234,
  "Ġspells": 14901,
  "Ġgalaxy": 15249,
  "ĠIS": 2901,
  "Ġevil": 6957,
  "Ġqualified": 10911,
  "Ġparticipation": 9689,
  "ĠfÃ¼r": 30202,
  "ickey": 31964,
  "Ġshortstop": 29667,
  "cember": 2905,
  "uber": 18880,
  "Ġtheor": 15701,
  "unks": 15339,
  "Ġconform": 17938,
  "ĠPublishing": 22876,
  "Ġappoint": 5252,
  "ĠTech": 9116,
  "Ġhates": 23019,
  "Ġtell": 1477,
  "ERS": 6086,
  "ĠBEL": 28972,
  "ĠExplorer": 20223,
  "ĠAIDS": 18424,
  "Ġridic": 7840,
  "kit": 17801,
  "adan": 23948,
  "ining": 3151,
  "Ġtrillion": 9593,
  "Ġscul": 13518,
  "constitutional": 14958,
  "ĠTitle": 13308,
  "ĠGary": 9167,
  "Ġregistry": 22401,
  "ick": 616,
  "Ġpilgr": 22744,
  "Ġsponsored": 13381,
  "aley": 13648,
  "riages": 15058,
  "Ġsimplified": 24944,
  "Ġworkflow": 27207,
  "ĠRapids": 22159,
  "Ġcourtesy": 10903,
  "Ġherb": 20593,
  "ness": 1125,
  "attered": 10674,
  "ĠâĢ¦": 3197,
  "Ġswelling": 31195,
  "ĠGoldberg": 22869,
  "roleum": 18732,
  "ror": 1515,
  "Ġpending": 11846,
  "Ġthrew": 8811,
  "Ġfol": 5244,
  "Ġpatriotic": 26466,
  "ĠBannon": 14619,
  "ares": 3699,
  "Ġsmaller": 4593,
  "Ġallies": 6896,
  "Hy": 29416,
  "Ġwillingness": 13634,
  "nergy": 5946,
  "Ġrelie": 11667,
  "ĠAllah": 16024,
  "Obviously": 23359,
  "wit": 1383,
  "Ġpotato": 20277,
  "Ġpope": 21334,
  "avoid": 25497,
  "ĠMob": 16553,
  "ĠSas": 26674,
  "AMP": 26803,
  "Ġrenovation": 28361,
  "ĠDonna": 24494,
  "...": 1437,
  "Ġchoices": 7136,
  "Ġof": 243,
  "Ġdepos": 12069,
  "Ġlogging": 18819,
  "Ġdisproportionately": 23058,
  "Ġste": 2277,
  "Ġinnovation": 8769,
  "Ġsex": 1694,
  "Ġregrets": 25873,
  "standing": 5489,
  "ĠAJ": 24612,
  "Ġannounces": 24699,
  "Ġ00": 7882,
  "Ġmasculine": 26265,
  "Ġfiref": 13251,
  "ptive": 25424,
  "Ġthan": 558,
  "led": 973,
  "lower": 24615,
  "Ġcommence": 25923,
  "Item": 23942,
  "zen": 4516,
  "ously": 3260,
  "ĠDemon": 27148,
  "ĠJudge": 7467,
  "Ġproportions": 22350,
  "Ġpleading": 27876,
  "geon": 8593,
  "aman": 12077,
  "ĠRin": 29274,
  "Ġupcoming": 6620,
  "Ġendanger": 29021,
  "Ġpunishment": 9926,
  "Ġphot": 1944,
  "Ġ600": 10364,
  "ĠDelaware": 17281,
  "ĠAzer": 21347,
  "ĠEisenhower": 26855,
  "omen": 3468,
  "Ġcloser": 5181,
  "ĠBenj": 11529,
  "Ġreversed": 16509,
  "ĠInvestors": 29818,
  "Ġcircumstances": 6483,
  "Ġoccupation": 11417,
  "gen": 3992,
  "entials": 14292,
  "Ġcommodities": 21884,
  "Ġgradient": 31585,
  "Ġculp": 18152,
  "bird": 19061,
  "Ġblogging": 30357,
  "ĠPortland": 8790,
  "ĠNOR": 26275,
  "Ġservants": 18498,
  "ĠCarbon": 22896,
  "Ġvon": 13809,
  "..........": 26990,
  "ĠUSA": 5130,
  "Ġdod": 19897,
  "},": 17939,
  "ĠTransit": 18622,
  "Ġcolorful": 19063,
  "ĠKor": 14594,
  "iasm": 13573,
  "ĠAverage": 16184,
  "Ġarrogance": 29181,
  "Ġsecurity": 1967,
  "Ġsending": 6729,
  "ressing": 10947,
  "ĠClassic": 14710,
  "Ġnumber": 1244,
  "Ġestablishing": 13640,
  "Ġthing": 1398,
  "ĠWhich": 6953,
  "bag": 20430,
  "ĠIrish": 6995,
  "Ġcorrection": 17921,
  "igel": 18621,
  "opoulos": 17486,
  "Ġdistant": 12272,
  "Ġtwent": 19455,
  "ĠSuarez": 28173,
  "Ġblank": 9707,
  "Ġstrategically": 27514,
  "Start": 25911,
  "ĠIII": 8108,
  "Ġmilitar": 21435,
  "System": 28615,
  "ington": 8791,
  "ĠSciences": 13236,
  "imm": 8304,
  "fun": 19597,
  "ĠSSD": 23052,
  "ĠWordPress": 17854,
  "ĠXML": 28025,
  "Ġaccompl": 5928,
  "Ġsolution": 4229,
  "van": 9711,
  "ĠJe": 2728,
  "ĠLower": 15872,
  "Ġproducer": 7929,
  "ĠBarnes": 17509,
  "ĠTownship": 26117,
  "ĠSaturday": 3141,
  "ĠBomb": 16262,
  "Ġhypoc": 16332,
  "ls": 7810,
  "Ġdrowned": 27474,
  "Ġround": 2857,
  "Ġveil": 29397,
  "Ġcomprehend": 25104,
  "ĠWyoming": 20944,
  "iable": 3620,
  "Those": 17319,
  "ĠAutom": 17504,
  "Ġpir": 12929,
  "Ġsanctions": 7668,
  "ĠGuild": 18565,
  "Ġantit": 21977,
  "Ġhob": 30455,
  "ĠMald": 30877,
  "Ġbod": 18190,
  "Ġthinner": 29458,
  "ĠExclusive": 31962,
  "gmail": 19046,
  "Ġretire": 6858,
  "Ġhips": 27542,
  "ĠMeaning": 30758,
  "minded": 12276,
  "Ġpredatory": 29160,
  "Ġthwart": 20414,
  "Ġannoyed": 25097,
  "Read": 14884,
  "Ġdrawings": 21587,
  "Model": 27907,
  "ĠDeputy": 12175,
  "ĠTeam": 4718,
  "Ġlooting": 31776,
  "Ġcolleg": 11135,
  "spir": 24867,
  "Ġprocessed": 14523,
  "Ġadministration": 2845,
  "Ġmic": 8674,
  "Ġmicrow": 23686,
  "Ġflow": 5316,
  "Ġdiscomfort": 22674,
  "Ġignorance": 15707,
  "http": 9460,
  "Ġprev": 1313,
  "ĠLau": 26853,
  "upon": 29796,
  "ib": 544,
  "Ġchose": 6875,
  "Ġfail": 1751,
  "Ġkidding": 23690,
  "aling": 3593,
  "compet": 22389,
  "Ġnonsense": 15961,
  "ĠLenin": 21444,
  "Ġdisclose": 14225,
  "lude": 13699,
  "ĠPD": 9014,
  "Ġposing": 20102,
  "ĠJesse": 15057,
  "Ġcontemporary": 10231,
  "umped": 21598,
  "Ġslee": 16126,
  "Ġearners": 28458,
  "pty": 6259,
  "Game": 19662,
  "Ġrevenue": 5525,
  "Ġif": 601,
  "ĠCounsel": 21288,
  "ĠPremier": 7737,
  "Ġgrandson": 26753,
  "Ġwond": 3051,
  "Ġpissed": 26538,
  "ĠFors": 28415,
  "SQL": 19254,
  "Ġad": 471,
  "ĠFall": 8634,
  "Ġsouls": 18394,
  "Ġdebt": 4183,
  "ĠFederal": 5177,
  "Ġactivists": 5981,
  "Ġanth": 21377,
  "Ġpractically": 13947,
  "rone": 14617,
  "ĠGL": 18223,
  "ĠMulc": 28962,
  "ĠSpr": 5212,
  "Ġbasement": 15902,
  "Ġguide": 6549,
  "].": 5075,
  "Ġprioritize": 27015,
  "els": 1487,
  "pecially": 2145,
  "Ġrunaway": 31256,
  "Ġanten": 18384,
  "ider": 1472,
  "Ġthr": 5538,
  "Ġpr": 668,
  "Ġcue": 26458,
  "aze": 6650,
  "base": 9747,
  "hh": 16823,
  "Ġvirtues": 26206,
  "ĠFeder": 28717,
  "Ġmanner": 6565,
  "Ġbackbone": 27108,
  "Ġconv": 2093,
  "malink": 25075,
  "demand": 24783,
  "Ġbriefly": 10624,
  "Ġpne": 24270,
  "Ġhiring": 10761,
  "arse": 16660,
  "apsed": 31836,
  "ĠField": 7815,
  "Ġsuperficial": 28644,
  "ĠSug": 16714,
  "su": 18004,
  "Ġumb": 18429,
  "Ġstr": 932,
  "Ġreconcile": 28618,
  "ĠNicholas": 16900,
  "information": 15767,
  "Ġcynical": 22051,
  "onomy": 29601,
  "Ġreserve": 11531,
  "ĠNorwe": 16919,
  "Ġhistorian": 14195,
  "ĠPCs": 19492,
  "Ġperpetual": 26352,
  "ĠVeter": 13093,
  "Ġsupervision": 20965,
  "Ġside": 1671,
  "Ġmimic": 24167,
  "caster": 30134,
  "Ġcone": 30319,
  "ĠContest": 28666,
  "stem": 906,
  "Ġtropical": 17103,
  "ĠShares": 22568,
  "Ġmerging": 31589,
  "Ġrestrained": 30687,
  "Ġdug": 17002,
  "Ġdisplaying": 19502,
  "TP": 9722,
  "ĠFle": 11093,
  "reed": 1866,
  "Ġgro": 7358,
  "eless": 5099,
  "Ġ175": 23276,
  "Ġfacts": 6055,
  "ĠNoah": 16958,
  "ĠIndianapolis": 15498,
  "ĠIcon": 31126,
  "Ġsurplus": 16705,
  "Ġbatting": 18691,
  "Ġencoun": 5697,
  "ĠCorrect": 21305,
  "Ġpundits": 21446,
  "Ġcultivated": 28160,
  "Ġpartisans": 30559,
  "ĠHist": 5336,
  "Ġupdating": 19753,
  "RA": 4984,
  "akin": 27159,
  "Ġfarmer": 16349,
  "Ġtourists": 12788,
  "cery": 31140,
  "ĠâĢ¢": 3772,
  "Ġdisband": 29659,
  "mia": 22255,
  "ĠPope": 10453,
  "Do": 8732,
  "usterity": 14845,
  "ĠItems": 28938,
  "Ġlowering": 19994,
  "Get": 5638,
  "Ġsilence": 9430,
  "umper": 17451,
  "Ġdue": 2146,
  "charging": 30784,
  "rians": 16685,
  "ixed": 8775,
  "Ġparental": 21100,
  "ilitary": 18221,
  "ting": 740,
  "der": 1112,
  "Ġjust": 588,
  "energy": 18466,
  "aida": 23570,
  "itions": 1795,
  "Ġdesign": 1411,
  "Ġrhet": 8735,
  "Ġrook": 8514,
  "Ġdisintegr": 27612,
  "ĠPartnership": 19740,
  "ĠMove": 10054,
  "Ġdisproportion": 15884,
  "whelming": 31025,
  "liter": 16123,
  "checked": 25542,
  "Ġvoluntary": 15402,
  "entions": 14858,
  "Ġnoise": 8368,
  "rehend": 24520,
  "Ġtable": 3222,
  "Ġspan": 10204,
  "Ġvideo": 1783,
  "14": 2199,
  "azi": 6704,
  "udes": 8124,
  "ĠZimmer": 15468,
  "Ġdepri": 15178,
  "ĠFallon": 28246,
  "open": 12007,
  "ĠWinn": 14947,
  "Ġoffspring": 20853,
  "Ġpositioning": 19805,
  "ĠMarijuana": 20919,
  "oit": 21358,
  "jav": 30921,
  "ó": 173,
  "ĠCounter": 16029,
  "buck": 27723,
  "ĠPelosi": 18081,
  "------------": 24247,
  "ĠCardiff": 24356,
  "Ġthankfully": 30820,
  "ĠNazis": 16320,
  "ĠBoo": 30422,
  "Ġwarned": 6084,
  "Ġcompetitive": 6525,
  "Ġclim": 5263,
  "Ġstrains": 20082,
  "ĠJPM": 26781,
  "ahn": 14588,
  "ĠLegend": 13813,
  "aware": 8911,
  "36": 4452,
  "iology": 13959,
  "Ġinh": 26668,
  "Ġwhite": 2343,
  "ĠÄ": 29126,
  "ots": 1670,
  "alled": 2994,
  "ĠRam": 6046,
  "ĠReply": 20270,
  "Ġdriver": 4587,
  "Ġcatast": 11799,
  "Ġlemon": 20503,
  "Ġgrey": 14437,
  "nia": 16833,
  "Ġsort": 3084,
  "Ġbachelor": 26796,
  "ĠSchwarz": 26581,
  "html": 9454,
  "Ġbombing": 10801,
  "ĠRos": 7694,
  "Ġawkward": 12092,
  "ĠBachmann": 26317,
  "ĠPic": 15725,
  "ĠPain": 19065,
  "Ġreflect": 3953,
  "Ġowners": 3920,
  "ĠDoes": 7543,
  "Ġpersonality": 8664,
  "Ġspectacle": 22376,
  "Ġsimplify": 26926,
  "otto": 31312,
  "ĠDob": 23903,
  "ĠValent": 16732,
  "Ġreasonably": 14507,
  "ĠMemphis": 17708,
  "Ġfranchises": 21561,
  "Ġcaps": 10845,
  "Whe": 20577,
  "ĠAntarctica": 23752,
  "Ġconcur": 17864,
  "etus": 26036,
  "Ġlurking": 31699,
  "Ġplant": 3995,
  "Ġprojected": 11358,
  "ĠPyr": 23021,
  "ruary": 3127,
  "Ġnormal": 3908,
  "ĠLinked": 14384,
  "mons": 11042,
  "Ġhistor": 3240,
  "Ġpresented": 5259,
  "Ġoutdated": 20628,
  "ĠThese": 2027,
  "atch": 978,
  "ĠQuad": 25826,
  "Ġcomparison": 7031,
  "Ġforests": 14940,
  "ĠSuff": 22351,
  "Ġpops": 25416,
  ".\")": 30745,
  "Ġbedroom": 14383,
  "eed": 3340,
  "Ġweeks": 2381,
  "Ġdiabetes": 13781,
  "ĠWilliamson": 27326,
  "ĠCatch": 27492,
  "ĠTray": 29065,
  "Ġgeop": 22609,
  "Ġpattern": 4173,
  "Â·": 18838,
  "Ġmemorial": 14235,
  "Ġ01": 11716,
  "ĠAnthony": 7957,
  "ĠIslands": 12866,
  "Ġoz": 22429,
  "ĠChristina": 27013,
  "ĠAdmir": 20702,
  "Ġphysical": 3653,
  "ĠTop": 5264,
  "Ġgenerally": 4282,
  "Ġapology": 13983,
  "orus": 14966,
  "ession": 2930,
  "Ġoutdoor": 14334,
  "Ġwatchdog": 18419,
  "ĠFair": 7671,
  "ĠFind": 10162,
  "Ġconjunction": 18529,
  "Ġlisten": 5594,
  "Ġskepticism": 19919,
  "ĠRW": 27823,
  "ĠIdent": 15414,
  "Ġdoor": 3748,
  "Ġbirth": 4039,
  "enes": 18576,
  "Ġshine": 18140,
  "redit": 6981,
  "Ġjudgement": 21140,
  "Ġfuneral": 13260,
  "operation": 24527,
  "Ġlogic": 8479,
  "Ġinv": 728,
  "self": 937,
  "reaching": 24946,
  "Ġsteer": 22962,
  "vial": 16309,
  "Ġhacker": 18932,
  "Ġunf": 3437,
  "ĠSurv": 14631,
  "ĠPett": 29598,
  "Ġrepercussions": 27008,
  "Ġreplication": 31705,
  "Ġprivate": 2568,
  "Ġparameters": 11703,
  "Ġbrands": 10700,
  "Ġthreaten": 13531,
  "Ġtoilet": 15344,
  "Ġpollut": 29568,
  "ĠMaz": 18153,
  "Ġmoved": 3497,
  "Ġguid": 10402,
  "generated": 28402,
  "Ġavoidance": 27845,
  "Ġ64": 7370,
  "INAL": 28648,
  "ĠProsecut": 16013,
  "ĠCorner": 25174,
  "Ġbiod": 24868,
  "ĠKiev": 17978,
  "andro": 23274,
  "ĠIntelligence": 8620,
  "Ġpumpkin": 28877,
  "ual": 703,
  "Ġillust": 6347,
  "Ġdrawn": 7145,
  "Ġintegrity": 10462,
  "ĠHin": 31343,
  "Ġicons": 17156,
  "Ġplacement": 16423,
  "fitting": 30914,
  "Ġstatus": 3914,
  "Ġterrestrial": 30729,
  "Ġneoc": 21911,
  "ãĢį": 31289,
  "Ġhooked": 21194,
  "Ġdisable": 21668,
  "FT": 15246,
  "Ġcautioned": 26485,
  "ĠAustralia": 3665,
  "Best": 25335,
  "Ġspree": 30117,
  "Ġenvisioned": 24469,
  "Ġlimit": 4360,
  "ĠNonetheless": 18101,
  "ĠEh": 27377,
  "Ġlayout": 13376,
  "hal": 13299,
  "Ġnon": 1741,
  "Ġministry": 9665,
  "Ġscored": 6242,
  "Ġextortion": 30670,
  "Ġstraight": 3838,
  "tarian": 10842,
  "âĶĢâĶĢâĶĢâĶĢ": 20114,
  "ifies": 7684,
  "003": 21902,
  "Ġrespiratory": 23915,
  "gt": 12408,
  "ĠChurchill": 21366,
  "ĠGareth": 30285,
  "Ġtransgender": 8275,
  "Ġmarches": 28887,
  ".[": 1042,
  "ĠMonsters": 29596,
  "Ġsway": 18361,
  "ĠThornton": 28099,
  "ĠNaval": 18312,
  "ASH": 11728,
  "Ġgems": 24927,
  "ĠGalaxy": 8954,
  "Cl": 6592,
  "ĠSgt": 17274,
  "Ġreperc": 25996,
  "Ġadulthood": 26262,
  "Ġundes": 26384,
  "Ġascend": 29579,
  "ULT": 28435,
  "Ġdamages": 13249,
  "Ġdeduct": 21477,
  "ĠPayne": 26368,
  "Ġfreezing": 20039,
  "Ġvisibly": 27530,
  "Ġ....": 26111,
  "Associated": 31867,
  "car": 7297,
  "Ġmodify": 15585,
  "Ġballoon": 18982,
  "ĠSomehow": 28224,
  "Ġcod": 13646,
  "Ġaccountability": 14350,
  "Ġbeverages": 25993,
  "Ġunsc": 25537,
  "ĠMos": 5019,
  "Ġheat": 5231,
  "Ġimperative": 20147,
  "Ġbeta": 11329,
  "Ġfetish": 31605,
  "Ġliabilities": 29648,
  "ĠBeatles": 20629,
  "Ġmoist": 16813,
  "ĠPierce": 20859,
  "ĠMelissa": 21147,
  "ĠHunts": 25267,
  "Ġdemocracy": 6204,
  "Ġultra": 13417,
  "Ġuser": 3245,
  "Ġdrastic": 21830,
  "ĠTerritory": 28723,
  "ĠIraq": 3109,
  "Ġmot": 2336,
  "sein": 16070,
  "itive": 1732,
  "tank": 25235,
  "Ġmidterm": 30656,
  "Ġpand": 20142,
  "ãĥ³": 23301,
  "Ġencounter": 9336,
  "enge": 3310,
  "Ġaccuse": 20418,
  "Cr": 23029,
  "Ġhierarchy": 17401,
  "Ġrumored": 23123,
  "Ġraided": 23323,
  "ĠFoot": 7276,
  "essors": 19808,
  "ĠWeaver": 23715,
  "Ġfoes": 24473,
  "ĠJeep": 31826,
  "Super": 20337,
  "Ġsilk": 26104,
  "metric": 27981,
  "ĠChanging": 28795,
  "ĠTo": 1458,
  "ĠLeaf": 13142,
  "inh": 25298,
  "ĠEPA": 10069,
  "Ġillegally": 12326,
  "Ġft": 12907,
  "!!": 4706,
  "Ġgraduation": 19359,
  "ĠTherefore": 9250,
  "lets": 5294,
  "ĠTok": 9510,
  "atory": 2903,
  "Ġsky": 6763,
  "|>\"": 19172,
  "ĠNFL": 4246,
  "ĠBrend": 15060,
  "EE": 9061,
  "Ġhomosexual": 10140,
  "Ġrecharge": 30905,
  "Ġregulation": 8398,
  "ĠWeapons": 24824,
  "Ġphysic": 17329,
  "ĠShell": 17604,
  "sc": 1495,
  "Ġpolitical": 1519,
  "Ġsh": 390,
  "adder": 30322,
  "Ġsympathetic": 18837,
  "ĠIrving": 20563,
  "Ġspeculated": 22736,
  "Ġtorture": 9406,
  "?!": 14877,
  "UG": 17582,
  "Ġinterpreter": 26801,
  "pper": 3287,
  "Ġmeanings": 27989,
  "Ġshr": 8622,
  "ĠðŁ": 13007,
  "Ġtherapies": 26664,
  "Ġflare": 29389,
  "Ġkidney": 21610,
  "Ġvalidation": 21408,
  "Ġcalls": 3356,
  "ward": 850,
  "Ġcooler": 18945,
  "leader": 24977,
  "really": 24348,
  "Ġupset": 8018,
  "ĠImper": 12879,
  "ĠFla": 17997,
  "Ġapart": 5197,
  "ĠFX": 21013,
  "month": 7592,
  "ĠRamirez": 25843,
  "floor": 26685,
  "ĠDisplay": 21465,
  "ows": 1942,
  "ĠCele": 17506,
  "ĠDota": 27916,
  "Ġwhales": 18356,
  "200": 3128,
  "Ġplot": 6291,
  "ĠThompson": 9569,
  "Ġneurons": 15106,
  "ĠISIS": 6069,
  "ĠBoy": 6146,
  "ĠMMA": 13881,
  "Ĥ¬": 6056,
  "he": 214,
  "ãĤĮ": 27838,
  "ĠInspector": 21777,
  "assium": 30443,
  "Ġsubscribers": 15019,
  "Ġmarching": 21881,
  "Ġsupplied": 15513,
  "select": 21098,
  "Ġpossessed": 20251,
  "Ġcontenders": 21429,
  "Ġdownright": 25768,
  "Ġcompile": 18530,
  "Ġoutcome": 7230,
  "ĠOff": 2482,
  "Ġwatch": 2160,
  "Ġhomage": 25958,
  "Ġpeas": 23181,
  "Ġcalculations": 16348,
  "Ġemerging": 9629,
  "ĠGrow": 30558,
  "Ġsolic": 19376,
  "Ġwives": 18102,
  "ĠSantos": 21822,
  "ĠEquip": 29756,
  "apse": 6837,
  "ĠDy": 21306,
  "Ġstrained": 26735,
  "Ġmer": 4043,
  "Ġes": 1539,
  "ĠMem": 5219,
  "flight": 19487,
  ".'âĢĿ": 29931,
  "Ġ1981": 13478,
  "Ġshines": 31194,
  "Ġslowdown": 26122,
  "letes": 31334,
  "Ġamazing": 4972,
  "Ġrom": 8877,
  "1989": 31456,
  "ĠCron": 26782,
  "Ġpetitions": 26868,
  "ĠExt": 7740,
  "Ġarrange": 7961,
  "Ġurges": 22930,
  "ĠCedar": 30314,
  "Ġcentury": 3596,
  "ĠLamb": 18337,
  "ĠOften": 15521,
  "Ġofferings": 16496,
  "Fi": 10396,
  "ĠShooting": 28647,
  "Ġhurricanes": 31249,
  "ĠAW": 20437,
  "rastructure": 5138,
  "Ġsustained": 11350,
  "Min": 20180,
  "ĠScientists": 14545,
  "ĠFlood": 26360,
  "Ġgovernance": 14364,
  "Ġdrum": 11395,
  "Ġlocate": 17686,
  "Ġuses": 3741,
  "ĠAssessment": 28158,
  "zo": 13586,
  "Ġnicknamed": 28291,
  "Ġpee": 31695,
  "62": 9155,
  "ĠRevenue": 20717,
  "ga": 4529,
  "ĠUganda": 23714,
  "Ġbands": 10496,
  "Ġaired": 13266,
  "ÑĮ": 13734,
  "Ġdealing": 6718,
  "ĠFres": 28500,
  "income": 10701,
  "ĠElementary": 20459,
  "anger": 2527,
  "Ġalt": 6186,
  "ĠOver": 3423,
  "Ġsurprises": 20514,
  "ĠLieutenant": 21967,
  "Ġtorn": 11359,
  "ĠLeafs": 17932,
  "Ġgoogle": 28150,
  "âĢĲ": 10145,
  "ĠKlan": 26199,
  "oper": 3358,
  "Ġclose": 1816,
  "ĠWH": 7880,
  "Ġcontempor": 30432,
  "ĠCopenhagen": 22883,
  "Ġscent": 26440,
  "azis": 30592,
  "ter": 305,
  "Ġremark": 6156,
  "crib": 9031,
  "??": 9621,
  "Ġstudies": 3860,
  "Ġost": 15730,
  "Ġoverview": 17766,
  "Ġmaintain": 3316,
  "Ġtransformed": 13215,
  "Ġrefrain": 22291,
  "Ġbureaucrat": 14732,
  "Ġcoordinates": 24601,
  "isons": 9156,
  "astically": 13429,
  "imer": 17917,
  "Ġdared": 28315,
  "Ġpursuing": 12925,
  "ĠAs": 736,
  "ĠRelated": 7915,
  "esis": 13061,
  "Ġcried": 19084,
  "Ġantibodies": 29829,
  "Ċ": 175,
  "Ġseminal": 31739,
  "Ġgunshot": 24210,
  "ĠMySQL": 30096,
  "Ġinsider": 19821,
  "ĠCars": 10544,
  "Ġdifferent": 1135,
  "Ġharder": 6450,
  "ĠWolves": 24534,
  "ĠWatching": 26975,
  "backed": 13026,
  "Ġprejud": 14453,
  "Ġsentencing": 17795,
  "Ġstrategy": 4107,
  "actively": 28184,
  "log": 7852,
  "pensive": 22571,
  "ARS": 24192,
  "Ġsavage": 28331,
  "ãģ¦": 19639,
  "Ġequival": 6923,
  "ifts": 23629,
  "ĠEarlier": 8335,
  "Ġfeminists": 19107,
  "Ġcustomers": 3760,
  "grad": 10570,
  "ĠPast": 13827,
  "Ġseems": 2142,
  "Ġtablets": 14992,
  "under": 5325,
  "Ġexemption": 19650,
  "Ġcommanded": 24709,
  "nedy": 8231,
  "Ġlips": 16725,
  "Ġterms": 2719,
  "Ġstories": 3236,
  "ĠMarin": 18111,
  "ĠVolt": 30752,
  "Ġdietary": 19716,
  "berra": 25927,
  "Ġdepressed": 17952,
  "ĠHousing": 16848,
  "arette": 14382,
  "Ġhour": 1691,
  "Ġrejecting": 21585,
  "icut": 12514,
  "own": 557,
  "Ġemperor": 25050,
  "ĠClaud": 25475,
  "Ġ=": 1353,
  "Ġprisons": 15664,
  "han": 8720,
  "String": 15831,
  "Ġtwists": 28267,
  "ĠVirginia": 5300,
  "LI": 31434,
  "Ġbeh": 1273,
  "ĠRal": 16065,
  "ĠPatrol": 18636,
  "ĠHands": 25834,
  "sector": 27268,
  "Ġcompassionate": 27594,
  "ĠErnst": 29173,
  "growth": 25957,
  "ĠBeck": 8826,
  "Ġmanage": 6342,
  "27": 3624,
  "Ġintense": 7589,
  "ĠAvengers": 19050,
  "ĠUl": 17246,
  "ĠPhilly": 25178,
  "Ġcontro": 1216,
  "Ġraw": 8251,
  "ĠFactory": 22226,
  "att": 2232,
  "Ġburglary": 28582,
  "prot": 28069,
  "Ġjava": 29879,
  "Ġgame": 895,
  "ps": 1925,
  "ĠHait": 15247,
  "iban": 10206,
  "ĠHammond": 21352,
  "ĠDevon": 30302,
  "ĠPath": 14873,
  "Ġposter": 11286,
  "Ġaffair": 12585,
  "ĠHolder": 17668,
  "itarian": 6936,
  "Ġresulting": 7201,
  "En": 11734,
  "Ġdaylight": 24807,
  "odor": 27077,
  "Ġdocumented": 11409,
  "Ġsculpt": 14827,
  "Ġshortcomings": 25714,
  "Ġprojections": 16947,
  "Ġscor": 28042,
  "Ġpride": 10565,
  "imp": 7378,
  "Ġbetrayed": 25179,
  "Ġtalents": 16546,
  "Ġhospitality": 29815,
  "Ġworth": 2674,
  "gus": 9845,
  "Ġmaze": 29496,
  "war": 5458,
  "cient": 4775,
  "ĠHon": 8411,
  "Ġdesigners": 12623,
  "Ġexhibited": 23204,
  "Ġsworn": 19207,
  "iya": 21469,
  "ĠTraffic": 23273,
  "part": 3807,
  "Ġdismantle": 29247,
  "ennis": 9234,
  "Ġcolour": 10125,
  "2012": 11566,
  "Ġaest": 12979,
  "World": 14535,
  "Ġalumin": 15313,
  "ĠWilliam": 3371,
  "ovic": 14220,
  "ĠGranted": 28020,
  "annels": 8726,
  "Ġsto": 3795,
  "iph": 13339,
  "Ġcooking": 11334,
  "icle": 1596,
  "fat": 23218,
  "ĠIG": 15103,
  "Ġfaction": 17698,
  "Ġreligious": 3669,
  "Ġinfilt": 16880,
  "Ġuranium": 17261,
  "Ġnin": 9753,
  "ĠBobby": 14128,
  "ĠVel": 18078,
  "ĠHead": 7858,
  "ĠKC": 22469,
  "occ": 13644,
  "ebus": 26730,
  "ĠRove": 27671,
  "Tube": 5990,
  "Ġreplay": 22839,
  "Jeff": 29090,
  "Ġresearcher": 10838,
  "Ġboarded": 28950,
  "Ġillustration": 19596,
  "matic": 12242,
  "ikh": 10400,
  "iox": 11419,
  "Ġvind": 24919,
  "Ġlesbians": 28088,
  "ĠInvestigators": 19925,
  "Ġmainland": 18763,
  "2019": 29042,
  "Ġeach": 1173,
  "Ġtying": 24625,
  "Ġfont": 12851,
  "param": 27534,
  "Ġsnacks": 26925,
  "Ġsix": 1906,
  "Ġowns": 10307,
  "Ġcommodity": 16986,
  "Ġfed": 11378,
  "anga": 21960,
  "Ġdistingu": 9503,
  "Ġshortfall": 31369,
  "Ġnic": 9730,
  "Ġbuoy": 30429,
  "can": 5833,
  "Ġresur": 12343,
  "agging": 14413,
  "Ġjurisdiction": 15017,
  "Ġpaste": 18151,
  "film": 24790,
  "Ġ3000": 24197,
  "ĠLawyers": 28384,
  "ducted": 20344,
  "Ġrepresenting": 8968,
  "ĠNova": 17754,
  "Ġmethodology": 19164,
  "ĠBlocked": 22637,
  "Ġhars": 30183,
  "ĠUg": 19213,
  "rier": 5502,
  "Ġrapid": 5343,
  "Ġbliss": 30120,
  "Ġtotals": 22771,
  "OS": 3037,
  "ĠSally": 22481,
  "APP": 26939,
  "ĠBI": 25525,
  "eking": 18263,
  "Ġopera": 20674,
  "Ġdoubles": 20806,
  "+,": 29438,
  "Ġgonna": 7984,
  "VR": 15729,
  "itals": 7491,
  "store": 12954,
  "enter": 9384,
  "Ġtile": 25374,
  "ĠGener": 3178,
  "ç": 161,
  "mir": 10197,
  "ĠEmer": 10699,
  "roud": 5189,
  "Ġslightest": 25449,
  "Ġclearing": 17150,
  "ĠTuesday": 2633,
  "Ġalways": 1388,
  "2009": 14472,
  "addafi": 17735,
  "Ġguides": 18329,
  "Ġluc": 14431,
  "Ġnovelty": 26561,
  "Ġpent": 21132,
  "ĠMonument": 28753,
  "uv": 14084,
  "Ġregulators": 12951,
  "ĠAnton": 8064,
  "Ġresearchers": 3948,
  "ĠFriends": 12539,
  "lesh": 11989,
  "Ġvolumes": 14223,
  "Ġpostseason": 16955,
  "Ġschizophrenia": 22823,
  "Ġbattled": 26351,
  "igg": 7738,
  "Ġspecialist": 13774,
  "ĠPolitico": 18296,
  "Ġcas": 5453,
  "Ġcurved": 27412,
  "Which": 30719,
  "Ġshortly": 7683,
  "enabled": 26648,
  "reprene": 8581,
  "Ġcops": 11429,
  "Ġmenace": 30971,
  "ases": 1401,
  "Ġheaven": 12339,
  "rd": 4955,
  "obil": 23593,
  "ĠRE": 5185,
  "Ġproceeds": 16433,
  "Ġhold": 1749,
  "Ġarrests": 11592,
  "abase": 22121,
  "Craft": 22656,
  "\\)": 29549,
  "arth": 2259,
  "^{": 20622,
  "Ġphotograph": 7702,
  "ensity": 6762,
  "Ġpurpose": 4437,
  "Ġatoms": 20658,
  "Ġsche": 3612,
  "Ġwash": 15174,
  "Ġpromising": 9535,
  "ĠJud": 4386,
  "Ġoutbreak": 13978,
  "ensing": 31521,
  "ĠÃ©": 20744,
  "Ġmemory": 4236,
  "rett": 7067,
  "source": 13435,
  "ĠLuis": 15790,
  "holder": 14697,
  "ĠACA": 23197,
  "Ġseismic": 31012,
  "unless": 27333,
  "cess": 934,
  "chron": 12052,
  "Ġurging": 13335,
  "ĠRichardson": 17123,
  "elled": 17763,
  "ĠSachs": 18527,
  "Ġreluctant": 15376,
  "Ġsatisfy": 16749,
  "Ġculturally": 25199,
  "Ġlike": 518,
  "Ġbog": 18540,
  "ĠBravo": 31654,
  "Ġcover": 2886,
  "Ġpraying": 23573,
  "ĠMurder": 26197,
  "llo": 13202,
  "ĠHannah": 22456,
  "Ð²": 12639,
  "Ġshoulder": 8703,
  "counter": 22367,
  "Ġannounced": 2580,
  "ĠSteve": 5160,
  "ĠProf": 4445,
  "Ġbeyond": 3382,
  "Ġexpressions": 15422,
  "inton": 1899,
  "ĠWait": 15477,
  "Ġpreparing": 9306,
  "ĠBillboard": 22690,
  "icks": 3274,
  "Ġshooter": 12098,
  "Ġsacrificing": 30157,
  "Ġvegetation": 26598,
  "Ġexchange": 4908,
  "Ġmine": 6509,
  "Ġgather": 5926,
  "ĠChes": 23848,
  "Ġnationality": 27676,
  "Ġcoh": 18762,
  "Ġpressure": 3488,
  "Ġautonom": 9523,
  "intern": 25936,
  "Ġmemo": 9757,
  "ĠUb": 10529,
  "elcome": 18829,
  "Ġmantra": 26208,
  "Ġcontractor": 15484,
  "published": 27257,
  "Ġbooster": 28311,
  "closed": 14691,
  "Ġenvision": 16951,
  "Ġpitched": 17221,
  "ĠKh": 4686,
  "LY": 12908,
  "ĠAcqu": 30852,
  "Ġlight": 1790,
  "06": 6976,
  "iece": 9032,
  "Ġpale": 14767,
  "Ġembarked": 28840,
  "Ġbeginnings": 29479,
  "Ġframe": 4399,
  "Ġtherapeut": 20485,
  "Ġspawned": 25513,
  "ĠEdwin": 31525,
  "ĠRiverside": 29220,
  "Ġindefinite": 31236,
  "Ġbrother": 3815,
  "Ġz": 1952,
  "ĠColumbus": 12527,
  "Ġtriggered": 12603,
  "ĠInitial": 23503,
  "iences": 8680,
  "Ġoverrun": 29344,
  "Ġhonors": 21492,
  "Ġpowers": 5654,
  "Ġblu": 18409,
  "Ġspam": 18614,
  "ĠNixon": 13241,
  "SI": 18021,
  "Ġcitizenship": 12155,
  "ĠKatherine": 26418,
  "Ġservers": 9184,
  "ĠLux": 18557,
  "ĠFeel": 19030,
  "ĠShields": 30326,
  "Ġ22": 2776,
  "ĠAbb": 8631,
  "ĠLie": 11662,
  "Ġpurely": 12919,
  "Ġimmunity": 17131,
  "Ġperipher": 17679,
  "Ġcampuses": 18036,
  "Ġcomment": 2576,
  "ĠEvery": 3355,
  "79": 8758,
  "Ġprocure": 22108,
  "ĠFrozen": 26000,
  "Ġcontends": 28661,
  "Ġmosque": 15470,
  "met": 4345,
  "pi": 19747,
  "Ġhectares": 31811,
  "Ġhandic": 28642,
  "ĠCourse": 26831,
  "Ġrecordings": 16155,
  "Ġbare": 6103,
  "Ġbomb": 4446,
  "Ġpersistent": 15206,
  "ographically": 28235,
  "arium": 20160,
  "Ġgrade": 9662,
  "ĠPoints": 16043,
  "Ġbanks": 4818,
  "ĠKl": 10600,
  "ĠEllis": 17284,
  "ING": 3955,
  "Ġtheft": 11101,
  "xon": 19001,
  "Ġforce": 2590,
  "iÄĩ": 27103,
  "Ġduel": 27150,
  "ove": 624,
  "ĠFlu": 29919,
  "oston": 5024,
  "Gen": 22059,
  "Ġbecame": 2237,
  "ĠBudd": 8349,
  "Ġcat": 3407,
  "Ġgel": 21532,
  "rested": 27640,
  "Ġfo": 10068,
  "Ġfactories": 15409,
  "ĠTHC": 22585,
  "rt": 20716,
  "Ġsurvival": 9176,
  "Ġpartition": 21161,
  "Ġorgan": 1405,
  "Ġincreasingly": 5116,
  "Ġcowork": 28140,
  "Ġspy": 12160,
  "ĠAust": 2028,
  "Te": 13039,
  "Part": 16692,
  "loss": 23790,
  "Ġsubord": 22725,
  "ibling": 28844,
  ".-": 8548,
  "Ġcondemned": 12361,
  "Ġcockpit": 24397,
  "Ġanalyses": 14004,
  "Ġreopen": 28957,
  "Ġscholarly": 27779,
  "Ġcomplain": 12084,
  "ĠEntry": 27435,
  "m": 76,
  "ĠOECD": 28465,
  "ĠNets": 24813,
  "Ġcost": 1470,
  "ĠRussians": 10792,
  "ĠÂ°": 16204,
  "Ġgoodbye": 22459,
  "ĠKw": 29031,
  "Ġbills": 7327,
  "Ġentering": 7953,
  "Ġfastball": 26155,
  "ĠHank": 23749,
  "Ġ145": 25925,
  "Ġworst": 4581,
  "Ġstimul": 10372,
  "Ġnatives": 30067,
  "Ġendurance": 24152,
  "Ġrising": 6219,
  "Ġautomatically": 7464,
  "ĠHollow": 26251,
  "ocracies": 26283,
  "Ġdetermin": 4068,
  "brance": 30826,
  "Ġha": 333,
  "ĠEvil": 15813,
  "rients": 19286,
  "Ġredirect": 18345,
  "seek": 27666,
  "Ġprovince": 7206,
  "Ġsooner": 13357,
  "Ġestimation": 31633,
  "ĠLoad": 12792,
  "Ġinst": 931,
  "ĠCanadians": 10872,
  "Ġreferenced": 19851,
  "estyle": 10220,
  "Ġcitation": 26390,
  "January": 30498,
  "Ġillusion": 17125,
  "hart": 17369,
  "icrosoft": 24683,
  "mer": 539,
  "Ġbold": 10021,
  "Ġmodules": 14314,
  "Ġinterstate": 30706,
  "Ġlays": 24148,
  "Ġmount": 4132,
  "Ġmulti": 5025,
  "Ġnucleus": 27899,
  "cycle": 28883,
  "Ġener": 2207,
  "Ġexamples": 6006,
  "ĠTransport": 18354,
  "Ġassociations": 15107,
  "ĠOne": 1438,
  "Ġuntil": 1514,
  "highest": 28320,
  "ĠMore": 2422,
  "Ġpointing": 9519,
  "ĠMovement": 13870,
  "ISS": 20821,
  "aughtered": 29457,
  "ĠDiet": 17955,
  "chell": 10574,
  "APD": 30790,
  "Ġincompatible": 27862,
  "Node": 31393,
  "ara": 3396,
  "ĠLiber": 4186,
  "Ġcondoms": 30681,
  "jpg": 17037,
  "political": 18995,
  "Ġchildhood": 9261,
  "Ġspotted": 11432,
  "sk": 11967,
  "ĠHoll": 4744,
  "Ġskeleton": 22671,
  "Ġsang": 21312,
  "Ġentitlement": 24207,
  "Ġmoderator": 31893,
  "Ġmainly": 7573,
  "Ġenerg": 18235,
  "once": 26139,
  "ĠTrap": 31612,
  "ĠCoc": 18343,
  "Ġmembrane": 26527,
  "ĠStro": 29581,
  "ĠNetwork": 6870,
  "Ġdiscs": 28941,
  "note": 12927,
  "Ġfiscal": 8239,
  "culture": 21103,
  "aki": 9696,
  "usually": 23778,
  "ĠPerson": 8021,
  "Ġ147": 30793,
  "Ġlaughing": 13933,
  "rav": 4185,
  "Ġwake": 6750,
  "heads": 15576,
  "Ġprivatization": 30922,
  "Ġrandomly": 16232,
  "rising": 17043,
  "Ġreplacements": 31919,
  "HE": 24548,
  "ĠBillion": 29597,
  "Ġmush": 15281,
  "guard": 12459,
  "ĠThousands": 19585,
  "Ġpledges": 24419,
  "Ġgraduated": 15251,
  "puted": 14476,
  "idelity": 22691,
  "igh": 354,
  "Ġfuss": 28454,
  "Ġclassic": 6346,
  "Ġsupernatural": 21385,
  "Ġdrove": 9060,
  "agement": 2937,
  "Ġ202": 28901,
  "Ġblend": 15207,
  "kish": 28671,
  "Ġtrainers": 26844,
  "Ġhypothetical": 21021,
  "Ġbloss": 26336,
  "rie": 5078,
  "Ġneighbor": 4379,
  "inem": 6468,
  "ĠLiquid": 24222,
  "ĠGru": 22448,
  "Ġrepresentations": 24954,
  "ĠVin": 10795,
  "Ð°": 4708,
  "Ġtasting": 25122,
  "follow": 28206,
  "Ġfaux": 29612,
  ",\"": 737,
  "Ġcolleges": 12829,
  "Ġrecei": 18433,
  "Ġinvasive": 22915,
  "ĠGilbert": 19312,
  "Ġcaffeine": 23854,
  "IR": 6176,
  "ig": 285,
  "Ġanalyst": 9566,
  "Ġaiming": 15378,
  "Ġvalidity": 20861,
  "Gener": 14820,
  "iff": 2557,
  "Ġseventh": 12057,
  "ĠPed": 12158,
  "17": 2385,
  "ĠAssociates": 27580,
  "Ġresources": 3847,
  "ĠHugo": 21176,
  "Ġchances": 7406,
  "Ġrecord": 1494,
  "Ġoverdose": 24421,
  "iona": 31279,
  "la": 4496,
  "Ġstated": 4532,
  "Ġpraise": 11906,
  "hearted": 18024,
  "ĠMex": 3626,
  "Ġdistributed": 8760,
  "ss": 5389,
  "Ġadministered": 18608,
  "nox": 31616,
  "Ġproposal": 5372,
  "lda": 19283,
  "Ãº": 15934,
  "Ġenforcing": 22149,
  "Ġsentences": 12323,
  "Ġstance": 9951,
  "Ġguarante": 8336,
  "Ġye": 13655,
  "Ġegregious": 26436,
  "ilies": 3490,
  "Mar": 12073,
  "Ġsuprem": 12325,
  "ãģŁ": 20088,
  "obo": 27285,
  "Ġscenery": 30984,
  "Ġunimagin": 31909,
  "Ġboosting": 23332,
  "Ġinability": 14606,
  "Ġdescribe": 6513,
  "Ġvoyage": 28499,
  "oo": 3004,
  "Ġbishops": 24294,
  "Ġsac": 5780,
  "Ġpat": 1454,
  "ĠSyria": 3603,
  "Ġlib": 12356,
  "ĠKod": 23326,
  "Ġaffidavit": 21792,
  "ango": 14829,
  "awa": 6609,
  "idents": 2983,
  "Ġswear": 22403,
  "groups": 29943,
  "Ġcoup": 10164,
  "ĠSum": 5440,
  "Ġstreaming": 9455,
  "Ġdictate": 22824,
  "Ġreb": 3059,
  "ĠPoc": 25027,
  "osh": 3895,
  "Ġpossibly": 5102,
  "uxe": 27860,
  "ĠOrgan": 6816,
  "Ġbar": 2330,
  "NO": 21376,
  "ĠSud": 9590,
  "Ġsensing": 31745,
  "Ġnodded": 20372,
  "Ġrarely": 7666,
  "ĠMiranda": 26019,
  "ĠDescription": 18848,
  "Ġunw": 7773,
  "ĠSus": 8298,
  "Ġ14": 1882,
  "Neill": 22497,
  "estation": 30821,
  "shaw": 27271,
  "Ġsacked": 23412,
  "arge": 1167,
  "Ġbigot": 19877,
  "tlet": 24931,
  "Ġconsultants": 23962,
  "ay": 277,
  "Ġatmosp": 6134,
  "ĠPre": 3968,
  "ĠNations": 7108,
  "Ġearnings": 11494,
  "ĠWor": 14795,
  "ĠFiled": 30104,
  "enza": 22356,
  "Exception": 29639,
  "ipe": 4288,
  "Ġrendering": 14687,
  "ĠISS": 27539,
  "Ġunseen": 28388,
  "IAL": 20380,
  "arel": 22041,
  "web": 16581,
  "arded": 11534,
  "User": 23758,
  "Ġmapped": 25932,
  "Ġperennial": 31601,
  "Ġstems": 19708,
  "Ġcontacts": 13103,
  "Ġnarratives": 20876,
  "Ġ102": 20106,
  "ĠObama": 1658,
  "iron": 1796,
  "ject": 757,
  "Ġindication": 11637,
  "ĠWolfe": 31549,
  "rehens": 7224,
  "ĠLibyan": 18898,
  "Update": 21697,
  "Ġvitamin": 18683,
  "ĠVO": 31912,
  "Ġprompting": 17167,
  "Ġdeclared": 5856,
  "UC": 10628,
  "Ġten": 3455,
  "Ġnewslet": 6662,
  "ĠDeutsche": 27169,
  "ĠCorrespond": 29136,
  "ĠSheikh": 22221,
  "how": 4481,
  "ĠDun": 6690,
  "ueller": 13325,
  "Ġqualifying": 16005,
  "so": 509,
  "Ġcampaigned": 22783,
  "Ġdot": 14642,
  "Ġconsulted": 23228,
  "Ġne": 360,
  "nel": 4748,
  "Ġpurposes": 7088,
  "profile": 11777,
  "Ġ23": 2885,
  "ĠHaven": 21104,
  "airo": 14618,
  "Ġcommon": 2296,
  "Ġexpand": 3818,
  "Ġampl": 13123,
  "Ġinvaded": 22792,
  "witz": 24928,
  "Ġfruit": 8644,
  "Ġamino": 28071,
  "ijing": 8752,
  "Ġdimension": 16179,
  "ĠMelbourne": 11488,
  "ven": 520,
  "ĠBat": 5724,
  "amps": 13475,
  "Inst": 16678,
  "ĠEmperor": 17091,
  "Ġglor": 25217,
  "99": 3003,
  "Ġvault": 20795,
  "Ġdifferences": 5574,
  "Ġdeveloper": 7111,
  "ĠEconomy": 20470,
  "Ġcartel": 25674,
  "Ġmicrobes": 27109,
  "Const": 27587,
  "Ġasset": 10334,
  "poor": 31397,
  "Ġcrops": 12433,
  "ipers": 28875,
  "Ġbowling": 26179,
  "ĠRs": 10451,
  "group": 12066,
  "UP": 15534,
  "Ġneeds": 2289,
  "Ġterm": 3265,
  "Ġcorrespondent": 15980,
  "Ġetern": 25116,
  "won": 22889,
  "ocolate": 9356,
  "Ġpowder": 13656,
  "Ġprogrammes": 19695,
  "ĠEL": 17334,
  "ĠCort": 23569,
  "Ġchoice": 3418,
  "leading": 11104,
  "Ġcruise": 17352,
  "ĠAgents": 27685,
  "Ġmodeled": 25168,
  "Ġcompress": 29843,
  "ĠAbram": 31753,
  "Ġevolution": 6422,
  "Ġhost": 2372,
  "Ġclouds": 14772,
  "ĠRwanda": 31700,
  "ĠCemetery": 29434,
  "ĠIntern": 2170,
  "rop": 1636,
  "Ġsubtle": 11025,
  "ĠEthan": 26008,
  "ĠMobile": 11674,
  "Ġterrain": 15131,
  "ĠGol": 23792,
  "wood": 3573,
  "Ġearl": 12340,
  "Ġscenarios": 12404,
  "amp": 632,
  "Â": 124,
  "ĠHe": 565,
  "Ġnonprofit": 12429,
  "AB": 10429,
  "Ġassured": 12772,
  "ived": 1512,
  "Even": 13134,
  "Ġauthenticity": 22598,
  "FL": 3369,
  "2015": 9842,
  "ĠLeices": 19964,
  "ĠCavaliers": 24408,
  "Ġ1952": 23002,
  "Ġlies": 6496,
  "General": 18116,
  "Ġstretch": 7075,
  "ĠXbox": 8160,
  "ĠAmazing": 23428,
  "Ġswung": 27487,
  "Ġrespecting": 31875,
  "rendered": 23101,
  "agn": 4938,
  "Ġethn": 28881,
  "Ã£o": 14070,
  "Ġdeprivation": 27966,
  ".âĢĿ": 604,
  "Ġgods": 14053,
  "Ġdisability": 15155,
  "ĠMayer": 27181,
  "Ġprov": 954,
  "=âĢĿ": 14804,
  "ĠDays": 14526,
  "ania": 4980,
  "Ġeveryday": 10019,
  "Ġramp": 8963,
  "ĠRNA": 23888,
  "Ġconsiderably": 14456,
  "Ġprovider": 11068,
  "ĠReich": 21739,
  "inational": 20700,
  "âĢĭ": 15080,
  "Ġreceiving": 6210,
  "Ġdismissal": 21773,
  "Men": 14961,
  "Ġgently": 18765,
  "Ġcertainly": 3232,
  "itus": 20229,
  "Ġfinest": 18474,
  "Ġinnate": 28080,
  "ĠAny": 4250,
  "Sha": 31750,
  "....": 3351,
  "Ġpromoter": 28308,
  "ĠMail": 10207,
  "ĠFans": 17102,
  "Ġinsure": 14348,
  "330": 31003,
  "Ġnoted": 3779,
  "Ġsettling": 21951,
  "Ġimpoverished": 26805,
  "Ġfluids": 30020,
  "Ġtechnicians": 31004,
  "ĠLowe": 26382,
  "osterone": 20381,
  "Ġchatting": 28395,
  "ĠPriebus": 26947,
  "Ġfocus": 2448,
  "adin": 27434,
  "ĠForrest": 28521,
  "Ġstrongh": 22438,
  "ĠThirty": 22994,
  "Ġadamant": 28920,
  "Ġidol": 21118,
  "Ġbreaks": 8843,
  "Ġdemanding": 9276,
  "Ġsunk": 23549,
  "Ġcalled": 1281,
  "vo": 10454,
  "Ġfinish": 5463,
  "ĠRain": 11914,
  "ADA": 26593,
  "Ġdizz": 28869,
  "Ġimposed": 10327,
  "ĠFortress": 31993,
  "ackets": 27532,
  "Ġminors": 18843,
  "Ġcontact": 3008,
  "ograp": 1900,
  "Ġrabb": 16893,
  "Ġemphasize": 18876,
  "ioxide": 13723,
  "Ġrituals": 23066,
  "ĠPok": 12176,
  "Ġexact": 2618,
  "Ġdodge": 29127,
  "Ġrenowned": 19233,
  "Cur": 23285,
  "Ġpairing": 22862,
  "landers": 28580,
  "ĠKazakh": 23646,
  "iversity": 1394,
  "ĠChat": 25872,
  "jud": 9290,
  "ĠDeborah": 29257,
  "ourge": 15887,
  "ĠTags": 30046,
  "ĠSim": 3145,
  "Share": 20571,
  "kt": 24151,
  "ĠTaking": 15425,
  "andum": 24641,
  "Ġrecol": 27254,
  "IDENT": 31856,
  "ength": 3934,
  "Ġfeatured": 6520,
  "Ġdivisive": 22123,
  "Ġdrunk": 10276,
  "Ġtopp": 18886,
  "ets": 1026,
  "Ġreminded": 12668,
  "mong": 25281,
  "Ġivory": 29138,
  "Ġtob": 11718,
  "hol": 12378,
  "Ġexpenditure": 22512,
  "Ġwarfare": 13139,
  "issa": 13843,
  "Ġclosing": 8659,
  "ĠVersion": 16826,
  "ĠRey": 21488,
  "ĠSER": 26980,
  "Ġupdate": 4761,
  "Ġhole": 7854,
  "ĠIke": 30037,
  "ĠAmbassador": 17392,
  "Ġaggreg": 14275,
  "ĠHaskell": 22798,
  "ĠPolish": 12838,
  "ĠeBay": 18976,
  "Ġlavish": 31152,
  "Ġgunfire": 23439,
  "NN": 4618,
  "ĠProte": 7428,
  "Ġqueen": 17398,
  "ourney": 5971,
  "Ġdeath": 1821,
  "Ġpie": 2426,
  "ĠSavage": 21626,
  "Ġharassing": 30274,
  "ĠCatholic": 6489,
  "ĠVice": 9163,
  "Ġmostly": 4076,
  "ĠBeing": 9448,
  "EST": 8220,
  "ĠAns": 22203,
  "igrants": 4700,
  "Ġclothes": 8606,
  "oan": 19620,
  "Ġgreeted": 18947,
  "ĠCanter": 30047,
  "ĠFinnish": 23476,
  "ĠLatinos": 25711,
  "Type": 15195,
  "Ġintra": 26205,
  "gger": 20172,
  "Ġshrink": 20710,
  "Ġ1800": 20582,
  "culus": 15652,
  "ihil": 22311,
  "Ġmutant": 31968,
  "FE": 28236,
  "ĠWILL": 21756,
  "150": 10504,
  "ĠRabbi": 23657,
  "Ġresponsive": 20149,
  "Ġenforce": 4097,
  "Ġaverage": 2658,
  "ĠGovern": 3580,
  "Ġinconsistent": 17886,
  "ando": 16115,
  "Ġeasily": 3670,
  "Ġbless": 12937,
  "Ġenormous": 8472,
  "Ġgolden": 11815,
  "Ġrejection": 15830,
  "Ġlengthy": 13615,
  "Ġintroduces": 19875,
  "iffs": 9647,
  "Ġassuming": 12733,
  "ĠNun": 28475,
  "Ġmistakes": 8813,
  "Ġexceeds": 24600,
  "ĠGr": 1879,
  "vous": 28838,
  "Ġrents": 23318,
  "Ġdiscontinued": 30530,
  "Ġcrimes": 5859,
  "pus": 26380,
  "Ġgenerated": 7541,
  "ĠAbove": 18660,
  "Ġhardly": 8119,
  "Ġentrance": 11038,
  "Ġmove": 1293,
  "Ġmedicines": 22135,
  "ĠLloyd": 18350,
  "Ġrushing": 13373,
  "Ġapparent": 3796,
  "point": 4170,
  "Ġethanol": 25125,
  "Ġwanting": 9574,
  "ĠKnowing": 23884,
  "Tim": 28303,
  "Ġcongestion": 22204,
  "rena": 10389,
  "Ġdeciding": 12789,
  "Ġfoll": 25770,
  "ĠCastle": 14728,
  "Ġmetabolic": 23902,
  "Ġign": 3548,
  "ĠFred": 7551,
  "Ġwaving": 24179,
  "Ġdent": 17233,
  "ĠMiliband": 25991,
  "athe": 25285,
  "ĠHero": 13715,
  "Ġincent": 8004,
  ".....": 28519,
  "ressive": 5303,
  "rex": 22605,
  "ĠTL": 18959,
  "ĠStewart": 10416,
  "Ġmanagers": 9850,
  "ĠVal": 3467,
  "Ġvariability": 24468,
  "Ġmonk": 28257,
  "oots": 16177,
  "ĠJinping": 29578,
  "Ġsid": 16787,
  "osp": 1963,
  "Ġlaun": 3894,
  "Ġasks": 8089,
  "Ġwanna": 21193,
  "Ġsaga": 21716,
  "Ġsheet": 10150,
  "Ġinspector": 20789,
  "ĠSamantha": 27613,
  "ĠFernandez": 31275,
  "ĠVentures": 31034,
  "Ġadequ": 10245,
  "Ġcommercially": 22638,
  "ĠMen": 6206,
  "Ġhanded": 8598,
  "Ġ*/": 18444,
  "ĠNBC": 7202,
  "Ġpotatoes": 19146,
  "Ġbenchmarks": 29564,
  "Ġgiveaway": 31898,
  "ĠTe": 1606,
  "ich": 442,
  "ĠPower": 5296,
  "Ġvacant": 19411,
  "ĠGC": 21455,
  "Ġfret": 29456,
  "Ġmosquitoes": 29664,
  "Ġban": 2111,
  "ĠPhotos": 8803,
  "Ġshelling": 30842,
  "ĠBrook": 6216,
  "Ġnecessity": 14837,
  "Ġmisery": 22733,
  "ĠIMF": 18560,
  "Ġsignaling": 21111,
  "Ġscan": 8886,
  "poons": 29474,
  "ĠSEE": 25987,
  "Ġinterfering": 29007,
  "Ġcooked": 17259,
  "ĠOn": 1091,
  "ests": 2694,
  "Ġadjacent": 16301,
  "ĠDivine": 27983,
  "Ġemergency": 5644,
  "erted": 8854,
  "ĠiPad": 10655,
  "Ġspirits": 14430,
  "Ġunrest": 13520,
  "'ll": 2262,
  "ĠLucy": 22341,
  "ora": 6581,
  "Ġbeds": 19402,
  "Ä": 126,
  "Ġprayer": 11930,
  "journal": 22764,
  "Ġupheld": 20639,
  "Ġexplicit": 7672,
  "go": 2069,
  "athon": 11863,
  "Ġadmire": 18279,
  "Ä±": 15158,
  "llah": 17843,
  "ĠIsaiah": 29654,
  "ixels": 17073,
  "ĠEss": 12194,
  "Ġeuros": 15727,
  "ĠGiants": 10658,
  "Ġconfess": 23216,
  "Ġoccup": 4788,
  "ixel": 11159,
  "CAR": 18934,
  "ĠGallup": 20755,
  "ansk": 30578,
  "Ġreplaced": 6379,
  "ĠByr": 26422,
  "urers": 31171,
  "igma": 13148,
  "Ġcopies": 8838,
  "ĠReturn": 12748,
  "ĠBio": 18069,
  "Ġcalculation": 18897,
  "Ġequipment": 5377,
  "Ġtax": 1505,
  "Ġskull": 14306,
  "Ġlogo": 10370,
  "Ġrealistic": 11309,
  "ĠEuropeans": 16489,
  "Ġric": 10893,
  "Ġflexible": 12542,
  "ĠElectronic": 18637,
  "chie": 2863,
  "asury": 9511,
  "ĠYou": 923,
  "Ġparliamentary": 12856,
  "Ġengulf": 27763,
  "stand": 1396,
  "Ġsurviv": 9889,
  "Ġdoubling": 22034,
  "apter": 5568,
  "Ġenvironmentalists": 27924,
  "ĠTerrit": 20600,
  "yg": 22925,
  "ĠMn": 28397,
  "ĠSounders": 30569,
  "Ġattracted": 10834,
  "axis": 26493,
  ".''": 18277,
  "Ġrow": 6196,
  "Ġperformance": 2825,
  "Ġlion": 17902,
  "Ariz": 31911,
  "Ġdense": 14883,
  "Ġmaterial": 2771,
  "icism": 9431,
  "atus": 10754,
  "ĠAlb": 15675,
  "Ġtoured": 30488,
  "onge": 14469,
  "Ġvill": 4231,
  "Ġlicensing": 13564,
  "Ġfighting": 3915,
  "Ġsurvived": 10607,
  "Ġenerget": 21798,
  "Ġcelebrity": 13629,
  "bid": 25148,
  "Ġpatented": 31810,
  "ulator": 14848,
  "ere": 13229,
  "Ġsimpl": 6714,
  "haw": 17359,
  "Ġbrink": 23051,
  "Ġpublishers": 14186,
  "Ġpad": 16169,
  "Ġsmash": 22800,
  "Ġvoted": 5392,
  "desc": 17176,
  "Ġadolescent": 28782,
  "ateur": 13684,
  "pr": 1033,
  "Ġarriving": 13057,
  "ĠPick": 13100,
  "Ġsounding": 21225,
  "ĠLLC": 14669,
  "Ġaccumulated": 21152,
  "inity": 7277,
  "Ġwise": 11054,
  "Ġpop": 1290,
  "Ġamounts": 7095,
  "ĠSimpson": 16902,
  "Ġ{{": 28191,
  "Ġ1940": 13804,
  "Ġtranscripts": 27245,
  ").<|": 18887,
  "ĠPeterson": 15389,
  "Ġtor": 7731,
  "nas": 22611,
  "Ġvalidated": 29235,
  "Ġpleaded": 13398,
  "Ġaccidentally": 14407,
  "school": 13006,
  "Ġlay": 3255,
  "Ġstal": 20385,
  "Ġbenef": 2280,
  "Ġturnovers": 27648,
  "ĠTyr": 28334,
  "ĠExpert": 31511,
  "Ġsupern": 31173,
  "hing": 635,
  "ĠSn": 7106,
  "road": 5388,
  "ĠWhereas": 20976,
  "Ġadjust": 5209,
  "ĠBO": 16280,
  "Ġdecent": 7038,
  "Ġtoile": 12390,
  "Ġinsults": 24194,
  "Ġfinite": 25059,
  "Ġmileage": 31988,
  "Ġgem": 17849,
  "Ġattempt": 2031,
  "Ġemphasized": 16515,
  "idav": 19392,
  "Ġrefurb": 31176,
  "Ġpursued": 16755,
  "minster": 15948,
  "zhou": 29110,
  "April": 23845,
  "Ġsmallest": 17203,
  "Ġhear": 3120,
  "Ġhallway": 24455,
  "Ġheadache": 25463,
  "Ġearthqu": 11206,
  "ournament": 17867,
  "ĠEat": 26821,
  "Ġkinderg": 28215,
  "ĠFedora": 29167,
  "rush": 31887,
  "Ġshun": 29100,
  "scale": 8747,
  "ĠBuchanan": 28775,
  "Guard": 30585,
  "Ġswitching": 14925,
  "ĠWitness": 16967,
  "azar": 26847,
  "Ġfour": 1255,
  "Ġflooding": 14912,
[...]
