{"<|endoftext|>": 0, "Ā": 1, "ā": 2, "Ă": 3, "ă": 4, "Ą": 5, "ą": 6, "Ć": 7, "ć": 8, "Ĉ": 9, "ĉ": 10, "Ċ": 11, "ċ": 12, "Č": 13, "č": 14, "Ď": 15, "ď": 16, "Đ": 17, "đ": 18, "Ē": 19, "ē": 20, "Ĕ": 21, "ĕ": 22, "Ė": 23, "ė": 24, "Ę": 25, "ę": 26, "Ě": 27, "ě": 28, "Ĝ": 29, "ĝ": 30, "Ğ": 31, "ğ": 32, "Ġ": 33, "!": 34, "\"": 35, "#": 36, "$": 37, "%": 38, "&": 39, "'": 40, "(": 41, ")": 42, "*": 43, "+": 44, ",": 45, "-": 46, ".": 47, "/": 48, "0": 49, "1": 50, "2": 51, "3": 52, "4": 53, "5": 54, "6": 55, "7": 56, "8": 57, "9": 58, ":": 59, ";": 60, "<": 61, "=": 62, ">": 63, "?": 64, "@": 65, "A": 66, "B": 67, "C": 68, "D": 69, "E": 70, "F": 71, "G": 72, "H": 73, "I": 74, "J": 75, "K": 76, "L": 77, "M": 78, "N": 79, "O": 80, "P": 81, "Q": 82, "R": 83, "S": 84, "T": 85, "U": 86, "V": 87, "W": 88, "X": 89, "Y": 90, "Z": 91, "[": 92, "\\": 93, "]": 94, "^": 95, "_": 96, "`": 97, "a": 98, "b": 99, "c": 100, "d": 101, "e": 102, "f": 103, "g": 104, "h": 105, "i": 106, "j": 107, "k": 108, "l": 109, "m": 110, "n": 111, "o": 112, "p": 113, "q": 114, "r": 115, "s": 116, "t": 117, "u": 118, "v": 119, "w": 120, "x": 121, "y": 122, "z": 123, "{": 124, "|": 125, "}": 126, "~": 127, "ġ": 128, "Ģ": 129, "ģ": 130, "Ĥ": 131, "ĥ": 132, "Ħ": 133, "ħ": 134, "Ĩ": 135, "ĩ": 136, "Ī": 137, "ī": 138, "Ĭ": 139, "ĭ": 140, "Į": 141, "į": 142, "İ": 143, "ı": 144, "Ĳ": 145, "ĳ": 146, "Ĵ": 147, "ĵ": 148, "Ķ": 149, "ķ": 150, "ĸ": 151, "Ĺ": 152, "ĺ": 153, "Ļ": 154, "ļ": 155, "Ľ": 156, "ľ": 157, "Ŀ": 158, "ŀ": 159, "Ł": 160, "ł": 161, "¡": 162, "¢": 163, "£": 164, "¤": 165, "¥": 166, "¦": 167, "§": 168, "¨": 169, "©": 170, "ª": 171, "«": 172, "¬": 173, "Ń": 174, "®": 175, "¯": 176, "°": 177, "±": 178, "²": 179, "³": 180, "´": 181, "µ": 182, "¶": 183, "·": 184, "¸": 185, "¹": 186, "º": 187, "»": 188, "¼": 189, "½": 190, "¾": 191, "¿": 192, "À": 193, "Á": 194, "Â": 195, "Ã": 196, "Ä": 197, "Å": 198, "Æ": 199, "Ç": 200, "È": 201, "É": 202, "Ê": 203, "Ë": 204, "Ì": 205, "Í": 206, "Î": 207, "Ï": 208, "Ð": 209, "Ñ": 210, "Ò": 211, "Ó": 212, "Ô": 213, "Õ": 214, "Ö": 215, "×": 216, "Ø": 217, "Ù": 218, "Ú": 219, "Û": 220, "Ü": 221, "Ý": 222, "Þ": 223, "ß": 224, "à": 225, "á": 226, "â": 227, "ã": 228, "ä": 229, "å": 230, "æ": 231, "ç": 232, "è": 233, "é": 234, "ê": 235, "ë": 236, "ì": 237, "í": 238, "î": 239, "ï": 240, "ð": 241, "ñ": 242, "ò": 243, "ó": 244, "ô": 245, "õ": 246, "ö": 247, "÷": 248, "ø": 249, "ù": 250, "ú": 251, "û": 252, "ü": 253, "ý": 254, "þ": 255, "ÿ": 256, "Ġt": 257, "he": 258, "Ġa": 259, "Ġs": 260, "nd": 261, "Ġw": 262, "Ġthe": 263, "ed": 264, "Ġb": 265, "Ġto": 266, "Ġand": 267, "Ġh": 268, "Ġf": 269, "in": 270, "ĠT": 271, "Ġwa": 272, "re": 273, "it": 274, "ou": 275, "Ġl": 276, "Ġd": 277, "Ġc": 278, "Ġp": 279, "ay": 280, "Ġm": 281, "er": 282, "Ġwas": 283, "om": 284, "ĠThe": 285, "Ġhe": 286, "is": 287, "ar": 288, "Ġn": 289, "im": 290, "on": 291, "Ġsa": 292, "id": 293, "ll": 294, "Ġha": 295, "Ġg": 296, "at": 297, "ĠS": 298, "ing": 299, "ot": 300, "en": 301, "an": 302, "le": 303, "or": 304, "end": 305, "ir": 306, "of": 307, "am": 308, "et": 309, "ĠH": 310, "Ġit": 311, "Ġth": 312, "ig": 313, "ĠThey": 314, "Ġin": 315, "il": 316, "Ġpl": 317, "ĠHe": 318, "Ġ\"": 319, "ow": 320, "ver": 321, "ri": 322, "ut": 323, "Ġbe": 324, "Ġu": 325, "Ġsaid": 326, "Ġplay": 327, "ith": 328, "Ġday": 329, "Ġwith": 330, "pp": 331, "On": 332, "Ġy": 333, "oo": 334, "ked": 335, "Ġr": 336, "Ġher": 337, "ex": 338, "ce": 339, "ĠI": 340, "ĠShe": 341, "ld": 342, "ĠTim": 343, "Ġhis": 344, "Ġst": 345, "ke": 346, "Ġbig": 347, "nt": 348, "ck": 349, "Ġyou": 350, "very": 351, "st": 352, "ve": 353, "Ġon": 354, "un": 355, "Ġhapp": 356, "riend": 357, "Ġfriend": 358, "all": 359, "ily": 360, "ext": 361, "ĠL": 362, "Ġthey": 363, "oft": 364, "Ġwe": 365, "Ġhad": 366, "Ġnot": 367, "Ġli": 368, "Ġup": 369, "her": 370, "Ġwant": 371, "Ġof": 372, "ad": 373, "itt": 374, "|>": 375, "<|": 376, "oftext": 377, "endoftext": 378, "se": 379, "ĠB": 380, "Ġdo": 381, "Ġe": 382, "Ġhappy": 383, "ent": 384, "Ġvery": 385, "ĠM": 386, "es": 387, "Ġthat": 388, "Ġsaw": 389, "One": 390, "'s": 391, "ould": 392, "Ġmom": 393, "Ġfor": 394, "Ġsh": 395, "ittle": 396, "Ġlittle": 397, "Ġshe": 398, "ch": 399, "ime": 400, "Ġnam": 401, ".\"": 402, "Ġtime": 403, "Ġk": 404, "ound": 405, "Ġso": 406, "Ġthere": 407, "Ġnamed": 408, "Ġsm": 409, "Ġbo": 410, "Ġwere": 411, "ĠLily": 412, "Ġne": 413, "Ġwanted": 414, "Ġbut": 415, "out": 416, "The": 417, "Ġfriends": 418, "ved": 419, "!\"": 420, "ht": 421, "ĠTom": 422, "ird": 423, "el": 424, "Ġbird": 425, "al": 426, "Ġan": 427, "ake": 428, "Ġtoo": 429, "ome": 430, "ĠIt": 431, "ug": 432, "ide": 433, "Ġwent": 434, "Ġwh": 435, "Ġhel": 436, "Once": 437, "Ġis": 438, "Ġall": 439, "Ġhelp": 440, "ue": 441, "Ġloo": 442, "Ġlo": 443, "ter": 444, "ĠA": 445, "Ġupon": 446, "ry": 447, "ore": 448, "ind": 449, "Ġfun": 450, "get": 451, "Ġtoy": 452, "ill": 453, "ame": 454, "Ġas": 455, "Ġat": 456, "ra": 457, "Ġj": 458, "Ġdid": 459, "gether": 460, "Ġre": 461, "ur": 462, "Ġo": 463, "Ġse": 464, "Ġtogether": 465, "ack": 466, "Ġcat": 467, "ly": 468, "Ġtre": 469, "ood": 470, "ic": 471, "ted": 472, "Ġdog": 473, "Ġcould": 474, "Ġcan": 475, "Ġtheir": 476, "ard": 477, "ec": 478, "ark": 479, "Ġgir": 480, "Ġplayed": 481, "Ġhim": 482, "Ġball": 483, "?\"": 484, "Ġgirl": 485, "Ġro": 486, "way": 487, "Ġgo": 488, "hed": 489, "my": 490, "Ġare": 491, "Ġout": 492, "Ġle": 493, "Ġfr": 494, "ain": 495, "Ġkn": 496, "hen": 497, "Ġthem": 498, "um": 499, "'t": 500, "ax": 501, "Ġsad": 502, "ul": 503, "Ġboy": 504, "Ġtree": 505, "other": 506, "Ġhave": 507, "Ġman": 508, "Ġcl": 509, "Ġloved": 510, "Ġlooked": 511, "oug": 512, "Ġfound": 513, "Ġsp": 514, "Ġstar": 515, "ĠSue": 516, "one": 517, "hing": 518, "Ġsc": 519, "Ġback": 520, "own": 521, "ĠMax": 522, "are": 523, "Ġlike": 524, "ful": 525, "side": 526, "Ġme": 527, "Ġbec": 528, "Ġpark": 529, "ight": 530, "ong": 531, "Ġcar": 532, "op": 533, "elt": 534, "ĠOne": 535, "Ġliked": 536, "Ġwould": 537, "Ġmake": 538, "round": 539, "Ġla": 540, "Ġfa": 541, "Ġfelt": 542, "You": 543, "ĠW": 544, "ell": 545, "Ġsee": 546, "ĠBut": 547, "omet": 548, "Ġasked": 549, "ag": 550, "Ġnew": 551, "Ġno": 552, "ice": 553, "ĠSam": 554, "ouse": 555, "Ġstarted": 556, "ared": 557, "Ġcame": 558, "ĠBen": 559, "Ġal": 560, "Ġother": 561, "ought": 562, "iled": 563, "Ġsomet": 564, "Ġag": 565, "Ġgood": 566, "Ġsmall": 567, "ss": 568, "Ġbr": 569, "Ġsmiled": 570, "Ġsay": 571, "ried": 572, "ade": 573, "ings": 574, "ĠĊ": 575, "ob": 576, "pot": 577, "Ġwor": 578, "Ġfind": 579, "ia": 580, "Ġaway": 581, "ty": 582, "Ġput": 583, "Ġex": 584, "Ġwhat": 585, "Ġsomething": 586, "Ġfrom": 587, "Ġmade": 588, "Ġthought": 589, "ened": 590, "Ġhome": 591, "Ġplaying": 592, "Ġco": 593, "ook": 594, "Ġevery": 595, "Ġwal": 596, "Ġmu": 597, "uc": 598, "ach": 599, "arn": 600, "ĠSpot": 601, "Ġran": 602, "ile": 603, "ĠF": 604, "ie": 605, "ĠJ": 606, "ave": 607, "Ġagain": 608, "Ġsome": 609, "Ġlaug": 610, "dd": 611, "Ġhouse": 612, "Ġdown": 613, "Ġfl": 614, "king": 615, "Ġtook": 616, "Ġscared": 617, "Ġpr": 618, "ny": 619, "ure": 620, "Ġtoys": 621, "Ġlearn": 622, "ĠYou": 623, "if": 624, "Ġwill": 625, "Ġbox": 626, "ick": 627, "ret": 628, "ab": 629, "ep": 630, "Ġmy": 631, "Ġaround": 632, "Ġthings": 633, "Ġyour": 634, "oud": 635, "Ġbl": 636, "uck": 637, "Ġwhen": 638, "ish": 639, "Ġlived": 640, "Ġfe": 641, "Ġthen": 642, "Ġsun": 643, "as": 644, "Ġsw": 645, ",\"": 646, "Ġch": 647, "us": 648, "pped": 649, "Ġab": 650, "ĠMia": 651, "ank": 652, "Ġget": 653, "ucy": 654, "Tim": 655, "ump": 656, "Th": 657, "Ġlot": 658, "ist": 659, "oth": 660, "Ġtried": 661, "ap": 662, "Ġknow": 663, "Ġsays": 664, "Ġgot": 665, "ited": 666, "Ġwho": 667, "Ġkne": 668, "ust": 669, "Ġmany": 670, "nder": 671, "Ġint": 672, "Ġabout": 673, "Lily": 674, "Ġpret": 675, "Ġdec": 676, "Ġany": 677, "Ġred": 678, "ĠD": 679, "ive": 680, "Ġknew": 681, "ace": 682, "ous": 683, "Ġmore": 684, "ise": 685, "Ġv": 686, "Ġcare": 687, "ally": 688, "Ġpic": 689, "au": 690, "qu": 691, "Ġhug": 692, "ĠLucy": 693, "Ġlearned": 694, "Ġpo": 695, "Ġwater": 696, "fter": 697, "Ġbecame": 698, "Ġbest": 699, "ause": 700, "Ġop": 701, "Ġgre": 702, "Ġexc": 703, "urp": 704, "ways": 705, "Ġoutside": 706, "Ġlaughed": 707, "Ġlook": 708, "Ġalways": 709, "Ġdecid": 710, "Ġshow": 711, "Ġun": 712, "ant": 713, "ĠBob": 714, "Ġroom": 715, "fe": 716, "Ġdecided": 717, "Ġho": 718, "Ġbecause": 719, "Ġinto": 720, "ĠSo": 721, "Ġeat": 722, "ite": 723, "Ġjump": 724, "ĠAnd": 725, "Ġpe": 726, "Ġboth": 727, "ers": 728, "ĠMom": 729, "Ġdad": 730, "They": 731, "udd": 732, "Ġke": 733, "Ġone": 734, "nn": 735, "Ġthis": 736, "Ġexcited": 737, "Ġfast": 738, "Ġnice": 739, "ĠE": 740, "Ġfeel": 741, "Tom": 742, "Yes": 743, "Ġrun": 744, "Ġlong": 745, "Ġtold": 746, "Ġsk": 747, "Ġam": 748, "urpr": 749, "our": 750, "Ġinside": 751, "ull": 752, "Ġtr": 753, "Ġsurpr": 754, "Ġmo": 755, "ink": 756, "Ġpretty": 757, "iny": 758, "Ġsor": 759, "Wh": 760, "Ġtake": 761, "og": 762, "Ġsl": 763, "Ġeach": 764, "Ġgave": 765, "Ġmuch": 766, "Ġgra": 767, "lew": 768, "nna": 769, "Ġrock": 770, "Ġhow": 771, "Ġstr": 772, "ara": 773, "imal": 774, "Ġanimal": 775, "ged": 776, "Ġneed": 777, "Ġthan": 778, "But": 779, "ven": 780, "etter": 781, "Ġtow": 782, "Ġor": 783, "ĠC": 784, "Ġunder": 785, "ess": 786, "Ġold": 787, "Ġsorry": 788, "ge": 789, "ised": 790, "ro": 791, "urt": 792, "Ġcle": 793, "Ġfish": 794, "Ġwalked": 795, "Ġclo": 796, "and": 797, "Ġbear": 798, "ase": 799, "ast": 800, "Ġhand": 801, "urn": 802, "ĠWe": 803, "Ġkind": 804, "ĠHis": 805, "here": 806, "Ġhappened": 807, "Ġjust": 808, "Ġflow": 809, "Ġfood": 810, "Ġlist": 811, "Ġdidn": 812, "Ġte": 813, "Ġanimals": 814, "Ġhig": 815, "pl": 816, "Ġnear": 817, "Ġwat": 818, "Ġide": 819, "Ġtry": 820, "ched": 821, "Ġsky": 822, "ine": 823, "Ġsn": 824, "ving": 825, "Ġfi": 826, "rom": 827, "Ġus": 828, "Ġidea": 829, "Ġbetter": 830, "ĠAmy": 831, "Ġbug": 832, "Ġheard": 833, "gry": 834, "Ġits": 835, "Ġtw": 836, "Ġlet": 837, "pec": 838, "ate": 839, "able": 840, "ff": 841, "Ġen": 842, "Ġcareful": 843, "Ġshare": 844, "Ġif": 845, "Thank": 846, "Mom": 847, "Ġfly": 848, "Ġstor": 849, "ial": 850, "Ġflew": 851, "more": 852, "Ġanymore": 853, "ĠTh": 854, "Ġspec": 855, "Ġspecial": 856, "ion": 857, "Ġcom": 858, "Ġlots": 859, "Ġnever": 860, "Ġby": 861, "lf": 862, "ream": 863, "Ġdan": 864, "Ġbu": 865, "Ġfo": 866, "Ġwind": 867, "Ġdon": 868, "Ġtal": 869, "Ġclean": 870, "ort": 871, "Ġgr": 872, "Ġlove": 873, "rm": 874, "ber": 875, "Ġend": 876, "ĠThen": 877, "ople": 878, "Ġeven": 879, "Ġmag": 880, "Ġhard": 881, "Ġshiny": 882, "udden": 883, "Ġfore": 884, "Ġover": 885, "Ġcake": 886, "ak": 887, "Ġbook": 888, "Ġcol": 889, "Ġturn": 890, "Ġfam": 891, "Ġbad": 892, "Ġsafe": 893, "Ġafter": 894, "ady": 895, "ĠAnna": 896, "uddenly": 897, "Ġpeople": 898, "Ġproud": 899, "ĠEvery": 900, "Ġsurprised": 901, "pected": 902, "Let": 903, "Ġhigh": 904, "Ġcu": 905, "Ġhurt": 906, "Ġcome": 907, "imb": 908, "arden": 909, "Ġdoor": 910, "Ġgarden": 911, "bb": 912, "Ġground": 913, "Ġopened": 914, "Ġpicked": 915, "Ġloud": 916, "Ġclimb": 917, "expected": 918, "Ġunexpected": 919, "Ġgl": 920, "Ġche": 921, "ild": 922, "Ġim": 923, "As": 924, "Ġgive": 925, "Ġway": 926, "ail": 927, "'m": 928, "Ġthanked": 929, "Ġcolor": 930, "Ġblue": 931, "Ġstill": 932, "Ġever": 933, "Ġhugged": 934, "ĠFrom": 935, "Ġcall": 936, "Ġfar": 937, "ip": 938, "ĠHer": 939, "ĠSara": 940, "ĠWhen": 941, "No": 942, "Ġoff": 943, "Ġmagic": 944, "iz": 945, "ough": 946, "age": 947, "ummy": 948, "ĠK": 949, "Ġjumped": 950, "Ġshould": 951, "Ġfamily": 952, "Ġpar": 953, "ool": 954, "Ġkid": 955, "Ġsmile": 956, "hes": 957, "uff": 958, "Ġplace": 959, "kay": 960, "Ġwalk": 961, "Ġnow": 962, "ct": 963, "ĠIn": 964, "Ġgreat": 965, "em": 966, "Ġqu": 967, "les": 968, "Ġstrong": 969, "Ġstay": 970, "Ġunt": 971, "Ġsto": 972, "aut": 973, "Ġforest": 974, "ture": 975, "ane": 976, "Ġbra": 977, "itty": 978, "ĠP": 979, "Ġfrog": 980, "Ġbro": 981, "Ġuntil": 982, "oon": 983, "Ġbeaut": 984, "dy": 985, "Ġsqu": 986, "Ġstick": 987, "Ġnext": 988, "Ġboat": 989, "lease": 990, "ning": 991, "Ġhappily": 992, "Ġlisten": 993, "aking": 994, "Ġkids": 995, "Ġtra": 996, "ies": 997, "iful": 998, "Ġbeautiful": 999, "Ġapp": 1000, "th": 1001, "Ġhelped": 1002, "Ġdra": 1003, "Ġshowed": 1004, "Ġclos": 1005, "be": 1006, "Ġimp": 1007, "Ġstory": 1008, "unny": 1009, "oy": 1010, "Ġwhile": 1011, "Ġtown": 1012, "rel": 1013, "pt": 1014, "Ġrain": 1015, "ress": 1016, "Ġpicture": 1017, "Ġbeing": 1018, "Ġrem": 1019, "Ġeveryone": 1020, "It": 1021, "ary": 1022, "ree": 1023, "Ġmor": 1024, "Ġhat": 1025, "Ġcalled": 1026, "Ġmet": 1027, "Ġstopped": 1028, "Ġad": 1029, "Ġgame": 1030, "Now": 1031, "He": 1032, "Ġwo": 1033, "Can": 1034, "Ġangry": 1035, "ger": 1036, "uffy": 1037, "Ġsoft": 1038, "Ġopen": 1039, "Ġtruck": 1040, "Ġkeep": 1041, "When": 1042, "Ġcry": 1043, "Ġyummy": 1044, "Ġlost": 1045, "Ġbed": 1046, "ĠLet": 1047, "ĠSally": 1048, "Ġwarm": 1049, "by": 1050, "vent": 1051, "Ġbrave": 1052, "Ġmouse": 1053, "ĠWh": 1054, "Ġate": 1055, "ĠKitty": 1056, "ished": 1057, "Ġde": 1058, "fore": 1059, "Ġdoll": 1060, "so": 1061, "Ġcouldn": 1062, "Ġwatch": 1063, "Ġleave": 1064, "dded": 1065, "Ġalso": 1066, "Ġfell": 1067, "Ġgreen": 1068, "Ġface": 1069, "Ġtwo": 1070, "gan": 1071, "iss": 1072, "Ġflowers": 1073, "bit": 1074, "What": 1075, "ĠR": 1076, "ble": 1077, "Ġnoise": 1078, "abbit": 1079, "irst": 1080, "owl": 1081, "Ġwhere": 1082, "az": 1083, "ock": 1084, "Ġsoon": 1085, "self": 1086, "Ġslide": 1087, "Ġrabbit": 1088, "Ġhole": 1089, "luffy": 1090, "Ġbefore": 1091, "irrel": 1092, "Ġpus": 1093, "ired": 1094, "Ġsat": 1095, "illy": 1096, "Ġhear": 1097, "Ġuse": 1098, "Hi": 1099, "Ġpa": 1100, "Ġkept": 1101, "That": 1102, "Ġsquirrel": 1103, "ear": 1104, "Then": 1105, "ma": 1106, "Ġnodded": 1107, "Ġexpl": 1108, "Ġstore": 1109, "Ġcook": 1110, "Ġhands": 1111, "Look": 1112, "Ġbirds": 1113, "Ġpain": 1114, "Ġgoing": 1115, "Ġfunny": 1116, "Ġhaving": 1117, "day": 1118, "Ġsing": 1119, "aybe": 1120, "uch": 1121, "Ġey": 1122, "aug": 1123, "Ġcatch": 1124, "aught": 1125, "ĠCan": 1126, "ĠFluffy": 1127, "uit": 1128, "Ġyell": 1129, "Ġthink": 1130, "leep": 1131, "Ġcra": 1132, "Ġfin": 1133, "Ben": 1134, "Ġbre": 1135, "Ġfix": 1136, "Ġtired": 1137, "Ġbunny": 1138, "Ġused": 1139, "Ġlooking": 1140, "Ġbus": 1141, "ange": 1142, "air": 1143, "Ġwork": 1144, "Ġwr": 1145, "ting": 1146, "Ġour": 1147, "Ġpull": 1148, "We": 1149, "Ġthr": 1150, "thing": 1151, "ĠNow": 1152, "Ġwait": 1153, "Ġkit": 1154, "Ġsound": 1155, "Ġjo": 1156, "Ġhas": 1157, "ĠG": 1158, "Ġmean": 1159, "Ġpond": 1160, "ember": 1161, "Ġbeh": 1162, "Ġdr": 1163, "Ġsunny": 1164, "led": 1165, "Ġothers": 1166, "Ġask": 1167, "ng": 1168, "chen": 1169, "Ġkitchen": 1170, "Ġtalk": 1171, "Ġflo": 1172, "Ġdif": 1173, "rew": 1174, "Ġpie": 1175, "ĠJo": 1176, "Ġhead": 1177, "Ġreal": 1178, "Ġfirst": 1179, "Ġtri": 1180, "Ġmommy": 1181, "Ġeyes": 1182, "ello": 1183, "Ġimport": 1184, "Hello": 1185, "Ġfav": 1186, "ath": 1187, "joy": 1188, "Ġz": 1189, "Ġremember": 1190, "Ġright": 1191, "Ġflower": 1192, "Ġcon": 1193, "Ġmess": 1194, "Ġparty": 1195, "Ġcold": 1196, "ĠDo": 1197, "Ġvo": 1198, "Ġswe": 1199, "ious": 1200, "ft": 1201, "Ġsand": 1202, "ĠâĢľ": 1203, "ac": 1204, "orn": 1205, "Ġrace": 1206, "Ġcuri": 1207, "imes": 1208, "Ġimportant": 1209, "Ġduck": 1210, "Ġmoral": 1211, "Ġshared": 1212, "zy": 1213, "ount": 1214, "ĠJack": 1215, "Ġice": 1216, "Ġokay": 1217, "Ġadvent": 1218, "Ġworked": 1219, "llow": 1220, "At": 1221, "Ġenjoy": 1222, "Ġdress": 1223, "Ġbright": 1224, "Ġmaking": 1225, "Ġcurious": 1226, "Ġown": 1227, "ded": 1228, "Ġtall": 1229, "Ġdir": 1230, "Ġhop": 1231, "reed": 1232, "Ġhid": 1233, "Ġfavor": 1234, "Ġri": 1235, "hn": 1236, "Ġsleep": 1237, "Ġdis": 1238, "Wow": 1239, "Ġfavorite": 1240, "Ġthing": 1241, "Ġbegan": 1242, "Ġmon": 1243, "Ġbag": 1244, "Ġhill": 1245, "Don": 1246, "Ġcla": 1247, "Ġdraw": 1248, "Ġrest": 1249, "Ġhere": 1250, "Ġyard": 1251, "Ġtell": 1252, "ĠFin": 1253, "ster": 1254, "Ġwatched": 1255, "que": 1256, "Ġfollow": 1257, "Ġmove": 1258, "Ġbel": 1259, "ect": 1260, "Ġcut": 1261, "Ġnight": 1262, "Ġagreed": 1263, "Ġpick": 1264, "co": 1265, "Ġblock": 1266, "Ġhun": 1267, "aper": 1268, "lly": 1269, "Ġstop": 1270, "Ġbehind": 1271, "ĠThis": 1272, "Ġsurprise": 1273, "ied": 1274, "Ġsho": 1275, "Ġhot": 1276, "After": 1277, "Ġtable": 1278, "Ġgrass": 1279, "Ġworry": 1280, "Ġdark": 1281, "Ġtrees": 1282, "Ġvoice": 1283, "Ġwalking": 1284, "fere": 1285, "Ġfloor": 1286, "Ġfarm": 1287, "Ġlion": 1288, "Ġtop": 1289, "Ġdiffere": 1290, "Ġplease": 1291, "Ġru": 1292, "Ġsong": 1293, "Ġbutter": 1294, "Ġtail": 1295, "Ġsweet": 1296, "Max": 1297, "Ġshout": 1298, "Ġcolors": 1299, "Ġread": 1300, "ĠDad": 1301, "Ġlady": 1302, "Ġforg": 1303, "isy": 1304, "Ġleaves": 1305, "Ġcloser": 1306, "ign": 1307, "Ġcars": 1308, "Ġturned": 1309, "Ġneeded": 1310, "Ġtast": 1311, "Why": 1312, "aring": 1313, "Ġwood": 1314, "Ġcried": 1315, "Ġdifferent": 1316, "Ġlaugh": 1317, "Ġdel": 1318, "Ġpiece": 1319, "ered": 1320, "ĠMr": 1321, "Ġroll": 1322, "Ġadventure": 1323, "Ġfire": 1324, "Ġdoes": 1325, "ike": 1326, "Ġcr": 1327, "Ġhungry": 1328, "Ġhair": 1329, "ĠSuddenly": 1330, "Ġpaper": 1331, "Ġfeeling": 1332, "Ġyellow": 1333, "Ġfull": 1334, "Ġprin": 1335, "bo": 1336, "Sue": 1337, "Ġtouch": 1338, "ĠAs": 1339, "Anna": 1340, "Sam": 1341, "Ġwet": 1342, "Ġfriendly": 1343, "Ġper": 1344, "oom": 1345, "ken": 1346, "cked": 1347, "ached": 1348, "Ġswing": 1349, "Ġfruit": 1350, "ient": 1351, "Ġbroken": 1352, "Ġready": 1353, "bye": 1354, "ppy": 1355, "Ġprom": 1356, "ĠThat": 1357, "Ġanother": 1358, "Ġlight": 1359, "Ġpretend": 1360, "Ġdance": 1361, "ater": 1362, "Ġclimbed": 1363, "where": 1364, "Ġlistened": 1365, "ĠBobo": 1366, "Ġdanc": 1367, "Ġrunning": 1368, "Ġonly": 1369, "Ġplan": 1370, "Ġgone": 1371, "Ġswim": 1372, "bbed": 1373, "Suddenly": 1374, "sh": 1375, "Ġtrain": 1376, "ila": 1377, "ndma": 1378, "Sara": 1379, "ĠJane": 1380, "Ġclose": 1381, "av": 1382, "She": 1383, "Ġsmell": 1384, "aby": 1385, "Ġamaz": 1386, "So": 1387, "Ġhold": 1388, "Ġblocks": 1389, "Ġwonder": 1390, "ĠTimmy": 1391, "Ġrepl": 1392, "ĠAll": 1393, "Ġbutterf": 1394, "Ġsees": 1395, "Ġreached": 1396, "Ġwall": 1397, "Ġpu": 1398, "oney": 1399, "red": 1400, "Ġslow": 1401, "Ġhelping": 1402, "Ġdri": 1403, "Ġcream": 1404, "Ġcool": 1405, "Ġglad": 1406, "af": 1407, "Ġant": 1408, "Ġless": 1409, "ging": 1410, "Ġbeen": 1411, "Ġgoodbye": 1412, "Ġac": 1413, "Ġfight": 1414, "ather": 1415, "Mia": 1416, "Ġpushed": 1417, "iced": 1418, "Ġfair": 1419, "Ġmust": 1420, "Ġhide": 1421, "Ġmoment": 1422, "Ġwindow": 1423, "ĠO": 1424, "Ġsit": 1425, "Ġballoon": 1426, "Ġsnow": 1427, "Ġchild": 1428, "Ġexplore": 1429, "ĠEveryone": 1430, "Ġar": 1431, "Ġwished": 1432, "Ġbaby": 1433, "Ġdone": 1434, "Ġwag": 1435, "Ġste": 1436, "Ġbuy": 1437, "Ġstuck": 1438, "Ġperf": 1439, "Ġthank": 1440, "Ġmight": 1441, "icy": 1442, "Ġname": 1443, "ized": 1444, "Ġtrying": 1445, "Ġbit": 1446, "Ġcoming": 1447, "Ġbar": 1448, "Ġquick": 1449, "Ġfall": 1450, "Ġapple": 1451, "ash": 1452, "Ġscary": 1453, "Ġlooks": 1454, "Ġbuild": 1455, "Ġdoing": 1456, "Ġwin": 1457, "Ġunderst": 1458, "aisy": 1459, "Ġdin": 1460, "Ġdream": 1461, "Ġdirty": 1462, "Ġheld": 1463, "ames": 1464, "Ġbooks": 1465, "Ġmar": 1466, "In": 1467, "Ġbutterfly": 1468, "Ġleft": 1469, "Ġshouted": 1470, "Ġcount": 1471, "Ġreplied": 1472, "avy": 1473, "Ġreach": 1474, "Ġtiny": 1475, "Ġthrough": 1476, "ott": 1477, "Ġdro": 1478, "Ġwhy": 1479, "Ġair": 1480, "Ġbran": 1481, "Ġland": 1482, "key": 1483, "Ġthree": 1484, "Ġpulled": 1485, "Ġspl": 1486, "Ġgrow": 1487, "Ġtreat": 1488, "Ġbrother": 1489, "Ġwise": 1490, "Ġwoods": 1491, "Ġsure": 1492, "'re": 1493, "Ġchair": 1494, "ix": 1495, "Ġmat": 1496, "ins": 1497, "Ġseen": 1498, "Ġpink": 1499, "Ġclapped": 1500, "Ġplant": 1501, "ely": 1502, "Ġowl": 1503, "Ġcup": 1504, "ield": 1505, "Ġsometimes": 1506, "andy": 1507, "Ġfill": 1508, "Ġcloud": 1509, "ask": 1510, "Ġswam": 1511, "outh": 1512, "Ġjob": 1513, "Ġcolorful": 1514, "Ġremembered": 1515, "Ġbigger": 1516, "Ġnest": 1517, "Ġmouth": 1518, "pe": 1519, "Okay": 1520, "Ġlesson": 1521, "Ġjoin": 1522, "Ġcre": 1523, "ph": 1524, "ĠThere": 1525, "oup": 1526, "room": 1527, "art": 1528, "Ġwaved": 1529, "uddy": 1530, "Ġgrabbed": 1531, "Ġstayed": 1532, "Oh": 1533, "Ġpaint": 1534, "This": 1535, "Ġclot": 1536, "Ġcont": 1537, "Ġclothes": 1538, "ower": 1539, "ĠAfter": 1540, "Ġwaited": 1541, "Ġquickly": 1542, "cle": 1543, "Ġword": 1544, "Ġbroke": 1545, "ucky": 1546, "Ġgames": 1547, "Ġcast": 1548, "Ġblew": 1549, "Ġgent": 1550, "ĠMommy": 1551, "Ġenjoyed": 1552, "Ġnoticed": 1553, "Jo": 1554, "ries": 1555, "ation": 1556, "Ġset": 1557, "Ġlikes": 1558, "Ġpictures": 1559, "ton": 1560, "Ġsea": 1561, "Ġheavy": 1562, "Ġmus": 1563, "Ġalone": 1564, "Ġgif": 1565, "asure": 1566, "Ġanything": 1567, "Ġspot": 1568, "Ġmiss": 1569, "Ġhopped": 1570, "Ġworld": 1571, "Ġturns": 1572, "orm": 1573, "Ġyear": 1574, "der": 1575, "Ġbott": 1576, "Ġpat": 1577, "Ġpot": 1578, "Ġpen": 1579, "lc": 1580, "Her": 1581, "Ġmix": 1582, "Ġarm": 1583, "Ġbike": 1584, "Ġtight": 1585, "Ġeverywhere": 1586, "Ġwon": 1587, "Lucy": 1588, "Ġtower": 1589, "Ġthrew": 1590, "Ġhimself": 1591, "Ġfollowed": 1592, "ĠBuddy": 1593, "Ġride": 1594, "man": 1595, "less": 1596, "Ġju": 1597, "Ġje": 1598, "amp": 1599, "Bob": 1600, "ape": 1601, "Ġcomp": 1602, "Ġkey": 1603, "row": 1604, "\".": 1605, "Ġwhite": 1606, "ctor": 1607, "Ġwrong": 1608, "ĠDaisy": 1609, "Ġmakes": 1610, "ĠWhat": 1611, "Ġbreak": 1612, "Ġblack": 1613, "arent": 1614, "ee": 1615, "ner": 1616, "Spot": 1617, "Do": 1618, "Ġdeep": 1619, "thy": 1620, "Ġmusic": 1621, "Ġpol": 1622, "Ġdelic": 1623, "nin": 1624, "cess": 1625, "ued": 1626, "Ġforgot": 1627, "Ġbee": 1628, "Ġparent": 1629, "Ġcastle": 1630, "ves": 1631, "olly": 1632, "Ġem": 1633, "iet": 1634, "Ġwear": 1635, "Ġhit": 1636, "Ġve": 1637, "ister": 1638, "oun": 1639, "Ġquiet": 1640, "Ġround": 1641, "ance": 1642, "Ġstu": 1643, "Ġdanced": 1644, "Ġvis": 1645, "ully": 1646, "Ġwants": 1647, "Ġleaf": 1648, "Ġmonster": 1649, "Ġnap": 1650, "ĠJohn": 1651, "Ġunderstand": 1652, "Ġbowl": 1653, "os": 1654, "rot": 1655, "ren": 1656, "Ġbor": 1657, "Ġtalked": 1658, "itten": 1659, "Ġdry": 1660, "Ġfaster": 1661, "Ġcookies": 1662, "Ġbrought": 1663, "fully": 1664, "Ġleg": 1665, "ross": 1666, "Ġmum": 1667, "zz": 1668, "Ġside": 1669, "ts": 1670, "From": 1671, "Ġsign": 1672, "ĠInside": 1673, "Ġsmart": 1674, "ang": 1675, "cy": 1676, "Ġrocks": 1677, "Ġsomeone": 1678, "His": 1679, "Ġpoin": 1680, "Ġsec": 1681, "Ġsharing": 1682, "Ġfox": 1683, "Ġwell": 1684, "Ġres": 1685, "Ġrel": 1686, "Ġhappen": 1687, "Ġbutton": 1688, "Ġbranch": 1689, "ĠLila": 1690, "Ġreally": 1691, "Ġfinished": 1692, "ence": 1693, "ards": 1694, "Ġdinner": 1695, "Ġsister": 1696, "Ġflying": 1697, "eddy": 1698, "Ġcontin": 1699, "Ġworried": 1700, "Ġele": 1701, "ĠTo": 1702, "Ġvisit": 1703, "ĠMaybe": 1704, "Ġbeach": 1705, "Ġque": 1706, "Ġsecret": 1707, "Ġel": 1708, "ĠSarah": 1709, "Ġking": 1710, "John": 1711, "gy": 1712, "Ġtoday": 1713, "Ġperfect": 1714, "Ġriver": 1715, "Ġeverything": 1716, "Ġsilly": 1717, "Ġshin": 1718, "ĠJoe": 1719, "Ġdanger": 1720, "ipp": 1721, "Ġchildren": 1722, "Ġgu": 1723, "ĠSoon": 1724, "Ġfield": 1725, "Ġfilled": 1726, "Ġfur": 1727, "Ġelse": 1728, "Ġsmiles": 1729, "Ġwelc": 1730, "ĠAt": 1731, "Ġwish": 1732, "ĠEm": 1733, "While": 1734, "Ġsang": 1735, "Ġgi": 1736, "ze": 1737, "Ġpudd": 1738, "Ġsnack": 1739, "Ġeating": 1740, "Ġrealized": 1741, "Ġpieces": 1742, "Ġpromised": 1743, "Ġspr": 1744, "Ġpig": 1745, "Ġfree": 1746, "Ġcontinued": 1747, "Ġbite": 1748, "ead": 1749, "Ġparents": 1750, "Ġcarefully": 1751, "ated": 1752, "itting": 1753, "Ġear": 1754, "Just": 1755, "Ġjar": 1756, "Maybe": 1757, "Ġcow": 1758, "Amy": 1759, "Ġblank": 1760, "Ġdrag": 1761, "stead": 1762, "Ġorange": 1763, "Ġmud": 1764, "Ġcrying": 1765, "Ġblanket": 1766, "Ġenough": 1767, "Ġrolled": 1768, "cket": 1769, "Ġsoup": 1770, "Ġsail": 1771, "Ġpurp": 1772, "imi": 1773, "Ġyes": 1774, "ale": 1775, "Ġdrink": 1776, "Ġsnake": 1777, "ses": 1778, "Ġboun": 1779, "Ġpet": 1780, "Ġcrab": 1781, "Ġthrow": 1782, "Ġlaughing": 1783, "Ġfairy": 1784, "Ġwords": 1785, "Ġamazing": 1786, "Ġbath": 1787, "ich": 1788, "Ġpurple": 1789, "ĠZ": 1790, "Ġwithout": 1791, "ire": 1792, "Ġbottle": 1793, "ord": 1794, "ĠBilly": 1795, "Ġgift": 1796, "Ġgrandma": 1797, "Fin": 1798, "used": 1799, "ons": 1800, "Ġpast": 1801, "Ġmoney": 1802, "iver": 1803, "fort": 1804, "Ġmail": 1805, "ĠGra": 1806, "Ġbarked": 1807, "Ġwagged": 1808, "Ġatt": 1809, "chool": 1810, "Ġmonkey": 1811, "Ġdoctor": 1812, "unch": 1813, "Ġbrown": 1814, "Ġmoved": 1815, "ises": 1816, "Ġasks": 1817, "Ġgetting": 1818, "Ġclosed": 1819, "Ġwhe": 1820, "Ġwelcome": 1821, "Ġsu": 1822, "Ġcandy": 1823, "Ġschool": 1824, "Ġmorning": 1825, "Ġowner": 1826, "Ġlon": 1827, "Ġmother": 1828, "Ġhigher": 1829, "Ġsitting": 1830, "Ġtreasure": 1831, ".âĢĿ": 1832, "Ġsmo": 1833, "!âĢĿ": 1834, "gg": 1835, "Ġdangerous": 1836, "Ġlonely": 1837, "ĠCh": 1838, "Ġliving": 1839, "Ġapples": 1840, "ush": 1841, "Ġshop": 1842, "ased": 1843, "Ġstrange": 1844, "vel": 1845, "Ġshining": 1846, "Ġroad": 1847, "ere": 1848, "ĠTommy": 1849, "Ġcreat": 1850, "una": 1851, "Ġpaw": 1852, "ey": 1853, "Ġra": 1854, "Ġshoes": 1855, "Ġpre": 1856, "ible": 1857, "Ġ-": 1858, "Ġstre": 1859, "Ġtalking": 1860, "althy": 1861, "Ġcaught": 1862, "Ġegg": 1863, "ol": 1864, "Ġpass": 1865, "Ġlake": 1866, "Ġruns": 1867, "Ġbuck": 1868, "Ġletter": 1869, "Ġwings": 1870, "Ġchee": 1871, "fish": 1872, "Ġmad": 1873, "Ġfan": 1874, "asket": 1875, "Ġbasket": 1876, "ass": 1877, "Ġdragon": 1878, "app": 1879, "est": 1880, "Mommy": 1881, "set": 1882, "cks": 1883, "Ġstone": 1884, "Ġthinks": 1885, "Ġstand": 1886, "Ġdelicious": 1887, "Ġnose": 1888, "Ġpuddle": 1889, "Ġtom": 1890, "ĠBl": 1891, "ĠMimi": 1892, "Ġbelie": 1893, "Ġsam": 1894, "Ġfarmer": 1895, "Ġsame": 1896, "Ġyears": 1897, "board": 1898, "Ġteddy": 1899, "Ġbat": 1900, "isk": 1901, "itch": 1902, "Ġmine": 1903, "Ġsear": 1904, "Ġcoat": 1905, "ches": 1906, "igh": 1907, "Ġdays": 1908, "Ġbring": 1909, "Ġgentle": 1910, "Ġfit": 1911, "Ġstart": 1912, "Ġfinally": 1913, "Ġwhist": 1914, "Ġcray": 1915, "Ġscream": 1916, "Ġkite": 1917, "Ġpill": 1918, "phant": 1919, "arm": 1920, "Ġvill": 1921, "gly": 1922, "Ġcho": 1923, "Ġsinging": 1924, "ella": 1925, "sw": 1926, "ined": 1927, "Ġtasty": 1928, "Ġph": 1929, "Ġben": 1930, "Ġtrou": 1931, "Ġshell": 1932, "Ġherself": 1933, "Ġhoped": 1934, "Ġansw": 1935, "Ġwore": 1936, "Ġswings": 1937, "sy": 1938, "Ġhor": 1939, "Ġbelong": 1940, "Please": 1941, "Ġpush": 1942, "Ġbush": 1943, "iskers": 1944, "Ġcarrot": 1945, "Ġarri": 1946, "aughty": 1947, "Ġteach": 1948, "bow": 1949, "ract": 1950, "Ġnaughty": 1951, "Ġelephant": 1952, "Ġdropped": 1953, "Ġshap": 1954, "ier": 1955, "Ġcoll": 1956, "sc": 1957, "Ġteac": 1958, "emy": 1959, "Ġwoke": 1960, "ball": 1961, "Ġpile": 1962, "Ġhiding": 1963, "Ġcour": 1964, "isa": 1965, "erry": 1966, "Ġtouc": 1967, "Ġpuppy": 1968, "Ġmin": 1969, "'ll": 1970, "Ġseem": 1971, "llie": 1972, "Ġtwins": 1973, "ama": 1974, "Ġlunch": 1975, "Ġbow": 1976, "Ġsack": 1977, "Ġpers": 1978, "Ġcourse": 1979, "Ġcheered": 1980, "Ġshapes": 1981, "ĠJen": 1982, "Ġgrew": 1983, "fused": 1984, "Ġrope": 1985, "Ġvillage": 1986, "irth": 1987, "irthday": 1988, "ipped": 1989, "Ġjuice": 1990, "Ġrainbow": 1991, "Ġspin": 1992, "OK": 1993, "Ġshook": 1994, "Jack": 1995, "Ġspoon": 1996, "Ġbench": 1997, "Ġstreet": 1998, "Ġfence": 1999, "ĠFred": 2000, "Ġrob": 2001, "Ġnut": 2002, "Ġcheese": 2003, "Ġprob": 2004, "Ġcute": 2005, "Ġtouched": 2006, "idge": 2007, "col": 2008, "Ġjoy": 2009, "ĠWhiskers": 2010, "Ġarrived": 2011, "Ġseed": 2012, "Ġwar": 2013, "Ġteacher": 2014, "Ġcorn": 2015, "Good": 2016, "Ġforever": 2017, "Ġable": 2018, "Ġbell": 2019, "Ġfew": 2020, "Ġcarry": 2021, "Ġmost": 2022, "Ġplane": 2023, "ĠBlue": 2024, "lem": 2025, "Ġeas": 2026, "lla": 2027, "Ġsounds": 2028, "Ġdes": 2029, "Ġspo": 2030, "Ġproblem": 2031, "Ġbirthday": 2032, "Ġpower": 2033, "Ġinc": 2034, "umb": 2035, "br": 2036, "Ġbugs": 2037, "ilk": 2038, "Ġwonderful": 2039, "Ġdolls": 2040, "Ġbusy": 2041, "ato": 2042, "irp": 2043, "eb": 2044, "Ġwra": 2045, "Ġpromise": 2046, "ĠThank": 2047, "Ġfeels": 2048, "ian": 2049, "ĠEmma": 2050, "eter": 2051, "Ġbread": 2052, "Ġneck": 2053, "Finally": 2054, "Ġmilk": 2055, "Ġrobot": 2056, "Ġrec": 2057, "Ġshy": 2058, "ountain": 2059, "Ġkiss": 2060, "irt": 2061, "Ġheart": 2062, "Ġband": 2063, "Ġcave": 2064, "Ġpocket": 2065, "ub": 2066, "Ġhelpful": 2067, "Ġslowly": 2068, "Ġbelieve": 2069, "Ġshake": 2070, "umpy": 2071, "eared": 2072, "Ġpatient": 2073, "Ġpop": 2074, "Ġob": 2075, "arp": 2076, "Ġlive": 2077, "Ġstorm": 2078, "Ġholding": 2079, "Ġugly": 2080, "Ġtowards": 2081, "Ġupset": 2082, "Ġturt": 2083, "Ġshr": 2084, "adow": 2085, "Ġcover": 2086, "Ġkitten": 2087, "ost": 2088, "ĠRemy": 2089, "Ġsharp": 2090, "Ġdisapp": 2091, "Ġstories": 2092, "Ġsuc": 2093, "Ġhoney": 2094, "ove": 2095, "ĠBella": 2096, "read": 2097, "Ġnoises": 2098, "ĠLe": 2099, "Ġcir": 2100, "Ġballs": 2101, "Ġspark": 2102, "Ġgray": 2103, "Ġdist": 2104, "Ġdirt": 2105, "oggy": 2106, "Ġlate": 2107, "Ġdriver": 2108, "gle": 2109, "Ġseat": 2110, "Ġbucket": 2111, "Ġmeet": 2112, "Ġyoung": 2113, "Ġamazed": 2114, "alm": 2115, "Ġturtle": 2116, "Ġspid": 2117, "Ġtreats": 2118, "Ġmagical": 2119, "unt": 2120, "ator": 2121, "Ġglow": 2122, "Ġseek": 2123, "Ġzoom": 2124, "Ġlem": 2125, "Ġsandw": 2126, "fortable": 2127, "umber": 2128, "Ġtrip": 2129, "Ġmist": 2130, "ourn": 2131, "Ġsplas": 2132, "Ġmark": 2133, "Ġjourn": 2134, "Ġfold": 2135, "Ġmach": 2136, "Ġpuzz": 2137, "Ġpart": 2138, "ling": 2139, "Ġhorse": 2140, "Ġorgan": 2141, "Ġwild": 2142, "Ġprincess": 2143, "pping": 2144, "oose": 2145, "Ġcookie": 2146, "Sure": 2147, "ens": 2148, "Ġhugs": 2149, "ĠMark": 2150, "Ġtaking": 2151, "Ġwheel": 2152, "epend": 2153, "Ġcloth": 2154, "ĠLisa": 2155, "Ġsug": 2156, "Ġinstead": 2157, "Ġbubb": 2158, "Ġstring": 2159, "Ġrud": 2160, "Ġnet": 2161, "Ġdrove": 2162, "iling": 2163, "Ġrude": 2164, "Ġhuge": 2165, "ĠJim": 2166, "Ġcoin": 2167, "Ġstars": 2168, "Ġfighting": 2169, "Ġspicy": 2170, "Ġlucky": 2171, "Be": 2172, "Of": 2173, "Ġcraw": 2174, "Hey": 2175, "Ġbone": 2176, "Ġinv": 2177, "ĠGrandma": 2178, "ors": 2179, "not": 2180, "Ġca": 2181, "pper": 2182, "Ġforget": 2183, "up": 2184, "Ġdi": 2185, "aur": 2186, "Ġsal": 2187, "ĠFinally": 2188, "Ġcannot": 2189, "Ġwhistle": 2190, "Ġcard": 2191, "Ġsick": 2192, "Ġpath": 2193, "Ġcou": 2194, "Ġspider": 2195, "Ġwide": 2196, "Lila": 2197, "Ġfoot": 2198, "Ġsnowman": 2199, "Ġsongs": 2200, "Ġlife": 2201, "Ġpillow": 2202, "ize": 2203, "ular": 2204, "ĠJust": 2205, "Later": 2206, "ĠAnn": 2207, "ert": 2208, "Ġfixed": 2209, "Ġgiant": 2210, "oph": 2211, "rill": 2212, "Ġnod": 2213, "Ġboss": 2214, "Ġlast": 2215, "Ġcomes": 2216, "Ġjoke": 2217, "Ġmoon": 2218, "Ġtaste": 2219, "Ġmachine": 2220, "Ġgrumpy": 2221, "den": 2222, "Ġwave": 2223, "Ġthin": 2224, "Ġdrive": 2225, "Ġcart": 2226, "Ġash": 2227, "Ġser": 2228, "Ġgrab": 2229, "Ġpeace": 2230, "lower": 2231, "Ġdaddy": 2232, "ĠOn": 2233, "ĠLeo": 2234, "ery": 2235, "Ġsel": 2236, "Ġshelf": 2237, "Ġhidden": 2238, "erest": 2239, "Ġsuddenly": 2240, "Ġwasn": 2241, "Ġwrite": 2242, "Ġlanded": 2243, "Ġconfused": 2244, "Ġring": 2245, "Ġchange": 2246, "Ġworm": 2247, "oop": 2248, "Ġinterest": 2249, "Ġchased": 2250, "Ġfruits": 2251, "Ġsour": 2252, "ity": 2253, "Ġmyster": 2254, "Ġbark": 2255, "Ġrad": 2256, "Ġsmooth": 2257, "ĠCome": 2258, "Ġadventures": 2259, "Ġval": 2260, "Ġstepped": 2261, "Ġfle": 2262, "ope": 2263, "Ġoven": 2264, "Ġtakes": 2265, "Ġmissed": 2266, "Ġselfish": 2267, "kin": 2268, "Ġsheep": 2269, "Ġmessy": 2270, "Ġacross": 2271, "To": 2272, "Ġban": 2273, "Ġent": 2274, "Ġexp": 2275, "to": 2276, "Ġce": 2277, "Ġlater": 2278, "elly": 2279, "ĠN": 2280, "ife": 2281, "Ġsticks": 2282, "Ġtie": 2283, "St": 2284, "ever": 2285, "ĠLuna": 2286, "Ġstep": 2287, "Ġbought": 2288, "Ġdrew": 2289, "Ġtea": 2290, "pect": 2291, "irpy": 2292, "box": 2293, "?âĢĿ": 2294, "Ġwash": 2295, "Ġlay": 2296, "Ġpour": 2297, "Ġbeak": 2298, "ose": 2299, "Ġjog": 2300, "Ġgrate": 2301, "Ġducks": 2302, "Ġspe": 2303, "Ġlegs": 2304, "Ġdig": 2305, "Ġfil": 2306, "ĠBu": 2307, "Ġemp": 2308, "mer": 2309, "Ġhope": 2310, "Ġempty": 2311, "Ġslid": 2312, "Ġfeather": 2313, "Ġsleepy": 2314, "Ġdrum": 2315, "amed": 2316, "ars": 2317, "eth": 2318, "Ġzoo": 2319, "Ġpan": 2320, "Ġphone": 2321, "Ġgrateful": 2322, "Ġfing": 2323, "ions": 2324, "Ġlemon": 2325, "let": 2326, "ĠCat": 2327, "Ġclever": 2328, "ĠMolly": 2329, "Ġsmelly": 2330, "nan": 2331, "Ġimag": 2332, "Ġsplash": 2333, "Ġinteresting": 2334, "ĠJill": 2335, "Ġsave": 2336, "Ġchick": 2337, "Ġcalm": 2338, "Ġmed": 2339, "Ġwatching": 2340, "Soon": 2341, "izzy": 2342, "izz": 2343, "Ġplate": 2344, "Ġign": 2345, "yard": 2346, "Ġclouds": 2347, "Ġbanan": 2348, "Ġline": 2349, "Ġfaces": 2350, "Ġba": 2351, "Ġact": 2352, "Ġthough": 2353, "Ġwolf": 2354, "Ġbackyard": 2355, "wel": 2356, "Ġseemed": 2357, "Ġdogs": 2358, "Ġspray": 2359, "Come": 2360, "Ġprot": 2361, "Ġwhole": 2362, "Ġmot": 2363, "Ġfancy": 2364, "ĠDaddy": 2365, "Ġquest": 2366, "Ġarms": 2367, "Ġpuzzle": 2368, "Ġhealthy": 2369, "Ġsupp": 2370, "ward": 2371, "Ġfinish": 2372, "erly": 2373, "Ġalong": 2374, "llo": 2375, "Ġrocket": 2376, "Ġexplain": 2377, "Ġrod": 2378, "dge": 2379, "Ġeasy": 2380, "Ġjewel": 2381, "ont": 2382, "Ġpract": 2383, "Ġjelly": 2384, "ĠChirpy": 2385, "Ġtid": 2386, "Ġfake": 2387, "Ġcrayons": 2388, "Ġwondered": 2389, "Ġmaybe": 2390, "Ġscar": 2391, "Ġship": 2392, "Ġnothing": 2393, "onest": 2394, "Ġemb": 2395, "iger": 2396, "Ġpool": 2397, "Ġlonger": 2398, "Ġanyone": 2399, "ĠBe": 2400, "ĠJerry": 2401, "ually": 2402, "Ġfront": 2403, "Ġworking": 2404, "Ġgives": 2405, "irr": 2406, "Ġpack": 2407, "Ġsuch": 2408, "ĠBunny": 2409, "ocked": 2410, "ment": 2411, "Ġbossy": 2412, "ĠDoggy": 2413, "Ġtrouble": 2414, "Ġsmelled": 2415, "Ġsaved": 2416, "Ġpin": 2417, "rass": 2418, "Ġneigh": 2419, "arrass": 2420, "iting": 2421, "Ġhonest": 2422, "Ġav": 2423, "arge": 2424, "Ġembarrass": 2425, "Ġlift": 2426, "Ġvan": 2427, "Ġforgive": 2428, "Ġtidy": 2429, "Ġweak": 2430, "urse": 2431, "Ġputs": 2432, "unk": 2433, "Ġkick": 2434, "Ġshirt": 2435, "ĠWith": 2436, "Ġmind": 2437, "ĠOllie": 2438, "Ġneighb": 2439, "Ġplants": 2440, "Ġsol": 2441, "ĠMomo": 2442, "Ġgently": 2443, "Ġcozy": 2444, "orrow": 2445, "ming": 2446, "Ġexplor": 2447, "sp": 2448, "Ġmistake": 2449, "Ġyog": 2450, "oc": 2451, "oomy": 2452, "Ġpointed": 2453, "Ġlad": 2454, "Ġaf": 2455, "Ġstood": 2456, "ork": 2457, "Ġonto": 2458, "Ġwaiting": 2459, "Ġjumping": 2460, "Ġprince": 2461, "Ġcross": 2462, "Ġlock": 2463, "Ġcheer": 2464, "Ġqueen": 2465, "ĠWhy": 2466, "ĠMary": 2467, "Ġwing": 2468, "ones": 2469, "we": 2470, "Ġlarge": 2471, "Ġlovely": 2472, "ult": 2473, "Ġsur": 2474, "Ġret": 2475, "And": 2476, "Ġdeer": 2477, "Ġchew": 2478, "Ġcouch": 2479, "Ġbal": 2480, "aughter": 2481, "Ġstret": 2482, "era": 2483, "ĠTheir": 2484, "Ġplaces": 2485, "ĠMy": 2486, "Ġladder": 2487, "Ġreturn": 2488, "raid": 2489, "Ġants": 2490, "Ġdish": 2491, "Ġafraid": 2492, "Ġcleaned": 2493, "Ġtomorrow": 2494, "Ġbuilding": 2495, "Ġsandwich": 2496, "Ġperson": 2497, "Sally": 2498, "ek": 2499, "ned": 2500, "Ġpretended": 2501, "Ġbounce": 2502, "Ġwip": 2503, "gest": 2504, "Ġmatch": 2505, "Ġrich": 2506, "uce": 2507, "Ġpizz": 2508, "Ġgather": 2509, "Ġsearch": 2510, "Ġboring": 2511, "oman": 2512, "ĠSomet": 2513, "Ġteeth": 2514, "Ġhum": 2515, "Kitty": 2516, "My": 2517, "aced": 2518, "Ġdaughter": 2519, "Ġwoman": 2520, "Ġscarf": 2521, "Ġgoes": 2522, "ĠTogether": 2523, "Ġlaw": 2524, "Ġstra": 2525, "Ġswimming": 2526, "Ġfurry": 2527, "Ġsplashed": 2528, "Ġpri": 2529, "Ġloves": 2530, "Ġtrue": 2531, "Ġscreamed": 2532, "Ġlazy": 2533, "Ġgen": 2534, "Ġanswer": 2535, "Ġnumber": 2536, "Ġeag": 2537, "Ġashamed": 2538, "Ġpizza": 2539, "aw": 2540, "Ġappeared": 2541, "Ġfear": 2542, "Ġnearby": 2543, "Ġpowerful": 2544, "Ġflag": 2545, "ĠSt": 2546, "Ġhang": 2547, "vous": 2548, "Ġclown": 2549, "Ġchase": 2550, "Ġmotor": 2551, "Ġwand": 2552, "ĠTV": 2553, "Ġrub": 2554, "Ġsuccess": 2555, "Ġchocol": 2556, "ĠIf": 2557, "Ġcreative": 2558, "Ġtrust": 2559, "Ġwearing": 2560, "Ġnoisy": 2561, "Ġmatter": 2562, "pa": 2563, "Ġhello": 2564, "Ġner": 2565, "Ġtool": 2566, "Ġsaf": 2567, "ĠBird": 2568, "ado": 2569, "Ġnervous": 2570, "elp": 2571, "Ġtest": 2572, "Ġsmiling": 2573, "Ġsold": 2574, "icked": 2575, "oppy": 2576, "osaur": 2577, "Ġcircle": 2578, "mb": 2579, "Ġmap": 2580, "Ġdrank": 2581, "Ġclass": 2582, "Ġtries": 2583, "Ġchocolate": 2584, "ĠPlease": 2585, "Ġimpress": 2586, "Ġknee": 2587, "Ġgener": 2588, "Ġdinosaur": 2589, "Ġpolite": 2590, "Ġmirr": 2591, "ĠBobby": 2592, "ĠTiny": 2593, "Ġballoons": 2594, "Ġgold": 2595, "Ġrare": 2596, "Ġprotect": 2597, "Ġcand": 2598, "Stop": 2599, "ĠGo": 2600, "Ġcarried": 2601, "ensive": 2602, "Ġap": 2603, "Ġshadow": 2604, "Ġmirror": 2605, "gled": 2606, "ĠDon": 2607, "Ġbald": 2608, "Ġgun": 2609, "ina": 2610, "Ġexpensive": 2611, "Ġreg": 2612, "iff": 2613, "Ġmysterious": 2614, "ĠSp": 2615, "Ġpump": 2616, "Ġnote": 2617, "Ġhero": 2618, "Ġmarch": 2619, "Ġhar": 2620, "arl": 2621, "Ġicy": 2622, "Ġrespect": 2623, "Ġweird": 2624, "Ġsnee": 2625, "Ġcri": 2626, "Ġgate": 2627, "Ġsoap": 2628, "ute": 2629, "issors": 2630, "Ġthese": 2631, "Ġpoor": 2632, "Ġtowel": 2633, "Ġwhale": 2634, "Ġfeet": 2635, "Ġtape": 2636, "Ġdizzy": 2637, "itter": 2638, "Ġgenerous": 2639, "ndpa": 2640, "Ġpres": 2641, "ĠBenny": 2642, "nic": 2643, "Ġdisco": 2644, "Help": 2645, "ventually": 2646, "Ġpicnic": 2647, "Ġmic": 2648, "Ġlead": 2649, "Ġsque": 2650, "Ġembarrassed": 2651, "Ġjourney": 2652, "Ġsugar": 2653, "isp": 2654, "scape": 2655, "Ġboot": 2656, "Ġtent": 2657, "Ġpeaceful": 2658, "Ġfat": 2659, "ĠBear": 2660, "Ġscissors": 2661, "Ġtasted": 2662, "Ġyelled": 2663, "Tommy": 2664, "Ġtick": 2665, "Ġmel": 2666, "Ġbrush": 2667, "Ġdancing": 2668, "ness": 2669, "Ġglue": 2670, "Ġhur": 2671, "Ġrough": 2672, "Ġclap": 2673, "Ġbridge": 2674, "ote": 2675, "Ġdecor": 2676, "Ġcloset": 2677, "Ġcrown": 2678, "Ġstir": 2679, "ual": 2680, "imp": 2681, "Ġprint": 2682, "ĠSometimes": 2683, "owed": 2684, "airs": 2685, "ĠHow": 2686, "ume": 2687, "Ġcap": 2688, "Ġmod": 2689, "Ġlamp": 2690, "Ġvase": 2691, "Ġscare": 2692, "Ġgig": 2693, "lebr": 2694, "Ġrelie": 2695, "lves": 2696, "any": 2697, "Ġeld": 2698, "Ġtele": 2699, "Ġcelebr": 2700, "Ġwhisp": 2701, "Ġlog": 2702, "Ġblow": 2703, "rag": 2704, "Ġpainted": 2705, "Ġsco": 2706, "ĠDucky": 2707, "Ġpay": 2708, "erries": 2709, "Ġwis": 2710, "Ġberries": 2711, "Ġmixed": 2712, "Ġspread": 2713, "Ġwouldn": 2714, "Ġcage": 2715, "Ġbake": 2716, "rob": 2717, "getable": 2718, "Ġmountain": 2719, "Ġadm": 2720, "Ġdrawing": 2721, "Ġbecome": 2722, "Ġfamous": 2723, "Ġknocked": 2724, "Ġbean": 2725, "Ġnorm": 2726, "Ġvegetable": 2727, "asp": 2728, "Ġkicked": 2729, "ustr": 2730, "Ġshark": 2731, "ser": 2732, "Ġincred": 2733, "Ġlose": 2734, "Ġnormal": 2735, "Ġwrap": 2736, "ced": 2737, "Ġgroup": 2738, "Ġthick": 2739, "Ġ3": 2740, "Ġfine": 2741, "Ġglass": 2742, "Ġignor": 2743, "Ġclock": 2744, "Ġteam": 2745, "Ġelderly": 2746, "Ġclear": 2747, "Ġcorner": 2748, "Ġfrustr": 2749, "Ġmighty": 2750, "robe": 2751, "Ġcone": 2752, "Ġincredible": 2753, "ĠBr": 2754, "ighed": 2755, "Dad": 2756, "Ġmoms": 2757, "Ġbalance": 2758, "Ġsock": 2759, "Ġspace": 2760, "Ġjam": 2761, "ragile": 2762, "Ġfright": 2763, "Ġorganized": 2764, "Ġbranches": 2765, "Ġroar": 2766, "port": 2767, "Ġsword": 2768, "alous": 2769, "ĠMama": 2770, "Ġguess": 2771, "Ġfool": 2772, "Ġsell": 2773, "Ġfeed": 2774, "ĠSome": 2775, "Ġwhich": 2776, "Ġhorn": 2777, "Ġpresent": 2778, "Ġjealous": 2779, "Ġyarn": 2780, "ony": 2781, "Ġfragile": 2782, "Ġburn": 2783, "Ġunderstood": 2784, "Ġmis": 2785, "Ġstubb": 2786, "Ġter": 2787, "Ġfrustrated": 2788, "Where": 2789, "ray": 2790, "Ġhose": 2791, "cient": 2792, "Ġspent": 2793, "Ġshoe": 2794, "Ġtaught": 2795, "Ġstubborn": 2796, "Ġtwist": 2797, "Ġchan": 2798, "Ġcreature": 2799, "Ġchest": 2800, "Ġspoiled": 2801, "Ġrelieved": 2802, "ym": 2803, "Ġancient": 2804, "ique": 2805, "Ġwake": 2806, "Ġfier": 2807, "Ġpray": 2808, "Ġfierce": 2809, "Ġeggs": 2810, "Ġcab": 2811, "Ġterri": 2812, "Ġbarn": 2813, "Ġord": 2814, "Ġpumpkin": 2815, "Ġcomfortable": 2816, "Ġfrightened": 2817, "orry": 2818, "Ġtoug": 2819, "Ġunique": 2820, "Ġmeasure": 2821, "Ġgoat": 2822, "Ġwagon": 2823, "Ġunus": 2824, "Ġbreath": 2825, "Ġfoolish": 2826, "Ġuseful": 2827, "Ġexploring": 2828, "dle": 2829, "Ġstraw": 2830, "Ġunusual": 2831, "Ġdug": 2832, "Ġclay": 2833, "Ġdiscover": 2834, "Ġtomato": 2835, "ĠPe": 2836, "Ġdead": 2837, "Ġfinding": 2838, "Ġpolice": 2839, "Ġwrote": 2840, "Ġclum": 2841, "Ġexam": 2842, "lace": 2843, "Ġwaves": 2844, "Ġsquare": 2845, "Ġhears": 2846, "Ġcabin": 2847, "Ġtells": 2848, "Ġnecklace": 2849, "Ġdull": 2850, "Ġclumsy": 2851, "Ġtough": 2852, "Ġbubbles": 2853, "Ġnosy": 2854, "kn": 2855, "Ġsearched": 2856, "Together": 2857, "Ġwashed": 2858, "Ġbathroom": 2859, "Ġpaws": 2860, "bby": 2861, "ond": 2862, "unn": 2863, "Ġboard": 2864, "known": 2865, "fic": 2866, "Ġasking": 2867, "Ġcrazy": 2868, "Ġthankful": 2869, "Ġsunf": 2870, "Ġbitter": 2871, "yal": 2872, "Ġpir": 2873, "berry": 2874, "alk": 2875, "Ġind": 2876, "Ġdiffic": 2877, "Ġrose": 2878, "cil": 2879, "Ġswan": 2880, "Ġbloom": 2881, "Ġunknown": 2882, "ĠElla": 2883, "Ġcovered": 2884, "Ġdifficult": 2885, "Ġadd": 2886, "Ġpencil": 2887, "Ġfinger": 2888, "Ġham": 2889, "Ġhoop": 2890, "Ġjet": 2891, "Ġwitch": 2892, "Ġdrop": 2893, "Me": 2894, "Ġ'": 2895, "Ġchicken": 2896, "Ġgloomy": 2897, "apped": 2898, "Ġloyal": 2899, "als": 2900, "Here": 2901, "Ġwealthy": 2902, "com": 2903, "light": 2904, "Ġunl": 2905, "Ġcats": 2906, "Ġending": 2907, "Ġguit": 2908, "bled": 2909, "shine": 2910, "Ġdove": 2911, "Ġjoined": 2912, "Ġcher": 2913, "anut": 2914, "Ġmov": 2915, "Ġterrible": 2916, "Ġyours": 2917, "iant": 2918, "ĠU": 2919, "ĠRex": 2920, "Ġsalad": 2921, "ĠAndy": 2922, "Ġnuts": 2923, "Ġrat": 2924, "Ġlif": 2925, "ground": 2926, "Ġtiger": 2927, "Ġpotato": 2928, "Ġmask": 2929, "xible": 2930, "selves": 2931, "Ġvalue": 2932, "Ġchanged": 2933, "Ġmoving": 2934, "Ġexciting": 2935, "ormous": 2936, "ĠMany": 2937, "Ġbody": 2938, "ĠTr": 2939, "Ġtoast": 2940, "erp": 2941, "Ġzip": 2942, "Ġdisg": 2943, "Ġcheap": 2944, "Ġguitar": 2945, "irsty": 2946, "Ġknowing": 2947, "Ġadventur": 2948, "Ġyourself": 2949, "Ġenormous": 2950, "Ġhairy": 2951, "Every": 2952, "Ġshoot": 2953, "ĠBrown": 2954, "Ġbored": 2955, "Ġpepper": 2956, "Ġremind": 2957, "ory": 2958, "Ġacorn": 2959, "land": 2960, "Ġadventurous": 2961, "Ġsunshine": 2962, "Ġsmaller": 2963, "Ġstuff": 2964, "Ġhats": 2965, "Ġsolve": 2966, "ĠJimmy": 2967, "Ġflexible": 2968, "Ġcost": 2969, "rilliant": 2970, "Ġknife": 2971, "Ġperform": 2972, "Ġsnacks": 2973, "Ġnods": 2974, "Ġshore": 2975, "Ġbrilliant": 2976, "Ġthirsty": 2977, "Ġdelicate": 2978, "Ġfrown": 2979, "Ġdisgust": 2980, "Ġcollect": 2981, "Ġstri": 2982, "Ġseeds": 2983, "Ġcounted": 2984, "Ġasleep": 2985, "Ġbanana": 2986, "reen": 2987, "Ġmailbox": 2988, "iness": 2989, "Ġdough": 2990, "Ġtrick": 2991, "Ġneighbor": 2992, "ungle": 2993, "Ġheal": 2994, "Who": 2995, "live": 2996, "Ġstage": 2997, "ident": 2998, "Ġmarket": 2999, "Ġcube": 3000, "Ġstat": 3001, "Ġjungle": 3002, "Ġsquee": 3003, "mbre": 3004, "Ġexplained": 3005, "ates": 3006, "Ġumbre": 3007, "Ġdisgusting": 3008, "Jim": 3009, "Ġlab": 3010, "Ġjolly": 3011, "Ġflash": 3012, "und": 3013, "Ġfridge": 3014, "inal": 3015, "pid": 3016, "ilt": 3017, "Ġcrane": 3018, "corn": 3019, "Ġsuit": 3020, "Ġrh": 3021, "iddle": 3022, "Ġsunflower": 3023, "Ġtimes": 3024, "ĠAl": 3025, "erpill": 3026, "Ġcaterpill": 3027, "Ġrelax": 3028, "Ġshiver": 3029, "Ġfour": 3030, "Ġisland": 3031, "iginal": 3032, "Ġharm": 3033, "ict": 3034, "ĠWhile": 3035, "ying": 3036, "Ġstupid": 3037, "Ġmedic": 3038, "ĠInstead": 3039, "Ġcomb": 3040, "Ġgoose": 3041, "Ġcro": 3042, "edient": 3043, "ĠWill": 3044, "Ġstove": 3045, "If": 3046, "Are": 3047, "Ġindepend": 3048, "Mum": 3049, "most": 3050, "Ġspring": 3051, "Ġgem": 3052, "Ġbatter": 3053, "Ġsighed": 3054, "Ġvegetables": 3055, "Ġstones": 3056, "pes": 3057, "Ġshine": 3058, "How": 3059, "Ġmedicine": 3060, "Ġdepend": 3061, "Ġrug": 3062, "ĠYour": 3063, "Ġcareless": 3064, "Ġoriginal": 3065, "Ġstamp": 3066, "Ġgar": 3067, "Ġcries": 3068, "Inside": 3069, "gu": 3070, "Ġcarrots": 3071, "Ġscr": 3072, "Ġsuccessful": 3073, "Ġsauce": 3074, "Ġjeep": 3075, "Ġpopcorn": 3076, "Ġmeal": 3077, "Ġobedient": 3078, "Ġalmost": 3079, "Ġmiddle": 3080, "Ġmagn": 3081, "Ġstudy": 3082, "Ġindependent": 3083, "Ġfearful": 3084, "Ġjack": 3085, "met": 3086, "inky": 3087, "Sorry": 3088, "ĠSammy": 3089, "Ġescape": 3090, "Ġcaterpillar": 3091, "Ġserious": 3092, "Ġpeanut": 3093, "Ġbedroom": 3094, "Ġeager": 3095, "aken": 3096, "Ġgets": 3097, "ung": 3098, "Ġparrot": 3099, "Ġstatue": 3100, "Ġhelmet": 3101, "Ġpebb": 3102, "ĠNo": 3103, "Ġfountain": 3104, "Ġraven": 3105, "Ġpasta": 3106, "Ġumbrella": 3107, "Ġcompet": 3108, "There": 3109, "Ġjacket": 3110, "Ġbelonged": 3111, "Ġdest": 3112, "Ġfilthy": 3113, "Ġang": 3114, "Ġdesign": 3115, "Ġborrow": 3116, "Ġcam": 3117, "erable": 3118, "Ġhouses": 3119, "Ġprize": 3120, "Ġhay": 3121, "Ġbrace": 3122, "Ġstanding": 3123, "Ġmiserable": 3124, "Ġraced": 3125, "Ġtaken": 3126, "ages": 3127, "Ġfork": 3128, "Ġcrayon": 3129, "Ġpainting": 3130, "io": 3131, "Ġtriang": 3132, "Ġjug": 3133, "Ġimpressive": 3134, "Ġchoose": 3135, "Ġfig": 3136, "Ġtied": 3137, "iable": 3138, "Ġspotted": 3139, "Ġlifted": 3140, "Ġslipped": 3141, "ours": 3142, "Ġtank": 3143, "Ġthoughtful": 3144, "Ġdependable": 3145, "Ġsteal": 3146, "Ġgarage": 3147, "enny": 3148, "Ġbuilt": 3149, "Ġmush": 3150, "Ġer": 3151, "ipe": 3152, "Ġmole": 3153, "Ġcrawled": 3154, "Ġscale": 3155, "Ġboats": 3156, "Ġpian": 3157, "Ġpant": 3158, "Ġhammer": 3159, "Ġbottom": 3160, "lph": 3161, "Ġcheerful": 3162, "Ġusing": 3163, "Ġsmoke": 3164, "Ġpicks": 3165, "Ġmoder": 3166, "berries": 3167, "Ġshows": 3168, "rn": 3169, "Ġpiano": 3170, "Ġmagnet": 3171, "dile": 3172, "codile": 3173, "Ġhurts": 3174, "inary": 3175, "Ġref": 3176, "Ġcrack": 3177, "Ġeng": 3178, "Ġaunt": 3179, "Ġmelon": 3180, "Ġwaff": 3181, "Ġmodern": 3182, "Ġdolph": 3183, "unnel": 3184, "cream": 3185, "pack": 3186, "Ġtunnel": 3187, "oin": 3188, "Ġarrow": 3189, "Ġreliable": 3190, "Ġhopping": 3191, "Ġmushroom": 3192, "Timmy": 3193, "Ġsquash": 3194, "Ġgum": 3195, "Ġsink": 3196, "Ġmovie": 3197, "Ġtax": 3198, "Ġflute": 3199, "Ġbeet": 3200, "Ġlean": 3201, "Their": 3202, "iv": 3203, "Ġpopular": 3204, "opter": 3205, "icopter": 3206, "Ġcryst": 3207, "Ġones": 3208, "Ġsil": 3209, "Ġcompetit": 3210, "Ġhelicopter": 3211, "aser": 3212, "Ġneeds": 3213, "ipop": 3214, "llipop": 3215, "Ġcrocodile": 3216, "Ġliz": 3217, "Molly": 3218, "Ġpress": 3219, "Ġtroubled": 3220, "Ġpige": 3221, "Ġlocked": 3222, "Ġtricks": 3223, "Ġlollipop": 3224, "Ġplayful": 3225, "Ġhumble": 3226, "Ġtaxi": 3227, "Ġkissed": 3228, "Ġlow": 3229, "appy": 3230, "comfortable": 3231, "amond": 3232, "Ġuncomfortable": 3233, "Ġrid": 3234, "host": 3235, "Ġwander": 3236, "atch": 3237, "Ġangel": 3238, "edy": 3239, "cles": 3240, "Ġtorn": 3241, "Ġgrace": 3242, "Ġanx": 3243, "Ġwrapped": 3244, "Ġmuff": 3245, "Ġtwig": 3246, "Ġpants": 3247, "Ġdisappoin": 3248, "ĠSn": 3249, "Ġhelps": 3250, "Ġdiamond": 3251, "Ġcamera": 3252, "atter": 3253, "oto": 3254, "Ġanxious": 3255, "Ġghost": 3256, "Ġtears": 3257, "Ġruined": 3258, "cident": 3259, "ĠJenny": 3260, "ilty": 3261, "Ġquar": 3262, "aff": 3263, "ĠEven": 3264, "Ġfis": 3265, "opl": 3266, "Ġbelt": 3267, "eropl": 3268, "Ġenv": 3269, "Ġguilty": 3270, "Ġbull": 3271, "Ġaeropl": 3272, "Ġhelpless": 3273, "Ġhappiness": 3274, "Ġlizard": 3275, "Ġboys": 3276, "cut": 3277, "Ġcere": 3278, "Ġwalks": 3279, "Ġpassed": 3280, "cean": 3281, "Ġmeant": 3282, "Ġocean": 3283, "Ġfluffy": 3284, "Ġwire": 3285, "Ġnail": 3286, "Ġbracelet": 3287, "Ġdeaf": 3288, "zed": 3289, "Ġstretch": 3290, "Ġcandle": 3291, "Ġcact": 3292, "tt": 3293, "Ġbeetle": 3294, "Ġmop": 3295, "Ġharmless": 3296, "umpet": 3297, "Ġordinary": 3298, "Ġcollar": 3299, "Ġanswered": 3300, "Ġcop": 3301, "Ġbees": 3302, "Ġtire": 3303, "Ġshape": 3304, "Ġquarrel": 3305, "Ġradio": 3306, "Ġflashlight": 3307, "Ġcrystal": 3308, "Ġharder": 3309, "Ġpoured": 3310, "Ġtrumpet": 3311, "Ġengine": 3312, "Mama": 3313, "Ġpersist": 3314, "Ġhunt": 3315, "Ġtooth": 3316, "Ġcereal": 3317, "Ġinvited": 3318, "Ġcomput": 3319, "Ġtag": 3320, "Ġoffice": 3321, "Ġmelt": 3322, "Ġspill": 3323, "Ġcharm": 3324, "coa": 3325, "Ġlit": 3326, "Ġscoot": 3327, "Ġcomet": 3328, "Ġtriangle": 3329, "ief": 3330, "Ġmug": 3331, "Ġrep": 3332, "ube": 3333, "Ġyogurt": 3334, "Ġspend": 3335, "Ġcompass": 3336, "Ġaccident": 3337, "Ġshade": 3338, "hett": 3339, "aghett": 3340, "aghetti": 3341, "Ġdisappointed": 3342, "Ġlicked": 3343, "Ġcactus": 3344, "Ġpale": 3345, "Ġcush": 3346, "Ġfigure": 3347, "Ġregular": 3348, "Ġgiving": 3349, "Ġavoc": 3350, "Ġsheet": 3351, "Ġwhispered": 3352, "aze": 3353, "uth": 3354, "ellig": 3355, "Ġcreate": 3356, "Ġrecord": 3357, "Ġbarber": 3358, "Ġintellig": 3359, "Ġpipe": 3360, "Ġrode": 3361, "Ġroof": 3362, "Jane": 3363, "Ġthread": 3364, "ither": 3365, "Ġvi": 3366, "Ġload": 3367, "Ġlibr": 3368, "Ġgifted": 3369, "ccol": 3370, "Ġpracticed": 3371, "Ġdelight": 3372, "ccoli": 3373, "Ġharsh": 3374, "asses": 3375, "Ġpow": 3376, "Ġdust": 3377, "ĠTrue": 3378, "Ġbicy": 3379, "azz": 3380, "Ġspaghetti": 3381, "Ġcompassion": 3382, "Ġsailed": 3383, "urkey": 3384, "ubby": 3385, "Ġforward": 3386, "Ġpersistent": 3387, "Ġspeed": 3388, "Ġmitten": 3389, "Ġpro": 3390, "Ġcocoa": 3391, "Ġenvel": 3392, "Ġquestions": 3393, "Ġcomputer": 3394, "Ġcoo": 3395, "Ġfeathers": 3396, "hip": 3397, "Ġglove": 3398, "Bobo": 3399, "Ġrice": 3400, "Ġshrimp": 3401, "Ġdesk": 3402, "Ġstream": 3403, "Ġinse": 3404, "Ġpigeon": 3405, "Ġcharming": 3406, "Ġears": 3407, "Ġcarp": 3408, "lcan": 3409, "Ġenvious": 3410, "Ġknot": 3411, "Ġturkey": 3412, "ud": 3413, "Ġstronger": 3414, "omes": 3415, "Ġcoins": 3416, "Ġtap": 3417, "Ġraft": 3418, "lcano": 3419, "weet": 3420, "Ġtrap": 3421, "umbers": 3422, "Ġaeroplane": 3423, "Ġtrunk": 3424, "Ġwheat": 3425, "Ġboxes": 3426, "Ġchubby": 3427, "Ġcarpet": 3428, "Ġrestless": 3429, "Ġintelligent": 3430, "Ġtube": 3431, "Ġspun": 3432, "Ġdreams": 3433, "Ġhalf": 3434, "Ġfriendship": 3435, "ulif": 3436, "olin": 3437, "Ġloop": 3438, "Ġcrawl": 3439, "Ġbroccoli": 3440, "Ġonion": 3441, "Ġweek": 3442, "Ġdeliver": 3443, "Ġacce": 3444, "anger": 3445, "Ġvide": 3446, "Ġvolcano": 3447, "ĠJake": 3448, "Ġsle": 3449, "Ġtrack": 3450, "Ġbri": 3451, "Ġcaulif": 3452, "Ġvine": 3453, "ye": 3454, "Ġticket": 3455, "Ġthief": 3456, "essie": 3457, "cycle": 3458, "Ġlouder": 3459, "Ġinsect": 3460, "Ġnumbers": 3461, "asing": 3462, "Ġyaw": 3463, "Ġhaircut": 3464, "ital": 3465, "Ġsleeping": 3466, "ugg": 3467, "Ġmill": 3468, "Ġeventually": 3469, "Ġalert": 3470, "Ġexcite": 3471, "Ġpebble": 3472, "Ġhosp": 3473, "Ġattract": 3474, "Ġplanet": 3475, "ĠToday": 3476, "Ġuniver": 3477, "isted": 3478, "ulu": 3479, "Ġhospital": 3480, "Ġeraser": 3481, "Ġreturned": 3482, "Ġdestro": 3483, "Ġgraceful": 3484, "Ġhappening": 3485, "ache": 3486, "ĠOK": 3487, "ĠEmily": 3488, "Ġdecide": 3489, "Ġlearning": 3490, "Ġscreen": 3491, "rework": 3492, "Ġnicely": 3493, "Ġleop": 3494, "Ġcauliflower": 3495, "Ġcompetitive": 3496, "Ġpoem": 3497, "Ġcelebrate": 3498, "Ġcurt": 3499, "Ġpeach": 3500, "Ġsoldier": 3501, "Ġsaus": 3502, "Ġparade": 3503, "atient": 3504, "Ġattractive": 3505, "Ġcurtain": 3506, "Ġdolphin": 3507, "Ġbase": 3508, "Ġviolin": 3509, "Ġways": 3510, "Go": 3511, "ats": 3512, "Ġtravel": 3513, "Ġignorant": 3514, "ulb": 3515, "Ġwheels": 3516, "Ġyach": 3517, "Ġscatter": 3518, "Ġdeter": 3519, "Ġcompassionate": 3520, "Ġbarrel": 3521, "Ġenvelope": 3522, "Ġbubble": 3523, "Ġlying": 3524, "Ġfirework": 3525, "Ġsort": 3526, "Ġquestion": 3527, "zzy": 3528, "ĠPipp": 3529, "Ġscooter": 3530, "Ġdeterm": 3531, "Ġrag": 3532, "Ġbicycle": 3533, "elery": 3534, "Ġneedle": 3535, "ĠFr": 3536, "Ġjudge": 3537, "Ġbulb": 3538, "Ġleopard": 3539, "Ġtem": 3540, "Ġyacht": 3541, "Ġpony": 3542, "Ġcricket": 3543, "Ġorder": 3544, "Ġhomes": 3545, "Ġador": 3546, "tern": 3547, "Ġtruth": 3548, "Ġhook": 3549, "dom": 3550, "Ġrubbed": 3551, "ete": 3552, "igator": 3553, "Ġbushes": 3554, "Sarah": 3555, "Ġuncle": 3556, "Ġcushion": 3557, "Ġspell": 3558, "Ġgrown": 3559, "Ġcooked": 3560, "Ġadorable": 3561, "Ġchalk": 3562, "Ġsoar": 3563, "Ġpurse": 3564, "Ġskin": 3565, "Ġthemselves": 3566, "Ġimpatient": 3567, "Ġcelery": 3568, "Ġtray": 3569, "Ġshells": 3570, "Ġpengu": 3571, "Ġsniff": 3572, "Ġprun": 3573, "Ġwalls": 3574, "Ġseal": 3575, "Ġlively": 3576, "Ġcase": 3577, "Ġalligator": 3578, "Ġdistant": 3579, "Ġradish": 3580, "Ġsaying": 3581, "Ġspeak": 3582, "Ġmotorcycle": 3583, "Ġmeat": 3584, "Ġsend": 3585, "illa": 3586, "Ġspinning": 3587, "Ġforth": 3588, "Ġcounting": 3589, "Ġenth": 3590, "Ġbounced": 3591, "Ġchain": 3592, "Ġed": 3593, "Ġcleaning": 3594, "ebra": 3595, "Ġfilm": 3596, "Ġslept": 3597, "Ġpit": 3598, "Ġsurf": 3599, "Ġmarry": 3600, "usia": 3601, "Ġwallet": 3602, "Ġenthusia": 3603, "Ġmetal": 3604, "urb": 3605, "ebook": 3606, "Ġbin": 3607, "Ġnotebook": 3608, "Ġwiped": 3609, "Ġskip": 3610, "ision": 3611, "chair": 3612, "Ġbiggest": 3613, "Ġimpro": 3614, "Ġavocado": 3615, "Ġbehave": 3616, "Ġdestroy": 3617, "vator": 3618, "Ġbandage": 3619, "Ġlaughs": 3620, "Ġsteak": 3621, "Ġpattern": 3622, "ĠSh": 3623, "Ġpost": 3624, "Ġelevator": 3625, "ĠBuzz": 3626, "usie": 3627, "Ġskipped": 3628, "Ġdive": 3629, "Ġshut": 3630, "Ġunlock": 3631, "Ġdiary": 3632, "ject": 3633, "Ġzebra": 3634, "Ġbags": 3635, "ating": 3636, "Ġarmchair": 3637, "rage": 3638, "aged": 3639, "under": 3640, "Ġdisturb": 3641, "Ġoy": 3642, "Ġpole": 3643, "Ġshowing": 3644, "Ġgathered": 3645, "Ġclub": 3646, "Ġnurse": 3647, "bul": 3648, "Ġearth": 3649, "Ġenc": 3650, "Ġstranger": 3651, "Ġsweater": 3652, "Ġjellyfish": 3653, "Ġscrew": 3654, "Ġtemp": 3655, "ĠPoppy": 3656, "Ġcompl": 3657, "Ġmixer": 3658, "Give": 3659, "Ġskull": 3660, "Ġlime": 3661, "Ġbump": 3662, "bulance": 3663, "Ġambulance": 3664, "nam": 3665, "Ġfather": 3666, "Ġjournal": 3667, "Gra": 3668, "Ġloudly": 3669, "ito": 3670, "Ġfolder": 3671, "Ġshield": 3672, "ĠBet": 3673, "ĠLulu": 3674, "Ġlibrary": 3675, "ĠPeter": 3676, "Ġbuttons": 3677, "Ġplayground": 3678, "Ġtrucks": 3679, "Ġink": 3680, "Ġlights": 3681, "Ġtummy": 3682, "Ġpointing": 3683, "Ġcity": 3684, "Ġdecorate": 3685, "Ġstation": 3686, "irit": 3687, "Ġprep": 3688, "Ġfalls": 3689, "quito": 3690, "ĠPolly": 3691, "Billy": 3692, "ĠFo": 3693, "Ġfu": 3694, "ention": 3695, "nger": 3696, "ĠBirdy": 3697, "lies": 3698, "Ġherb": 3699, "nament": 3700, "Ġornament": 3701, "Ġmodest": 3702, "Ġguard": 3703, "Ġmos": 3704, "Ġknows": 3705, "Ġcord": 3706, "Ġpolish": 3707, "Ġmarble": 3708, "oby": 3709, "Ġmosquito": 3710, "umbled": 3711, "Ġsalt": 3712, "Ġattic": 3713, "Ġwhenever": 3714, "Ġvest": 3715, "ctop": 3716, "Ġresc": 3717, "Ġyet": 3718, "Ġple": 3719, "Ġdisappeared": 3720, "ceed": 3721, "Ġstrawberry": 3722, "Ġonce": 3723, "ĠMum": 3724, "Ġkay": 3725, "Ġbrothers": 3726, "Ġitch": 3727, "Ġpirate": 3728, "Ġfootball": 3729, "Ġsplit": 3730, "kele": 3731, "keleton": 3732, "Ġhipp": 3733, "Ġaut": 3734, "Ġled": 3735, "uring": 3736, "ctopus": 3737, "Ġdriving": 3738, "Ġcable": 3739, "Ġsupport": 3740, "Ġcalling": 3741, "Ġcupboard": 3742, "aky": 3743, "ushed": 3744, "Ġwishes": 3745, "Ġcomplet": 3746, "Ġtripped": 3747, "Ġroot": 3748, "gl": 3749, "Ġkayak": 3750, "Ġoctopus": 3751, "obile": 3752, "Ġadded": 3753, "Ġedge": 3754, "Ġmild": 3755, "stic": 3756, "Ġdetermined": 3757, "Ġsucceed": 3758, "?\".": 3759, "Ġreading": 3760, "omobile": 3761, "Ġcoal": 3762, "Well": 3763, "utes": 3764, "par": 3765, "Ġsuggest": 3766, "Ġstack": 3767, "Ġthunder": 3768, "Ġkindness": 3769, "Ġautomobile": 3770, "Ġcomplain": 3771, "Ġenthusiastic": 3772, "Ġsneeze": 3773, "Ġcartoon": 3774, "Ġyoga": 3775, "ĠLittle": 3776, "Ġgrowl": 3777, "htub": 3778, "Ġflea": 3779, "Ġmeadow": 3780, "la": 3781, "Ġdrawer": 3782, "Ġbathtub": 3783, "Ġribb": 3784, "ophone": 3785, "Ġmeans": 3786, "Ġhall": 3787, "Ġgolf": 3788, "Ġskeleton": 3789, "Ġmath": 3790, "Ġveil": 3791, "Ġhunter": 3792, "Ġgor": 3793, "Ġflame": 3794, "Ġpoke": 3795, "Ġvideo": 3796, "Ġchess": 3797, "Ġtroph": 3798, "Ġcups": 3799, "Ġglowing": 3800, "Ġmatt": 3801, "Ġoyster": 3802, "work": 3803, "Ġpenny": 3804, "Ġspear": 3805, "Ġitself": 3806, "Ġdrawings": 3807, "Ġhippo": 3808, "Ġrepair": 3809, "Ġswitch": 3810, "glasses": 3811, "Ġsunglasses": 3812, "Ġteleph": 3813, "Ġcostume": 3814, "Ġdess": 3815, "Ġzipp": 3816, ",âĢĿ": 3817, "Ġrepe": 3818, "Ġmuffin": 3819, "Ġarg": 3820, "Ġpastry": 3821, "Ġpun": 3822, "Ġrolling": 3823, "Ġminutes": 3824, "Ġpacked": 3825, "Ġmakeup": 3826, "iron": 3827, "ric": 3828, "ĠPeople": 3829, "Ġwaffle": 3830, "case": 3831, "Ġhandle": 3832, "Ġpear": 3833, "Ġmaze": 3834, "Ġtelephone": 3835, "Ġpine": 3836, "ait": 3837, "Ġgear": 3838, "Ġhedge": 3839, "Ġmattress": 3840, "Ġpackage": 3841, "aving": 3842, "ĠMiss": 3843, "Ġshocked": 3844, "ines": 3845, "Ġtrophy": 3846, "Ġpowder": 3847, "Ġknight": 3848, "Ġcob": 3849, "Ġmissile": 3850, "Ġmanaged": 3851, "Ġframe": 3852, "Ġencou": 3853, "Ġwife": 3854, "Ġok": 3855, "Ġsepar": 3856, "web": 3857, "Ġstairs": 3858, "Ġrot": 3859, "Ġcamp": 3860, "time": 3861, "urch": 3862, "rophone": 3863, "Ġmagaz": 3864, "Ġcolour": 3865, "Ġgrapes": 3866, "Ġfile": 3867, "head": 3868, "ĠTina": 3869, "Ġbasketball": 3870, "Bye": 3871, "old": 3872, "per": 3873, "Ġcobweb": 3874, "Re": 3875, "Jimmy": 3876, "ĠTweet": 3877, "See": 3878, "Ġperm": 3879, "Ġwool": 3880, "ĠDan": 3881, "Ġmicrophone": 3882, "esday": 3883, "Ġeye": 3884, "Ġleash": 3885, "Ġgasp": 3886, "iew": 3887, "keep": 3888, "Ġweep": 3889, "Ġbarking": 3890, "ature": 3891, "Ġsafely": 3892, "Ġtear": 3893, "Ġview": 3894, "Ġslides": 3895, "offe": 3896, "Ġsteps": 3897, "istol": 3898, "offee": 3899, "Ġbananas": 3900, "Ġstaff": 3901, "Ġspirit": 3902, "Ġtask": 3903, "Ġgiggled": 3904, "Ġhoc": 3905, "Ġhockey": 3906, "Ġvend": 3907, "Ġthose": 3908, "Ġgorilla": 3909, "Jill": 3910, "Ġcooler": 3911, "ĠRose": 3912, "was": 3913, "cing": 3914, "Ġearly": 3915, "Ġmarched": 3916, "rosc": 3917, "Ġmint": 3918, "ĠLook": 3919, "washer": 3920, "Ġflour": 3921, "Ġhotel": 3922, "hic": 3923, "Ġsailor": 3924, "Ġdessert": 3925, "Ġphoto": 3926, "roscope": 3927, "Ġvehic": 3928, "ilot": 3929, "Ġoft": 3930, "Ġoften": 3931, "Ġchurch": 3932, "ĠPete": 3933, "Ġcooking": 3934, "Ġremain": 3935, "Ġfive": 3936, "Ġsausage": 3937, "otter": 3938, "Ġten": 3939, "Ġtools": 3940, "Ġmedal": 3941, "Ġeither": 3942, "Ġfireman": 3943, "chor": 3944, "Ġgrandpa": 3945, "Ġotter": 3946, "Ġbaseball": 3947, "Ġpretending": 3948, "Ġpistol": 3949, "Ġdishwasher": 3950, "Ġrever": 3951, "Ġorganize": 3952, "Ġpee": 3953, "Ġvendor": 3954, "Ġknock": 3955, "Ġsight": 3956, "Ġgrill": 3957, "Ġtemple": 3958, "Ġbattery": 3959, "Ġthinking": 3960, "Ġopens": 3961, "Ġow": 3962, "Ġrealised": 3963, "Ġiron": 3964, "Ġlaser": 3965, "Ġsne": 3966, "Ġsandbox": 3967, "Ġoil": 3968, "Ġpatch": 3969, "Ġhours": 3970, "Ġrise": 3971, "Ġwhip": 3972, "'d": 3973, "ctory": 3974, "ĠGive": 3975, "Ġanchor": 3976, "Ġtrash": 3977, "ense": 3978, "Ġshort": 3979, "ney": 3980, "ĠBetty": 3981, "Ġrhin": 3982, "Ġfactory": 3983, "seum": 3984, "Ġmay": 3985, "Ġward": 3986, "ately": 3987, "Ġcardboard": 3988, "ugged": 3989, "Ġlotion": 3990, "Al": 3991, "Ġmessage": 3992, "Ġvalu": 3993, "Ġwardrobe": 3994, "Ġcell": 3995, "Ġmuseum": 3996, "apers": 3997, "Ġur": 3998, "ination": 3999, "Ġhanging": 4000, "ucet": 4001, "ailable": 4002, "ĠSunny": 4003, "ĠZoom": 4004, "Ġhive": 4005, "eer": 4006, "Ġtowers": 4007, "keeper": 4008, "Ġblackboard": 4009, "Ġmem": 4010, "Ġexcitement": 4011, "Ġcoffee": 4012, "Ġpilot": 4013, "ready": 4014, "Fluffy": 4015, "Ġnapkin": 4016, "Ġpenguin": 4017, "ron": 4018, "Ġcheck": 4019, "Ġreward": 4020, "loo": 4021, "Ġquit": 4022, "ĠPippin": 4023, "Ġcane": 4024, "Ġpicking": 4025, "place": 4026, "ĠSnow": 4027, "azor": 4028, "Ġfaucet": 4029, "Ġig": 4030, "Ġpassport": 4031, "ĠRob": 4032, "Ġstumbled": 4033, "Ġdreamed": 4034, "Ġigloo": 4035, "ĠBessie": 4036, "aroo": 4037, "angaroo": 4038, "Ġfreez": 4039, "Ġjuicy": 4040, "Ġallowed": 4041, "play": 4042, "Ġholds": 4043, "Ġalready": 4044, "Ġavailable": 4045, "Ġsett": 4046, "Ġbathe": 4047, "Ġtornado": 4048, "imney": 4049, "Ġfingers": 4050, "htray": 4051, "Ġhanger": 4052, "Ġnewsp": 4053, "Ġsize": 4054, "Ġlaund": 4055, "Ġlend": 4056, "Ġchimney": 4057, "Ġlaundry": 4058, "Ġoak": 4059, "Ġfisher": 4060, "Ġkangaroo": 4061, "Ġmen": 4062, "ĠEverywhere": 4063, "Ġtelling": 4064, "Em": 4065, "Ġnovel": 4066, "body": 4067, "Ġmummy": 4068, "Ġpal": 4069, "Ġmule": 4070, "Ġcherries": 4071, "Ġnotice": 4072, "Ġpractice": 4073, "Ġspilled": 4074, "Ġreind": 4075, "Ġcomplete": 4076, "Ġenjoying": 4077, "Ġmicroscope": 4078, "arian": 4079, "ampoo": 4080, "Ġgain": 4081, "Ġsub": 4082, "Ġfireplace": 4083, "Ġimagine": 4084, "anda": 4085, "Ġdisplay": 4086, "ocer": 4087, "ĠZip": 4088, "Ġfastest": 4089, "Ġmagazine": 4090, "Ġhurry": 4091, "Ġcabinet": 4092, "Ġshrink": 4093, "Ġashtray": 4094, "Wait": 4095, "Ġcows": 4096, "ĠSpike": 4097, "Joe": 4098, "gen": 4099, "Ġpalace": 4100, "Ġimprove": 4101, "aches": 4102, "Ġrake": 4103, "Ġreindeer": 4104, "Ġfalling": 4105, "oceros": 4106, "Ġskirt": 4107, "ured": 4108, "Ġdiscovered": 4109, "Ġstared": 4110, "Ġroared": 4111, "aid": 4112, "Ġsilver": 4113, "Ġtub": 4114, "Ġtrail": 4115, "Is": 4116, "Ġminer": 4117, "come": 4118, "Ġbill": 4119, "iction": 4120, "Ġfog": 4121, "Ġax": 4122, "stairs": 4123, "ilet": 4124, "Ġhut": 4125, "Ġhappier": 4126, "Ġtaller": 4127, "ictionary": 4128, "Ġoats": 4129, "Ġfisherman": 4130, "Ġobject": 4131, "Ġpor": 4132, "vision": 4133, "Ġvaluable": 4134, "Ġshampoo": 4135, "Ġholes": 4136, "Ġoffered": 4137, "Ġboots": 4138, "Ġrhinoceros": 4139, "Ġnames": 4140, "Ġtoilet": 4141, "Ġclimbing": 4142, "Ġblin": 4143, "vice": 4144, "Ow": 4145, "Ġstretched": 4146, "iest": 4147, "Ġzipper": 4148, "Ġlistening": 4149, "Ġsym": 4150, "Ġbathrobe": 4151, "alend": 4152, "Ġjewelry": 4153, "ĠHere": 4154, "Ġjokes": 4155, "Ġtelevision": 4156, "Ġprov": 4157, "Ġcalend": 4158, "Ġstops": 4159, "Ġaxe": 4160, "Ġjumps": 4161, "Ġfuel": 4162, "Ġsparkly": 4163, "cu": 4164, "Ġperfume": 4165, "ĠSusie": 4166, "Ġbury": 4167, "bol": 4168, "Mummy": 4169, "Ġpressed": 4170, "ĠKim": 4171, "reek": 4172, "Ġrece": 4173, "ĠToby": 4174, "Ġneat": 4175, "Ġcreek": 4176, "Ġpopped": 4177, "Ġopera": 4178, "Ġcalendar": 4179, "Ġsnap": 4180, "Ġgasped": 4181, "Ġattach": 4182, "Ġsymbol": 4183, "Ġtuna": 4184, "ĠMar": 4185, "Ġpapers": 4186, "Mr": 4187, "Ġunpack": 4188, "Ġresist": 4189, "Ġdictionary": 4190, "Ġsubway": 4191, "Ġletters": 4192, "Ġfreezer": 4193, "Ġchose": 4194, "Ġpinch": 4195, "zag": 4196, "Ġspoke": 4197, "Ġanyway": 4198, "Ġsuper": 4199, "Ġporch": 4200, "Ġhelper": 4201, "affe": 4202, "Ġbikes": 4203, "Ġlie": 4204, "arry": 4205, "iches": 4206, "Ġtightly": 4207, "Ġcomfort": 4208, "Ġshaking": 4209, "Ġbookcase": 4210, "Ġson": 4211, "Ġrazor": 4212, "aurant": 4213, "Ġsandwiches": 4214, "ĠAre": 4215, "Ġext": 4216, "igzag": 4217, "Ġweigh": 4218, "Ġagainst": 4219, "Ġstickers": 4220, "Ġrestaurant": 4221, "Ġnewspaper": 4222, "Ġblouse": 4223, "te": 4224, "Ġvehicle": 4225, "Ġswinging": 4226, "Ġped": 4227, "Ġdisag": 4228, "Ġnature": 4229, "Ġsquirrels": 4230, "ival": 4231, "Ġbelongs": 4232, "Ġswamp": 4233, "Ġincl": 4234, "Ġbutterflies": 4235, "Ġgym": 4236, "Ġgrowing": 4237, "Ġbuckle": 4238, "omed": 4239, "Ġstirred": 4240, "Ġmustache": 4241, "Ġbillboard": 4242, "xy": 4243, "Ġbeep": 4244, "Ġalarm": 4245, "Ġlightning": 4246, "Ġlip": 4247, "Ġfest": 4248, "Ġhung": 4249, "utor": 4250, "Ġdistance": 4251, "ogn": 4252, "Ġcards": 4253, "Ġobser": 4254, "Ġagree": 4255, "Little": 4256, "Ġtease": 4257, "Ġrecogn": 4258, "Ġrubber": 4259, "ik": 4260, "Ġhate": 4261, "Ġsof": 4262, "fast": 4263, "ef": 4264, "Ouch": 4265, "Ġdoesn": 4266, "Ġmusician": 4267, "Ġadvice": 4268, "Ġbeef": 4269, "Ġserve": 4270, "aspoon": 4271, "Ġsweetie": 4272, "Ġmodel": 4273, "lter": 4274, "Ġcrib": 4275, "Ġblueberries": 4276, "Ġsofa": 4277, "Ġcircles": 4278, "Ġbreakfast": 4279, "Ġtutor": 4280, "asis": 4281, "Ġbookshe": 4282, "Ġgiraffe": 4283, "stri": 4284, "Ġfestival": 4285, "Ġseparate": 4286, "Ġshelter": 4287, "Ġgas": 4288, "Ġairport": 4289, "Ġolive": 4290, "ĠBig": 4291, "Ġrail": 4292, "Ġbookshelf": 4293, "Ġfrogs": 4294, "Ġteaspoon": 4295, "Ġreverse": 4296, "Ġjunk": 4297, "Ġriding": 4298, "Ġpleased": 4299, "Ġdrain": 4300, "ĠMrs": 4301, "Ġwipe": 4302, "Ġoasis": 4303, "Ġsoil": 4304, "Ġahead": 4305, "Ġrescue": 4306, "Ġleaving": 4307, "ummer": 4308, "Ġpainter": 4309, "Ġsqueeze": 4310, "Ġchance": 4311, "Ġpoked": 4312, "Ġknob": 4313, "ĠTeddy": 4314, "Ġpeeked": 4315, "Ġlumber": 4316, "Ġtrains": 4317, "Ġextra": 4318, "Ġslipp": 4319, "Ġquiz": 4320, "Ġrefused": 4321, "res": 4322, "rmomet": 4323, "Ġpage": 4324, "Ġrules": 4325, "Ġhappens": 4326, "Ġsounded": 4327, "Ġins": 4328, "Ġpoint": 4329, "Ġwinter": 4330, "Ġdancer": 4331, "ĠGrandpa": 4332, "Ġbirdc": 4333, "Ġdisappear": 4334, "rmometer": 4335, "ĠDolly": 4336, "Ġweather": 4337, "Ġwaste": 4338, "Ġlic": 4339, "Ġbirdcage": 4340, "Ġtheater": 4341, "Ġreef": 4342, "Ġcarrying": 4343, "Daisy": 4344, "Ġinvite": 4345, "iform": 4346, "Ġgoal": 4347, "Ġostri": 4348, "Ġuniform": 4349, "Ġswung": 4350, "Ġtrade": 4351, "Ġcliff": 4352, "Ġwig": 4353, "ience": 4354, "Ġlawn": 4355, "ola": 4356, "Ġleaned": 4357, "ĠPandy": 4358, "angu": 4359, "Ġaccept": 4360, "Ġadmire": 4361, "Ġfort": 4362, "Ġaccidentally": 4363, "Ġpastel": 4364, "bbles": 4365, "Ġstom": 4366, "Ġlangu": 4367, "Ġtwir": 4368, "Ġsuff": 4369, "Ġpanda": 4370, "riger": 4371, "Ġbet": 4372, "rigerator": 4373, "Ġpeek": 4374, "render": 4375, "Ġblinked": 4376, "Ġstarts": 4377, "Ġrefrigerator": 4378, "Ġanywhere": 4379, "!\".": 4380, "Ġimagined": 4381, "Ġdreaming": 4382, "Ġremove": 4383, "night": 4384, "Ġshower": 4385, "ĠLee": 4386, "Ġclassroom": 4387, "Ġceiling": 4388, "Ġcaring": 4389, "ium": 4390, "Ġgrand": 4391, "Ġmissing": 4392, "aked": 4393, "Ġlicense": 4394, "Ġstable": 4395, "Ġthermometer": 4396, "Ġmonkeys": 4397, "astic": 4398, "Ġwarned": 4399, "Ġsummer": 4400, "ĠWhere": 4401, "Ġabove": 4402, "Ġbrick": 4403, "ected": 4404, "Ġcudd": 4405, "Ġproblems": 4406, "amber": 4407, "Ġchasing": 4408, "Ġlabel": 4409, "Ġapron": 4410, "Ġsent": 4411, "urnit": 4412, "urniture": 4413, "Ġlawy": 4414, "Ġlid": 4415, "uggage": 4416, "med": 4417, "Ġrespectful": 4418, "Ġfurniture": 4419, "Ġfrowned": 4420, "Ġzoomed": 4421, "Ġpages": 4422, "Ġprevent": 4423, "Ġbent": 4424, "Ġluggage": 4425, "Ġmistakes": 4426, "Ġsunset": 4427, "Ġostrich": 4428, "ison": 4429, "Ġsuggested": 4430, "Ġwindows": 4431, "ations": 4432, "Ġjail": 4433, "low": 4434, "Ġwine": 4435, "Ġribbon": 4436, "Ġolder": 4437, "Ġshouts": 4438, "Ġgrape": 4439, "ĠCl": 4440, "Ġstrug": 4441, "ĠCo": 4442, "ucture": 4443, "Ġstructure": 4444, "Ġspoil": 4445, "eor": 4446, "Ġfixing": 4447, "Ġchamber": 4448, "Ġlions": 4449, "Ġdelay": 4450, "Ġfinds": 4451, "Ġhanded": 4452, "Ġsearching": 4453, "Ġunite": 4454, "Did": 4455, "Ġfought": 4456, "Ġlawyer": 4457, "Ġbrightly": 4458, "Ġpair": 4459, "Ġmeeting": 4460, "Ġchoice": 4461, "Ġsurprises": 4462, "ĠUn": 4463, "ĠEllie": 4464, "Ġart": 4465, "Ch": 4466, "Ġfavour": 4467, "eterin": 4468, "eterinarian": 4469, "adium": 4470, "Ġstadium": 4471, "Ġproudly": 4472, "iki": 4473, "Ġveterinarian": 4474, "vet": 4475, "Ġchairs": 4476, "rod": 4477, "Ġslip": 4478, "ĠSpe": 4479, "Ġsadly": 4480, "ĠBow": 4481, "Ġincre": 4482, "ĠCarl": 4483, "Ġpuddles": 4484, "Ġberry": 4485, "Ġintrod": 4486, "Ġranch": 4487, "veal": 4488, "ĠBoun": 4489, "Ġargue": 4490, "ĠV": 4491, "Ġadmired": 4492, "Ġcur": 4493, "Ġfavourite": 4494, "Your": 4495, "Ġinf": 4496, "Ġexcitedly": 4497, "Ġrac": 4498, "Ġgrabs": 4499, "mend": 4500, "Ġsteam": 4501, "thank": 4502, "Ġhuman": 4503, "eorge": 4504, "sity": 4505, "ĠHel": 4506, "Ġpushing": 4507, "Ġsaving": 4508, "ĠRed": 4509, "Ġreveal": 4510, "ommend": 4511, "alley": 4512, "Ġyield": 4513, "olog": 4514, "Ġmall": 4515, "Ġreminded": 4516, "Ġrecommend": 4517, "Ġleak": 4518, "Ġsurrender": 4519, "Ġharb": 4520, "Ġappl": 4521, "cuss": 4522, "aul": 4523, "Ġweap": 4524, "Ġregret": 4525, "Ġputting": 4526, "Ġvalley": 4527, "Ġmineral": 4528, "Ġevening": 4529, "chan": 4530, "elcome": 4531, "Ġmatches": 4532, "Ġforgave": 4533, "Ġsneezed": 4534, "Ġpup": 4535, "Ġaw": 4536, "Ġrushed": 4537, "ecause": 4538, "Ġspade": 4539, "Ġapolog": 4540, "Ġplates": 4541, "Ġdiscuss": 4542, "Ġbeg": 4543, "Ġprepare": 4544, "Ġharbor": 4545, "Ġignore": 4546, "Ġcountry": 4547, "Ġlanguage": 4548, "ĠBuzzy": 4549, "Ġpulls": 4550, "Ġplastic": 4551, "Ġsupply": 4552, "Ġfloat": 4553, "Ġsniffed": 4554, "ĠJazz": 4555, "Ġreplace": 4556, "Ġmeas": 4557, "Ġshovel": 4558, "ĠBill": 4559, "Ġraise": 4560, "ĠNext": 4561, "Ġfre": 4562, "Ġcared": 4563, "Ġsocks": 4564, "Ġstrip": 4565, "Ġdoors": 4566, "Ġmystery": 4567, "Ġlives": 4568, "Ġrestore": 4569, "Ġsticker": 4570, "Ġsudden": 4571, "ari": 4572, "Ġkinds": 4573, "Ġslippery": 4574, "ero": 4575, "ĠOw": 4576, "Ġplayer": 4577, "Ġpanic": 4578, "ricane": 4579, "Ġhoping": 4580, "iday": 4581, "Ġshone": 4582, "lex": 4583, "ude": 4584, "hero": 4585, "ĠMike": 4586, "ĠBinky": 4587, "Ġsuperhero": 4588, "Ġdelighted": 4589, "Ġgro": 4590, "Yay": 4591, "Ġchickens": 4592, "Ġshoulder": 4593, "Ġrained": 4594, "Ġcolourful": 4595, "Ġbreat": 4596, "ĠAlice": 4597, "Ġclaw": 4598, "ĠBubbles": 4599, "Yuck": 4600, "Ġsoftly": 4601, "rise": 4602, "Ġport": 4603, "Grandma": 4604, "Ġhol": 4605, "icer": 4606, "Ġholiday": 4607, "oof": 4608, "Ġbarks": 4609, "ason": 4610, "Ġthrowing": 4611, "Ġplanes": 4612, "Mary": 4613, "Ġbend": 4614, "ĠFreddy": 4615, "Ġshakes": 4616, "Ġinfant": 4617, "Ġended": 4618, "Ġshivering": 4619, "Ġkneel": 4620, "Ġsunrise": 4621, "Ġpushes": 4622, "ĠOlive": 4623, "Ġthanks": 4624, "Ġfresh": 4625, "Ġsuffer": 4626, "Ġpoints": 4627, "imed": 4628, "wards": 4629, "ĠPat": 4630, "Ġtip": 4631, "ĠSpeedy": 4632, "Ġfreeze": 4633, "Ġkeeping": 4634, "ĠWould": 4635, "Ġgiggle": 4636, "Ġcopper": 4637, "Ġsmells": 4638, "Ġdear": 4639, "ah": 4640, "Ġenter": 4641, "Ġprovide": 4642, "cast": 4643, "chanic": 4644, "Ġdishes": 4645, "ĠEnd": 4646, "Ġapplau": 4647, "cond": 4648, "Ġunh": 4649, "Next": 4650, "Ġheads": 4651, "Ġhurricane": 4652, "Ġcherry": 4653, "Ġthumb": 4654, "Ġmenu": 4655, "Ġmeowed": 4656, "Ġmass": 4657, "Ġsecond": 4658, "Ġbrighter": 4659, "ince": 4660, "Ġsandcast": 4661, "Ġmechanic": 4662, "Ġwre": 4663, "Ġsprayed": 4664, "Ġletting": 4665, "Ġevent": 4666, "Ġweapon": 4667, "Ġlaught": 4668, "Ġx": 4669, "Ġlaughter": 4670, "Ġclapping": 4671, "Ġfeelings": 4672, "Will": 4673, "icky": 4674, "Ġsplashing": 4675, "ement": 4676, "ĠOr": 4677, "acked": 4678, "Ġcastles": 4679, "ĠFl": 4680, "cer": 4681, "Ġscore": 4682, "apping": 4683, "Ġuniverse": 4684, "Ġnavy": 4685, "Ġdem": 4686, "Ġsticky": 4687, "ophie": 4688, "Ġrooms": 4689, "Ġrow": 4690, "Ġflies": 4691, "igi": 4692, "ĠDave": 4693, "Ġunhappy": 4694, "Ġgreedy": 4695, "Ġdare": 4696, "Ġalive": 4697, "Ġbreaks": 4698, "Ġener": 4699, "Ġcourage": 4700, "Ġinvit": 4701, "Ready": 4702, "Ġrepeat": 4703, "Ġdemand": 4704, "gie": 4705, "Ġtrusted": 4706, "Lisa": 4707, "Ġsomewhere": 4708, "arlie": 4709, "Ġprune": 4710, "bles": 4711, "Ġwreck": 4712, "ĠY": 4713, "Ġskill": 4714, "Ġexamine": 4715, "Ġparts": 4716, "year": 4717, "Ġeaten": 4718, "oe": 4719, "All": 4720, "erc": 4721, "enry": 4722, "Ġmention": 4723, "Ġraining": 4724, "ĠHelp": 4725, "Ġsnug": 4726, "Buddy": 4727, "Ġthrows": 4728, "Ġjogged": 4729, "quest": 4730, "Ġstarting": 4731, "Ġrush": 4732, "Ġpoison": 4733, "Ġpirates": 4734, "heart": 4735, "Ġvac": 4736, "Ġcontent": 4737, "Emma": 4738, "ĠKiki": 4739, "Ġsigh": 4740, "Ġflapped": 4741, "Ġdrops": 4742, "Ġchirp": 4743, "Ġsport": 4744, "Qu": 4745, "Ġsparkled": 4746, "ĠZoomy": 4747, "Ġgiven": 4748, "Ġstreng": 4749, "Ġsteel": 4750, "Ann": 4751, "Ġbumped": 4752, "Ġyawned": 4753, "Ġstud": 4754, "Ġrequest": 4755, "Ġscold": 4756, "Ġmyself": 4757, "Ġstrength": 4758, "Ġshrugged": 4759, "Mark": 4760, "Ġcoats": 4761, "Ġpunish": 4762, "Ġequ": 4763, "Ġuniversity": 4764, "Ġpaid": 4765, "ĠJohnny": 4766, "Ġpigs": 4767, "Ġscratch": 4768, "Ġtoe": 4769, "Ġexerc": 4770, "Ġtracks": 4771, "Ġupstairs": 4772, "Ġprayed": 4773, "Ġcrossed": 4774, "Ġsqueezed": 4775, "Ġimpressed": 4776, "Ġflood": 4777, "Ġbouncing": 4778, "Alice": 4779, "Ġrabbits": 4780, "ges": 4781, "Ġbadly": 4782, "..": 4783, "Ġwarn": 4784, "Ġleather": 4785, "Ġtug": 4786, "Ġexpect": 4787, "Ġnews": 4788, "Ġtide": 4789, "ĠTed": 4790, "Ġminute": 4791, "Ġbears": 4792, "Ġclaws": 4793, "Ġbuzz": 4794, "Ġsweetheart": 4795, "ĠSm": 4796, "yth": 4797, "Ġnation": 4798, "Sh": 4799, "ythm": 4800, "Ġvacation": 4801, "Ġhist": 4802, "Ġheat": 4803, "Ġstrawberries": 4804, "Ġobserve": 4805, "Ġexplored": 4806, "Ġsettle": 4807, "Ġsandcastle": 4808, "Ġyawn": 4809, "Ġhistory": 4810, "ĠLilly": 4811, "ĠLola": 4812, "mare": 4813, "ĠMummy": 4814, "ĠSque": 4815, "ially": 4816, "inking": 4817, "Ġbelieved": 4818, "Ġhorses": 4819, "Daddy": 4820, "ĠHoppy": 4821, "Ġchecked": 4822, "ĠMandy": 4823, "Ġtour": 4824, "Ġnetwork": 4825, "Ġcheek": 4826, "ĠUnder": 4827, "Ġoffer": 4828, "Ġeasily": 4829, "Ġplaced": 4830, "spec": 4831, "Ġspots": 4832, "Ġsnowball": 4833, "ween": 4834, "men": 4835, "Ġenergy": 4836, "ĠBee": 4837, "Ġimagination": 4838, "Ġblueberry": 4839, "otten": 4840, "Ġbetween": 4841, "specially": 4842, "ĠGigi": 4843, "izes": 4844, "Ġdaisy": 4845, "Ġwaving": 4846, "reeze": 4847, "reat": 4848, "Ġvroom": 4849, "Ġsoak": 4850, "Ġsafari": 4851, "Ġrhythm": 4852, "Ġmassage": 4853, "Ġstomach": 4854, "Ġbaking": 4855, "quake": 4856, "Ġnightmare": 4857, "Ġinsisted": 4858, "Ġblowing": 4859, "Ġentered": 4860, "Before": 4861, "Ġstair": 4862, "Ġpalm": 4863, "Ġbeauty": 4864, "Ġtwisted": 4865, "Ġbother": 4866, "Ġwriting": 4867, "Ġscoop": 4868, "Ġprunes": 4869, "Ġbrain": 4870, "Ġing": 4871, "ipment": 4872, "Ġpoppy": 4873, "Ġhills": 4874, "noon": 4875, "Ġafternoon": 4876, "Ġequipment": 4877, "Ġespecially": 4878, "ĠRu": 4879, "hest": 4880, "Ġsir": 4881, "Ġpad": 4882, "ĠSee": 4883, "Ġingred": 4884, "ĠFox": 4885, "Ġcalls": 4886, "Ġingredient": 4887, "Ġearthquake": 4888, "Ġignored": 4889, "ĠSnowy": 4890, "Ġburned": 4891, "Ġnobody": 4892, "mble": 4893, "Ġsty": 4894, "apa": 4895, "Ġsew": 4896, "isty": 4897, "xygen": 4898, "Ġhearts": 4899, "Ġlear": 4900, "Ġlearnt": 4901, "Ġlemonade": 4902, "Ġincrease": 4903, "illie": 4904, "Jenny": 4905, "Ġgaz": 4906, "Ġbackpack": 4907, "Ġmailman": 4908, "Ġwhistled": 4909, "Ġpedal": 4910, "ĠSk": 4911, "Fred": 4912, "Ġshopkeeper": 4913, "ffic": 4914, "Ġpermit": 4915, "Ġtremble": 4916, "Ġyucky": 4917, "anges": 4918, "Ġmoves": 4919, "Ġintroduce": 4920, "Ġlemons": 4921, "Ġcrash": 4922, "Ġbeans": 4923, "Ġfloated": 4924, "edn": 4925, "ednesday": 4926, "ittens": 4927, "Welcome": 4928, "Ġplanned": 4929, "Ġstrike": 4930, "Ġtraffic": 4931, "Ġinclude": 4932, "Ġslap": 4933, "Ġracing": 4934, "ĠLucky": 4935, "resses": 4936, "Ġwisdom": 4937, "Ġpur": 4938, "Ġwags": 4939, "ĠFinny": 4940, "laimed": 4941, "ĠGeorge": 4942, "Ġluck": 4943, "Ġfollowing": 4944, "Ġprice": 4945, "ecting": 4946, "Ġmama": 4947, "Ġpitch": 4948, "Ġbelow": 4949, "ĠElly": 4950, "ĠHave": 4951, "Le": 4952, "Ġweight": 4953, "Ġexclaimed": 4954, "house": 4955, "Ġburied": 4956, "Ġfollows": 4957, "Ġcomf": 4958, "Ġrecognize": 4959, "Ġingredients": 4960, "Ġfurt": 4961, "tain": 4962, "mem": 4963, "Ġcandles": 4964, "Mimi": 4965, "Ġmarbles": 4966, "riage": 4967, "unday": 4968, "emember": 4969, "eration": 4970, "ĠAlex": 4971, "Ġapart": 4972, "ĠWednesday": 4973, "Ġgrowled": 4974, "uct": 4975, "ores": 4976, "Ġconf": 4977, "Ġteaching": 4978, "Ġhopes": 4979, "Ġfolded": 4980, "Ġclosely": 4981, "ĠFinn": 4982, "ĠWho": 4983, "Ġheel": 4984, "ĠSu": 4985, "ĠSunday": 4986, "Ġencourage": 4987, "ĠPaul": 4988, "ĠOwl": 4989, "Ġzigzag": 4990, "Ġpulling": 4991, "Ġbouncy": 4992, "Ġfurther": 4993, "Ġchewed": 4994, "Ġdigging": 4995, "Ġwinning": 4996, "Woof": 4997, "With": 4998, "Ġdresses": 4999, "Ġimage": 5000, "rec": 5001, "cery": 5002, "Ġencoura": 5003, "Ġshouting": 5004, "Ġgrocery": 5005, "Ġtwisty": 5006, "Ġpeanuts": 5007, "Ġpuzzles": 5008, "bbing": 5009, "ĠDog": 5010, "look": 5011, "Ġscrat": 5012, "Ġchores": 5013, "Ġwhisper": 5014, "ĠIs": 5015, "Ġspike": 5016, "ĠFroggy": 5017, "Ġcape": 5018, "Ġsnail": 5019, "Ġacorns": 5020, "Ġworms": 5021, "hood": 5022, "Ġdeeper": 5023, "Ġurge": 5024, "ifi": 5025, "Ġexper": 5026, "ĠWhenever": 5027, "ĠTilly": 5028, "ĠSqueaky": 5029, "ĠGrace": 5030, "Ġplanted": 5031, "Ġattention": 5032, "ecture": 5033, "Ġexercise": 5034, "ĠDanny": 5035, "Ġcub": 5036, "Ġoperation": 5037, "Ġunderground": 5038, "Ġhon": 5039, "Ġagre": 5040, "Ġquite": 5041, "Ġcreatures": 5042, "Ġsimp": 5043, "Everyone": 5044, "Ġstruggle": 5045, "oral": 5046, "ĠMittens": 5047, "ddy": 5048, "Ġblood": 5049, "Ġlecture": 5050, "Ġwashing": 5051, "Ġhurting": 5052, "Ġvanished": 5053, "Ġgifts": 5054, "Ġdressed": 5055, "Ġinvitation": 5056, "Ġsolved": 5057, "Ġlicks": 5058, "Ġsnuggled": 5059, "ĠSharing": 5060, "ippy": 5061, "Ġble": 5062, "Ġmarriage": 5063, "Ġquietly": 5064, "Ġwarning": 5065, "Ġjazz": 5066, "Ġbreathe": 5067, "reci": 5068, "Ġelephants": 5069, "Ġsizes": 5070, "Ġdried": 5071, "Ġfallen": 5072, "Ġlandscape": 5073, "ories": 5074, "Ġsprink": 5075, "Ġneighbour": 5076, "Ġmice": 5077, "uesday": 5078, "Ġappreci": 5079, "ĠSophie": 5080, "ĠJoey": 5081, "ĠâĢĵ": 5082, "Ġeagerly": 5083, "Ġsailing": 5084, "ĠCoco": 5085, "Ġpaused": 5086, "ips": 5087, "Ġcounter": 5088, "ĠGood": 5089, "ĠBounce": 5090, "ĠPenny": 5091, "Ġworth": 5092, "looking": 5093, "ĠRock": 5094, "Ġoxygen": 5095, "Because": 5096, "Ġrelease": 5097, "Ġshined": 5098, "Not": 5099, "pted": 5100, "Ġreaches": 5101, "Ġbalan": 5102, "ĠZara": 5103, "isses": 5104, "Ġoh": 5105, "Ġkisses": 5106, "Ġstyle": 5107, "Ġbricks": 5108, "Ġplays": 5109, "Ġglo": 5110, "ĠTuesday": 5111, "Ġideas": 5112, "sed": 5113, "Ġinst": 5114, "Ġwob": 5115, "Ġfireworks": 5116, "Bella": 5117, "iggly": 5118, "ucked": 5119, "Ġseeing": 5120, "Ġflap": 5121, "Ġaccepted": 5122, "right": 5123, "ĠPip": 5124, "Today": 5125, "Ġblink": 5126, "mm": 5127, "ĠRos": 5128, "Ġtremb": 5129, "These": 5130, "Ġmuddy": 5131, "Ġmemory": 5132, "Ġmarried": 5133, "Ġtomatoes": 5134, "ĠAnnie": 5135, "Ġexit": 5136, "ops": 5137, "Ġwagging": 5138, "Ġfash": 5139, "Remy": 5140, "ĠCharlie": 5141, "Ġwandered": 5142, "unately": 5143, "ipping": 5144, "Ġgloves": 5145, "Ġcaptain": 5146, "Ġpillows": 5147, "Ġreceive": 5148, "Ġresp": 5149, "ĠPinky": 5150, "Ġduring": 5151, "ĠEverything": 5152, "etch": 5153, "Ġweb": 5154, "Ġpetals": 5155, "Ġwatered": 5156, "ĠEventually": 5157, "ived": 5158, "Ġmanage": 5159, "Ġpinched": 5160, "Ġbrings": 5161, "ux": 5162, "Ġvanish": 5163, "Ġcakes": 5164, "Ġfashion": 5165, "ĠBluey": 5166, "Ġprinter": 5167, "Ġdestroyed": 5168, "Ġtreasures": 5169, "nce": 5170, "Ġallow": 5171, "ups": 5172, "Ġhadn": 5173, "Ġworse": 5174, "ĠFifi": 5175, "Surpr": 5176, "Ġvel": 5177, "Ġhits": 5178, "Ġbur": 5179, "uxu": 5180, "Ġvelvet": 5181, "Ġappear": 5182, "Ġdisagree": 5183, "do": 5184, "Ġcatching": 5185, "Ġscattered": 5186, "ĠRo": 5187, "Ġmemories": 5188, "Ġsorts": 5189, "ĠPapa": 5190, "Ġhers": 5191, "Ġscolded": 5192, "Ġsigns": 5193, "Ġpears": 5194, "Ġoranges": 5195, "Ġbones": 5196, "Ġsnapped": 5197, "Ġrang": 5198, "Ġsits": 5199, "Ġseats": 5200, "Bl": 5201, "Ġgazed": 5202, "Ġraised": 5203, "Ġsi": 5204, "ĠMaria": 5205, "Ġzipped": 5206, "Ġpies": 5207, "Ġprints": 5208, "Ġshot": 5209, "Ġsliding": 5210, "ĠGod": 5211, "Ġfro": 5212, "Ġeasier": 5213, "ssible": 5214, "Ġskills": 5215, "Ġclimbs": 5216, "Ġtwirled": 5217, "ccer": 5218, "Ġblankets": 5219, "ester": 5220, "Ġforgotten": 5221, "Ġapplaud": 5222, "Ġbaked": 5223, "Yum": 5224, "esterday": 5225, "Ġdifference": 5226, "orted": 5227, "Ġluxu": 5228, "Ġgolden": 5229, "ising": 5230, "Ġkitty": 5231, "ĠTw": 5232, "Ġcutting": 5233, "Ġseason": 5234, "aggie": 5235, "Ġnowhere": 5236, "Ġcrow": 5237, "Ġsoccer": 5238, "Ġdared": 5239, "Ġbites": 5240, "ĠHenry": 5241, "ĠHarry": 5242, "anny": 5243, "Ġcelebrated": 5244, "Ġlung": 5245, "choo": 5246, "chie": 5247, "Ġstraight": 5248, "Ġunlocked": 5249, "sters": 5250, "Ġsorting": 5251, "Ġcollected": 5252, "Ġbleed": 5253, "aped": 5254, "Ġwelcomed": 5255, "Ġvisited": 5256, "Ġspoons": 5257, "Ġours": 5258, "Ġstitch": 5259, "Ġjogging": 5260, "Surprise": 5261, "medi": 5262, "Ġemer": 5263, "ĠSpark": 5264, "mediately": 5265, "Ġisn": 5266, "Ġtong": 5267, "Ġtrave": 5268, "Ġwinner": 5269, "umble": 5270, "Ġsince": 5271, "Ġruin": 5272, "Ġprett": 5273, "Ok": 5274, "Moral": 5275, "ĠTony": 5276, "Ġattached": 5277, "Ġweeping": 5278, "Ġmarching": 5279, "Ġluxury": 5280, "Ġsimple": 5281, "ĠEach": 5282, "Ġshouldn": 5283, "Ġguessed": 5284, "Ġzero": 5285, "Ġcreated": 5286, "Ġstuffed": 5287, "Ġpets": 5288, "ction": 5289, "Ġwaist": 5290, "Ġfamil": 5291, "Ġurged": 5292, "Ġbowed": 5293, "Ġselling": 5294, "Ġfloating": 5295, "rr": 5296, "ĠSmith": 5297, "Ġbye": 5298, "ĠKing": 5299, "Ġvict": 5300, "Ġkingdom": 5301, "Ġolives": 5302, "Ġkicking": 5303, "ĠWiggly": 5304, "Ġpunished": 5305, "ĠLiz": 5306, "ĠBaby": 5307, "sit": 5308, "Ġtoes": 5309, "ĠAn": 5310, "Ġgrant": 5311, "Ġmuscles": 5312, "Ġjewels": 5313, "ĠRosie": 5314, "Ġbeds": 5315, "Ġmelted": 5316, "Goodbye": 5317, "Ġslice": 5318, "Ġgrin": 5319, "Ġunderstanding": 5320, "Ġcollection": 5321, "Ġtore": 5322, "Ġmeasured": 5323, "aker": 5324, "Ġcras": 5325, "omeday": 5326, "iers": 5327, "Ġtrapped": 5328, "Ġlined": 5329, "'ve": 5330, "Ġacted": 5331, "fortunately": 5332, "Ġencouraged": 5333, "va": 5334, "ĠSandy": 5335, "Ġreceived": 5336, "Ġwaffles": 5337, "ĠBefore": 5338, "ĠWally": 5339, "Ġwest": 5340, "Ġmeow": 5341, "ents": 5342, "Ġpatterns": 5343, "rin": 5344, "ino": 5345, "eath": 5346, "Ġbrus": 5347, "Ġmouths": 5348, "kins": 5349, "ring": 5350, "ĠKate": 5351, "Meow": 5352, "Ġpeaches": 5353, "Ġbreeze": 5354, "aded": 5355, "une": 5356, "Ġprinted": 5357, "Ġsoldiers": 5358, "Ġsomeday": 5359, "Ġpotatoes": 5360, "Ġpupil": 5361, "umes": 5362, "ĠMillie": 5363, "Ġdrinks": 5364, "Ġshed": 5365, "Ġexperience": 5366, "ĠTuna": 5367, "Ġpresents": 5368, "eep": 5369, "Ġfiref": 5370, "ĠRuby": 5371, "Ġsurround": 5372, "Ġnone": 5373, "osed": 5374, "ann": 5375, "Ġvoices": 5376, "Ġdrinking": 5377, "ĠUncle": 5378, "ishing": 5379, "Ġrelaxed": 5380, "Ġvictory": 5381, "cus": 5382, "Ġpaints": 5383, "Ġbreaking": 5384, "eve": 5385, "Ġhurried": 5386, "ission": 5387, "Ġtwink": 5388, "Ġtongue": 5389, "Ġrecor": 5390, "Ġcostumes": 5391, "Ġflat": 5392, "Ġmentioned": 5393, "Ġbegged": 5394, "Ġteasing": 5395, "Ġwhistling": 5396, "Ġfetch": 5397, "Ġpermission": 5398, "Ġsip": 5399, "Ġdisagreed": 5400, "Ġpearl": 5401, "Ġsix": 5402, "akes": 5403, "Ġstro": 5404, "vest": 5405, "ĠThese": 5406, "Ġesc": 5407, "Ġappro": 5408, "Ġskipping": 5409, "Ġfishing": 5410, "ĠMay": 5411, "Leo": 5412, "Ġhighest": 5413, "Ġpra": 5414, "Ġwatches": 5415, "Ġsorted": 5416, "Ġringing": 5417, "ship": 5418, "Ġtonight": 5419, "ĠBo": 5420, "Ġopin": 5421, "Ġlets": 5422, "icing": 5423, "ĠQu": 5424, "Ġperfectly": 5425, "Ġshadows": 5426, "Ġimmediately": 5427, "Ġherbs": 5428, "Ġwarmth": 5429, "Ġspit": 5430, "Ġremained": 5431, "ther": 5432, "ĠIts": 5433, "walk": 5434, "Bobby": 5435, "irring": 5436, "Jen": 5437, "Ġsneak": 5438, "Ġlips": 5439, "Ġkneeled": 5440, "Blue": 5441, "Ġcontest": 5442, "ĠChe": 5443, "utter": 5444, "Ġcartoons": 5445, "Ġsidewalk": 5446, "Ġcolours": 5447, "Ġstamps": 5448, "Ġago": 5449, "Ha": 5450, "ĠToto": 5451, "ĠBoo": 5452, "ĠFollow": 5453, "Ġeast": 5454, "Ġheaded": 5455, "oved": 5456, "\",": 5457, "Ġstrang": 5458, "Ġladyb": 5459, "Ġfed": 5460, "Ġsupposed": 5461, "Ġroots": 5462, "Ġlick": 5463, "Ġcrunch": 5464, "Ġmixing": 5465, "Ġworks": 5466, "Ġdecorations": 5467, "Ġmelting": 5468, "Ġknown": 5469, "Ġemergen": 5470, "Mandy": 5471, "Ġrested": 5472, "ĠAb": 5473, "Ġlines": 5474, "ĠSuzy": 5475, "Ġlily": 5476, "ĠJul": 5477, "Ġinstr": 5478, "Ġlaid": 5479, "ĠGr": 5480, "Ġsucceeded": 5481, "Ġcones": 5482, "Ġwiggle": 5483, "ety": 5484, "Ġbang": 5485, "Ġshock": 5486, "Ġsetting": 5487, "sing": 5488, "ĠSlow": 5489, "Ġstudied": 5490, "Ġstrangers": 5491, "ĠRocky": 5492, "Really": 5493, "Ġtwigs": 5494, "Ġbrid": 5495, "Ġtheirs": 5496, "ĠDr": 5497, "Ġgirls": 5498, "boo": 5499, "!\",": 5500, "Ġscreams": 5501, "Ġlands": 5502, "Ġordered": 5503, "Ġstirring": 5504, "Ġmoments": 5505, "Ġfields": 5506, "Ġalright": 5507, "Ġstealing": 5508, "Andy": 5509, "Ġrul": 5510, "Ġbravely": 5511, "avid": 5512, "ĠBoth": 5513, "Ġmister": 5514, "!'": 5515, "Ġinvest": 5516, "Ġscratched": 5517, "Ġplaytime": 5518, "Ġripped": 5519, "Ġinvestig": 5520, "Ġtucked": 5521, "Ġresting": 5522, "Ġburning": 5523, "ishes": 5524, "ĠClara": 5525, "ĠChicky": 5526, "Ġbridges": 5527, "Ġtext": 5528, "Ġofficer": 5529, "please": 5530, "Sammy": 5531, "Bird": 5532, "abies": 5533, "Ġsettled": 5534, "Ġmatched": 5535, "Ġachie": 5536, "Ġtexture": 5537, "Happy": 5538, "Ġwaits": 5539, "Ġturning": 5540, "ĠSky": 5541, "Peter": 5542, "ored": 5543, "Ġtrembling": 5544, "isten": 5545, "Ġnails": 5546, "atie": 5547, "Ġmuffins": 5548, "ĠSomeone": 5549, "ids": 5550, "Ġescaped": 5551, "ĠJames": 5552, "Ġpiles": 5553, "Ġinvestigate": 5554, "osity": 5555, "Ġbroom": 5556, "Ġladybug": 5557, "Ġsore": 5558, "ĠPepper": 5559, "Ġappreciate": 5560, "Ġadmir": 5561, "Ġthreat": 5562, "Ġbabies": 5563, "Ġsilence": 5564, "Ġsisters": 5565, "Ġemergency": 5566, "Ġarea": 5567, "ides": 5568, "Ġdads": 5569, "Ġanswers": 5570, "Ġpupp": 5571, "Ġkeys": 5572, "Ġchewing": 5573, "Ġslapped": 5574, "Ġwiz": 5575, "Ġimportance": 5576, "Boo": 5577, "Ġserved": 5578, "ĠHop": 5579, "Ġsafety": 5580, "izing": 5581, "Would": 5582, "Bu": 5583, "Ġsparkle": 5584, "Ġtouching": 5585, "ĠLater": 5586, "Ġsoared": 5587, "igail": 5588, "Ġsings": 5589, "Ġhen": 5590, "allen": 5591, "Ella": 5592, "bers": 5593, "antly": 5594, "Momo": 5595, "ĠDino": 5596, "Ġkeeps": 5597, "Ġamazement": 5598, "Ġchallen": 5599, "Ġtwin": 5600, "Ġhesit": 5601, "Ġrevealed": 5602, "achel": 5603, "Ġitem": 5604, "Ġdire": 5605, "Ġsoaked": 5606, "zing": 5607, "Ġwrit": 5608, "Ġfoods": 5609, "Ġrides": 5610, "Ġdinosaurs": 5611, "Ġrecorded": 5612, "Ġtickle": 5613, "Ġinch": 5614, "ĠZigzag": 5615, "ĠMe": 5616, "Ġwizard": 5617, "Ġvet": 5618, "Ġtrips": 5619, "Ġglowed": 5620, "ĠFrog": 5621, "Mmm": 5622, "Ġhi": 5623, "Ġbeamed": 5624, "Ġquack": 5625, "Ġcurled": 5626, "Ġhated": 5627, "Ġwink": 5628, "Ġshopping": 5629, "Ġeats": 5630, "Eventually": 5631, "ĠBug": 5632, "Ġpraised": 5633, "Ġwooden": 5634, "Ġbringing": 5635, "Ġmittens": 5636, "Ġstudying": 5637, "Ġguy": 5638, "Ġbrushes": 5639, "Ġspaceship": 5640, "Ġgust": 5641, "Ġcrawling": 5642, "ĠSomething": 5643, "Cat": 5644, "Ġruler": 5645, "Ġflav": 5646, "Ġdownstairs": 5647, "Ġshooting": 5648, "Ġtastes": 5649, "Ġnapping": 5650, "Ġsprinkles": 5651, "Ġmarks": 5652, "Ġcuddled": 5653, "Ġdot": 5654, "hello": 5655, "plash": 5656, "Ġfut": 5657, "ales": 5658, "aved": 5659, "Ġfuture": 5660, "Ġmonsters": 5661, "Ġcollecting": 5662, "Ġmeasuring": 5663, "ĠHappy": 5664, "'.": 5665, "Ġfamilies": 5666, "ĠOut": 5667, "ĠFirst": 5668, "ĠMo": 5669, "Ġthrill": 5670, "Ġoat": 5671, "irts": 5672, "Ġresult": 5673, "Jake": 5674, "Ġapproached": 5675, "ĠRabbit": 5676, "act": 5677, "Ġcrunchy": 5678, "Un": 5679, "Ġremem": 5680, "ding": 5681, "Ġbleeding": 5682, "Ġremembers": 5683, "Ġnicer": 5684, "Ġbeat": 5685, "Ġsneaky": 5686, "Ġdisturbed": 5687, "Ġleader": 5688, "Ġscaring": 5689, "Or": 5690, "hind": 5691, "Ġpeel": 5692, "ĠHope": 5693, "Ġfiremen": 5694, "Ġneighborhood": 5695, "ĠStar": 5696, "Ġgrey": 5697, "ĠNot": 5698, "Ġmotion": 5699, "Ġnoon": 5700, "Ġpossible": 5701, "Emily": 5702, "Somet": 5703, "Ġapologized": 5704, "ues": 5705, "Ġweighed": 5706, "Cl": 5707, "ĠDid": 5708, "Ġtickets": 5709, "Ġnaps": 5710, "Ġloose": 5711, "Ġpride": 5712, "Ġyouth": 5713, "Ġswims": 5714, "Ġstrings": 5715, "Ġrecognized": 5716, "ped": 5717, "Ġsiren": 5718, "Ġpoking": 5719, "fied": 5720, "ĠHo": 5721, "cious": 5722, "elvet": 5723, "Ġtricked": 5724, "Ġwonders": 5725, "Ġgained": 5726, "ha": 5727, "Ġwanting": 5728, "Ġcrashed": 5729, "Ġobe": 5730, "Ġseesaw": 5731, "Ġworker": 5732, "unnies": 5733, "ls": 5734, "oming": 5735, "Ġdraws": 5736, "Ġscooped": 5737, "Ġzooming": 5738, "Ġopinion": 5739, "Ġyelling": 5740, "Ġprepared": 5741, ".'": 5742, "Ġgrinned": 5743, "ĠSlowly": 5744, "Ġawe": 5745, "Ġpoems": 5746, "Ġdoggy": 5747, "Ġacting": 5748, "ĠBeep": 5749, "Ġhappiest": 5750, "Ġchef": 5751, "Ġsneaked": 5752, "Ġrespons": 5753, "Ġeff": 5754, "ĠAlways": 5755, "ĠLizzy": 5756, "Ġowned": 5757, "Ġbunnies": 5758, "Ġanytime": 5759, "Ġstruck": 5760, "Ġpedals": 5761, "oys": 5762, "Ġknelt": 5763, "ena": 5764, "Ollie": 5765, "Ġsecrets": 5766, "Ġpause": 5767, "Ġdecorated": 5768, "Ġhorns": 5769, "Ġagreement": 5770, "ĠSqu": 5771, "ided": 5772, "Ġfrost": 5773, "Ġtallest": 5774, "Ġobey": 5775, "Remember": 5776, "riends": 5777, "ogo": 5778, "ĠStop": 5779, "Ġgigg": 5780, "Have": 5781, "Ġdecides": 5782, "ĠOnce": 5783, "Ġbehaved": 5784, "Ġtugged": 5785, "Ġsides": 5786, "Ġwoof": 5787, "Ġslim": 5788, "zen": 5789, "Ġgoodnight": 5790, "Ġkeeper": 5791, "Ġsparkling": 5792, "Ġchirped": 5793, "Ġprecious": 5794, "mother": 5795, "uggling": 5796, "ien": 5797, "lier": 5798, "Tr": 5799, "Ġrepeated": 5800, "Ġclaps": 5801, "indy": 5802, "affes": 5803, "Ġsnowballs": 5804, "Ġcontain": 5805, "rs": 5806, "ĠRay": 5807, "Ġourselves": 5808, "allow": 5809, "Ġgiraffes": 5810, "Ġbalancing": 5811, "Ġkindly": 5812, "Ġspending": 5813, "Ġwrites": 5814, "ays": 5815, "ppers": 5816, "ĠLike": 5817, "omas": 5818, "Ġprop": 5819, "Ġhissed": 5820, "First": 5821, "Ġfrozen": 5822, "Ġfrosting": 5823, "Ġeffort": 5824, "Ġbuzzing": 5825, "Ġstruggled": 5826, "ĠSteve": 5827, "Ġadmiring": 5828, "Ġrele": 5829, "iggy": 5830, "Ġsweeties": 5831, "ĠVelvet": 5832, "Ġslimy": 5833, "Ġbrushed": 5834, "ĠAm": 5835, "Ġbloomed": 5836, "Susie": 5837, "Ġpolished": 5838, "ĠZoe": 5839, "arth": 5840, "Ġcomfy": 5841, "Ġboo": 5842, "Ġstaying": 5843, "Ġrubbing": 5844, "Ducky": 5845, "Ġrocking": 5846, "Ġpockets": 5847, "Ġthrilled": 5848, "Ġbeside": 5849, "Ġcomple": 5850, "ĠAunt": 5851, "ĠMaggie": 5852, "Ah": 5853, "Ġeight": 5854, "urry": 5855, "isdom": 5856, "Ġmachines": 5857, "Ġearlier": 5858, "Ġyesterday": 5859, "Ġseems": 5860, "Ġrust": 5861, "ĠKeep": 5862, "Sp": 5863, "Ġtraveled": 5864, "Ġfolding": 5865, "Ġboom": 5866, "Ġcracked": 5867, "ities": 5868, "Ġhugging": 5869, "Ġradishes": 5870, "ĠStitch": 5871, "Ġopening": 5872, "Ġloving": 5873, "Ġcircus": 5874, "Ġsurrounded": 5875, "Ġcuriosity": 5876, "ĠRachel": 5877, "Ġspraying": 5878, "Ġdemanded": 5879, "anted": 5880, "Ġpaintings": 5881, "amie": 5882, "ĠGreen": 5883, "Ġremoved": 5884, "Ġgaze": 5885, "Ġhonk": 5886, "Ġpebbles": 5887, "Ġzookeeper": 5888, "Ġhardly": 5889, "Ġcatches": 5890, "edding": 5891, "Ġsting": 5892, "Ġstripes": 5893, "Ġpowers": 5894, "Ġloaded": 5895, "ĠPippa": 5896, "Sometimes": 5897, "Ġsplashes": 5898, "Ġpots": 5899, "Ġpetted": 5900, "Ġmatching": 5901, "ĠDavid": 5902, "Thanks": 5903, "Ġtoss": 5904, "Ġstare": 5905, "Ġbelly": 5906, "Yummy": 5907, "ibb": 5908, "Ġwhatever": 5909, "Ġapologize": 5910, "Ġrocked": 5911, "Ġcomforted": 5912, "oh": 5913, "ĠBree": 5914, "Ġdecision": 5915, "ern": 5916, "Ġribbons": 5917, "ĠJoy": 5918, "ĠBirdie": 5919, "Ġstruggling": 5920, "Ġexpected": 5921, "Ġdeser": 5922, "Ġsteep": 5923, "wh": 5924, "Ġprotected": 5925, "Ġneighbors": 5926, "Ġsmiley": 5927, "Ġchases": 5928, "During": 5929, "Ġgranted": 5930, "Ġcrumb": 5931, "ĠMat": 5932, "Ġpurred": 5933, "Ġdiving": 5934, "Ġsadness": 5935, "Whiskers": 5936, "Ġorganizing": 5937, "lowers": 5938, "Ġeagle": 5939, "Ġheroes": 5940, "Ġdipped": 5941, "Ġsunlight": 5942, "Ġlied": 5943, "Ġpastels": 5944, "ĠFrank": 5945, "Ex": 5946, "Ġsafer": 5947, "Ġroads": 5948, "Ġscru": 5949, "Ġargued": 5950, "ĠMilly": 5951, "Ġgoals": 5952, "ĠWater": 5953, "Ġdiscovery": 5954, "ĠAbigail": 5955, "Ġvillag": 5956, "Ġpeered": 5957, "Ro": 5958, "ĠBouncy": 5959, "use": 5960, "loe": 5961, "Ġtim": 5962, "ana": 5963, "Ġdragons": 5964, "Ġbuildings": 5965, "Ġbuckets": 5966, "Ġparties": 5967, "Ġbeard": 5968, "Ġwedding": 5969, "Rex": 5970, "Ġflutter": 5971, "Ġplanets": 5972, "Ġann": 5973, "ĠRobby": 5974, "Ġpolishing": 5975, "Ġfasc": 5976, "ira": 5977, "Ġreleased": 5978, "ĠChr": 5979, "Ġcrabs": 5980, "ĠGogo": 5981, "Ġtails": 5982, "ĠWatch": 5983, "Ġsausages": 5984, "Ġargu": 5985, "Ġcontro": 5986, "Ġbottles": 5987, "Ġwiggled": 5988, "Ġteased": 5989, "uke": 5990, "Ġarguing": 5991, "Ġsled": 5992, "Ġpadd": 5993, "Ġdragged": 5994, "ĠCar": 5995, "Ġroaring": 5996, "Ġclearing": 5997, "Ġshirts": 5998, "Ġmovies": 5999, "Ġgathering": 6000, "Ġairpl": 6001, "Ġwid": 6002, "joyed": 6003, "Ġteaches": 6004, "Ġspiders": 6005, "Ġlimes": 6006, "ĠRemember": 6007, "ĠDare": 6008, "Ġoverjoyed": 6009, "Ġactually": 6010, "Ġsighs": 6011, "Ġcontinue": 6012, "Ġcuddle": 6013, "Ġsoaring": 6014, "Ġsmallest": 6015, "ĠJess": 6016, "Ġdrives": 6017, "ĠJu": 6018, "Ġsparkles": 6019, "Ġrip": 6020, "Ġsitu": 6021, "Ġcubes": 6022, "Ġrefres": 6023, "Ġtalent": 6024, "Ġchallenge": 6025, "ĠOlly": 6026, "Ġgrandmother": 6027, "ĠSplash": 6028, "Ġpouring": 6029, "umm": 6030, "Ġpretends": 6031, "Ġfascin": 6032, "Ġcuts": 6033, "Ġshrug": 6034, "Ġquarreling": 6035, "Ġpeppers": 6036, "Ġbank": 6037, "ten": 6038, "Ġshivered": 6039, "Ġmane": 6040, "Ġdusty": 6041, "ĠJenn": 6042, "ley": 6043, "Ġwondering": 6044, "Ġvillagers": 6045, "Ġstretching": 6046, "njoy": 6047, "ib": 6048, "Ġweeks": 6049, "Ġwherever": 6050, "Ġdarker": 6051, "jam": 6052, "Tiny": 6053, "sses": 6054, "ĠX": 6055, "Ġrings": 6056, "Ġonwards": 6057, "ĠKatie": 6058, "Ġunited": 6059, "Achoo": 6060, "Ġbead": 6061, "ĠEveryday": 6062, "ĠBeing": 6063, "Ġprettiest": 6064, "Johnny": 6065, "Ġcaut": 6066, "Ġrealize": 6067, "Ġcompany": 6068, "Ġpenguins": 6069, "annah": 6070, "Luna": 6071, "Fr": 6072, "ĠSpring": 6073, "Ġbedtime": 6074, "Ġcompleted": 6075, "ĠWisdom": 6076, "ĠLeave": 6077, "âĢĿ.": 6078, "Ġknights": 6079, "Ġflags": 6080, "ĠJe": 6081, "ĠBecause": 6082, "Ġplayroom": 6083, "ĠPrin": 6084, "Ġactions": 6085, "ĠZero": 6086, "Ġlearns": 6087, "Ġgotten": 6088, "Ġpatience": 6089, "inda": 6090, "dam": 6091, "Ġkites": 6092, "Ġresponsible": 6093, "Ġfears": 6094, "Ġdestination": 6095, "Ġwires": 6096, "Ġreply": 6097, "Ġwrist": 6098, "Ġdam": 6099, "aws": 6100, "Ġpacking": 6101, "Ġmountains": 6102, "Ġfault": 6103, "Ġapplauded": 6104, "Ġscrubbed": 6105, "Ġma": 6106, "Ġcrept": 6107, "ĠAva": 6108, "Uh": 6109, "ĠEarth": 6110, "Ġsatis": 6111, "Ġthird": 6112, "Ġphot": 6113, "Ġpencils": 6114, "Ġwins": 6115, "Ġsticking": 6116, "Ġbaker": 6117, "Ġvisiting": 6118, "Ġwound": 6119, "Ġuses": 6120, "Ġpeas": 6121, "Ġreminder": 6122, "Ġcontrol": 6123, "ashed": 6124, "Grandpa": 6125, "Ġjoking": 6126, "Ġawake": 6127, "Ġinstruct": 6128, "Ġstaring": 6129, "Ġhealed": 6130, "ĠPut": 6131, "An": 6132, "Ġhitting": 6133, "ĠFish": 6134, "Ġscreaming": 6135, "Ġbegin": 6136, "Rob": 6137, "uckily": 6138, "ĠFriends": 6139, "ĠMoo": 6140, "icorn": 6141, "Ġhelmets": 6142, "enty": 6143, "Ġunicorn": 6144, "seek": 6145, "Ġtowels": 6146, "Silly": 6147, "ĠLou": 6148, "Ġchips": 6149, "ica": 6150, "Ġcreation": 6151, "Ġwasted": 6152, "bie": 6153, "Mar": 6154, "ĠBehind": 6155, "laire": 6156, "Ġmasks": 6157, "Ġitems": 6158, "Ġforgi": 6159, "ler": 6160, "Ġfirefight": 6161, "Ġoutdo": 6162, "Ġlollipops": 6163, "Watch": 6164, "Ġheav": 6165, "Ġguns": 6166, "Ġdied": 6167, "ĠHippy": 6168, "Ġseas": 6169, "Ġglitter": 6170, "uddles": 6171, "Ġarrive": 6172, "Ġweren": 6173, "Ġstole": 6174, "Ġscales": 6175, "Ġperched": 6176, "Ġaccom": 6177, "Ġlogs": 6178, "Ġachieve": 6179, "die": 6180, "Ġpracticing": 6181, "ining": 6182, "Ġwhose": 6183, "Stay": 6184, "Ġpumpkins": 6185, "Ġinstructions": 6186, "Ġswoop": 6187, "Ġbatteries": 6188, "Ġcandies": 6189, "Ġagrees": 6190, "Ġproject": 6191, "Ġsnakes": 6192, "Ġchirping": 6193, "Benny": 6194, "Ġshelves": 6195, "Ġprotecting": 6196, "Ġparked": 6197, "Ġexact": 6198, "ĠCra": 6199, "Ġpatiently": 6200, "Ġactiv": 6201, "Ġvideos": 6202, "Ġshoulders": 6203, "Ġblows": 6204, "hee": 6205, "Fo": 6206, "Ġpromises": 6207, "go": 6208, "Ġdent": 6209, "usan": 6210, "uest": 6211, "jamas": 6212, "Ġexamined": 6213, "Ġairplane": 6214, "Doggy": 6215, "Ġroses": 6216, "ners": 6217, "...": 6218, "Ġaccompl": 6219, "Ġtasks": 6220, "Dave": 6221, "ĠHoot": 6222, "Poppy": 6223, "ĠBop": 6224, "Bunny": 6225, "Ġbeads": 6226, "Ġbowls": 6227, "Ġcrumbs": 6228, "zes": 6229, "Ġlistens": 6230, "ĠLove": 6231, "ĠCatty": 6232, "ĠBrownie": 6233, "Pete": 6234, "ĠOl": 6235, "Ġdolphins": 6236, "Ġcough": 6237, "Ġbunch": 6238, "Ġguest": 6239, "cakes": 6240, "Ġrequested": 6241, "Ġremote": 6242, "Ġimproved": 6243, "anta": 6244, "Ġreaching": 6245, "Ġbrand": 6246, "ayla": 6247, "Ġalien": 6248, "ĠBye": 6249, "irm": 6250, "Ġcopy": 6251, "ĠSun": 6252, "Ġcheering": 6253, "Ġphotos": 6254, "ĠJulie": 6255, "ĠChew": 6256, "uggles": 6257, "Bad": 6258, "ĠJan": 6259, "ĠBlink": 6260, "Time": 6261, "Ġcans": 6262, "ĠCuddles": 6263, "Ġtimer": 6264, "ĠBy": 6265, "Ġreplaced": 6266, "athy": 6267, "Ġworkers": 6268, "Ġstern": 6269, "ĠEnjoy": 6270, "aster": 6271, "Ġneither": 6272, "Mike": 6273, "Ġpassing": 6274, "Ġmisses": 6275, "Ġcurtains": 6276, "Ġconfl": 6277, "Chirpy": 6278, "Ġrainbows": 6279, "Ġrubs": 6280, "George": 6281, "uctantly": 6282, "Ġrolls": 6283, "Ġpatted": 6284, "ilo": 6285, "Ġpajamas": 6286, "Ġoutdoors": 6287, "esome": 6288, "dies": 6289, "Ġcomplaining": 6290, "ĠSquirrel": 6291, "Lola": 6292, "Run": 6293, "Ġpuppet": 6294, "ĠPrincess": 6295, "Ġcloses": 6296, "Ġbeneath": 6297, "Ġlap": 6298, "Ġdrums": 6299, "Ġtune": 6300, "ĠBeth": 6301, "ĠMouse": 6302, "Ġfilling": 6303, "Miss": 6304, "angled": 6305, "Ġrefuse": 6306, "ĠSorry": 6307, "Ġsweat": 6308, "Ġfaced": 6309, "Ġseven": 6310, "Ġbalanced": 6311, "eal": 6312, "Ġrescued": 6313, "neath": 6314, "bl": 6315, "Ġquacked": 6316, "ĠAbby": 6317, "uded": 6318, "Paul": 6319, "istle": 6320, "rrr": 6321, "Ġawesome": 6322, "Ġ1": 6323, "Ġmission": 6324, "ĠHowever": 6325, "Ġguys": 6326, "Ġconflict": 6327, "Ġcautious": 6328, "Ġvent": 6329, "Ġobserved": 6330, "Ġcause": 6331, "Ġintroduc": 6332, "ĠThomas": 6333, "Ġpastries": 6334, "ĠOur": 6335, "Ġexactly": 6336, "Ġdoctors": 6337, "Ġrule": 6338, "Ġbecoming": 6339, "Ġpoliceman": 6340, "Ġmes": 6341, "uly": 6342, "Ġrockets": 6343, "you": 6344, "ĠYes": 6345, "ĠDot": 6346, "Ġfairies": 6347, "lay": 6348, "Ġpout": 6349, "Ġinsist": 6350, "Ġblooming": 6351, "Ġtractor": 6352, "Ġfarther": 6353, "ĠSad": 6354, "avi": 6355, "Oops": 6356, "Great": 6357, "Ġremembering": 6358, "Ġincluded": 6359, "gers": 6360, "Ġcurly": 6361, "Zoom": 6362, "Fine": 6363, "Ġteamwork": 6364, "zie": 6365, "Ġfascinated": 6366, "Ġwobbled": 6367, "Ġslam": 6368, "Ġtruly": 6369, "Ġhelpers": 6370, "Ġsights": 6371, "Ġpaddle": 6372, "Ġstumble": 6373, "Ġfirm": 6374, "onn": 6375, "Henry": 6376, "ĠJilly": 6377, "acob": 6378, "Ġcaused": 6379, "Ġprayer": 6380, "Ġspong": 6381, "Ġrecording": 6382, "kelly": 6383, "ais": 6384, "Ġtraded": 6385, "Ġstarfish": 6386, "Ġsupplies": 6387, "Ġthro": 6388, "Ġpointy": 6389, "Ġsituation": 6390, "Ġinviting": 6391, "eah": 6392, "Ġneighbourhood": 6393, "Ġeveryday": 6394, "Ġornaments": 6395, "ĠAlly": 6396, "inkle": 6397, "Ġvalued": 6398, "Ġadding": 6399, "Some": 6400, "Ġreluctantly": 6401, "Ġdots": 6402, "Ġstays": 6403, "Ġtables": 6404, "Ġprettier": 6405, "Ġbare": 6406, "Ġdesert": 6407, "Ġsnowmen": 6408, "Ġsteady": 6409, "Ġminerals": 6410, "araway": 6411, "Ġthorn": 6412, "ody": 6413, "Ġast": 6414, "Ġglasses": 6415, "Ġfaraway": 6416, "sm": 6417, "ĠGet": 6418, "ĠFoxy": 6419, "Ġswooped": 6420, "ĠWelcome": 6421, "ĠTwo": 6422, "ĠSure": 6423, "ĠĠĊ": 6424, "Ġunf": 6425, "Ġforks": 6426, "Ġusually": 6427, "Ġusual": 6428, "Polly": 6429, "Ġdar": 6430, "ĠJamie": 6431, "Ġwinked": 6432, "Ġsneezing": 6433, "Ġsolut": 6434, "Ġloading": 6435, "Ġsponge": 6436, "ĠQuick": 6437, "Ġinsects": 6438, "Ġpans": 6439, "Dog": 6440, "Ġsobbed": 6441, "ĠSanta": 6442, "James": 6443, "Ġgrowling": 6444, "arter": 6445, "Ġthroat": 6446, "ĠChloe": 6447, "Ġnoses": 6448, "ĠJosh": 6449, "ĠDizzy": 6450, "Ġscarves": 6451, "Ġconfident": 6452, "Ġyourselves": 6453, "ĠWant": 6454, "agull": 6455, "Ġhomework": 6456, "Ġsuperheroes": 6457, "ĠStay": 6458, "Joey": 6459, "Ġsmarter": 6460, "...\"": 6461, "Ġwindy": 6462, "Ġlibrarian": 6463, "Tina": 6464, "ĠKids": 6465, "Ġgems": 6466, "Days": 6467, "ora": 6468, "Ġunderneath": 6469, "Ġkicks": 6470, "Ġknowled": 6471, "Ġitchy": 6472, "Ġknowledge": 6473, "Ġjackets": 6474, "ĠSkelly": 6475, "ĠFor": 6476, "Ġsurface": 6477, "Ġuntie": 6478, "Ġcomm": 6479, "ĠDuck": 6480, "eed": 6481, "Ġprincesses": 6482, "Those": 6483, "ido": 6484, "Hold": 6485, "Yeah": 6486, "coon": 6487, "Ġsquares": 6488, "ĠHenny": 6489, "Ġwarnings": 6490, "Ġgiggling": 6491, "iar": 6492, "Ġreads": 6493, "vin": 6494, "Our": 6495, "Ġchoo": 6496, "Ġyounger": 6497, "Ġclowns": 6498, "ĠMix": 6499, "Toby": 6500, "son": 6501, "Ġropes": 6502, "Ġbiting": 6503, "Ġcrowd": 6504, "ĠUnfortunately": 6505, "pite": 6506, "Danny": 6507, "True": 6508, "Ġseagull": 6509, "Ġpaddled": 6510, "Ġwears": 6511, "Ġdelivered": 6512, "ĠMon": 6513, "Ġtwirl": 6514, "Ġonions": 6515, "Ġbuzzed": 6516, "Ġcomplained": 6517, "Ġbumpy": 6518, "Ġstem": 6519, "Ew": 6520, "Ġpiggy": 6521, "Mrs": 6522, "ĠAnne": 6523, "Ġdirection": 6524, "ouch": 6525, "Ġdived": 6526, "Roar": 6527, "Ġtangled": 6528, "Ġstartled": 6529, "ults": 6530, "Ġleaning": 6531, "bbie": 6532, "ĠAnt": 6533, "ĠJones": 6534, "Ġbadge": 6535, "ĠPo": 6536, "Grace": 6537, "Ġunp": 6538, "Ġdeal": 6539, "though": 6540, "Annie": 6541, "Ġvowed": 6542, "Ġnapkins": 6543, "anes": 6544, "Ġtickled": 6545, "Ġrisk": 6546, "Ġcovers": 6547, "Ġpec": 6548, "Shh": 6549, "Ġyells": 6550, "Ġsatisfied": 6551, "int": 6552, "Ġknocks": 6553, "Ġrefreshed": 6554, "tuce": 6555, "ĠSc": 6556, "cuse": 6557, "Ġcous": 6558, "Ġarrows": 6559, "Maggie": 6560, "ĠWhistle": 6561, "Pe": 6562, "Ġwipes": 6563, "Ġspeaking": 6564, "Ġlettuce": 6565, "Ġguessing": 6566, "Unfortunately": 6567, "ĠQuack": 6568, "Ġripe": 6569, "ĠSusan": 6570, "Ġhides": 6571, "Ġchoices": 6572, "ĠDodo": 6573, "ĠRover": 6574, "Buzz": 6575, "Ġsigned": 6576, "Ġslower": 6577, "Ġseeker": 6578, "Ġintroduced": 6579, "Ġsinger": 6580, "Ġcreating": 6581, "ĠMatt": 6582, "Ġfroze": 6583, "Ġcent": 6584, "Ġjoked": 6585, "Ġsqueal": 6586, "Ġtoaster": 6587, "Ġexplorers": 6588, "Ġavo": 6589, "Sophie": 6590, "Ġpraying": 6591, "Ġwritten": 6592, "Ġdiscovering": 6593, "Ġprovided": 6594, "ĠDara": 6595, "Ġrefle": 6596, "ĠLion": 6597, "Excuse": 6598, "Ġmushrooms": 6599, "ĠJeff": 6600, "ĠPaws": 6601, "Ġpaying": 6602, "Ġknees": 6603, "fit": 6604, "ences": 6605, "Ġhider": 6606, "Ġwandering": 6607, "ĠAsh": 6608, "Ġimages": 6609, "Charlie": 6610, "Ġstung": 6611, "ĠWink": 6612, "Ġmagnets": 6613, "Ġbarely": 6614, "Ġbehaving": 6615, "Ġtipto": 6616, "?\",": 6617, "Ġmarked": 6618, "brush": 6619, "Ġrestored": 6620, "ĠDee": 6621, "Ġleading": 6622, "lled": 6623, "Big": 6624, "Ġchuck": 6625, "ados": 6626, "Ġnine": 6627, "Ġgreet": 6628, "Teddy": 6629, "Ġgears": 6630, "Ġbravery": 6631, "ĠSnuggles": 6632, "ky": 6633, "Ġcompetition": 6634, "Ġoutfit": 6635, "oline": 6636, "Ġwishing": 6637, "Ġproperly": 6638, "Ġventured": 6639, "tle": 6640, "aa": 6641, "Ġmuscle": 6642, "Ġdances": 6643, "Ġchat": 6644, "Ġsalty": 6645, "Ġpens": 6646, "amb": 6647, "ĠBetsy": 6648, "Ġranger": 6649, "ĠZiggy": 6650, "Ġdeserve": 6651, "Ġhowever": 6652, "sequ": 6653, "Ġmatters": 6654, "Ġdarkness": 6655, "Ġburst": 6656, "ĠFu": 6657, "Ġrainy": 6658, "Ġcobwebs": 6659, "Ġruining": 6660, "Ġchefs": 6661, "Ġconsequ": 6662, "Ġblocking": 6663, "Ġbak": 6664, "usted": 6665, "itely": 6666, "sty": 6667, "Ġscur": 6668, "Ġvines": 6669, "sss": 6670, "Ġfab": 6671, "abel": 6672, "Ġfabric": 6673, "Ġentire": 6674, "Ġbasement": 6675, "Ġperformed": 6676, "Ġleast": 6677, "ĠBuggy": 6678, "Sn": 6679, "Ġscratches": 6680, "Ġheavier": 6681, "ĠClaire": 6682, "Ġmints": 6683, "Ġtwirling": 6684, "Ġavocados": 6685, "However": 6686, "ĠLinda": 6687, "rink": 6688, "fl": 6689, "Ġscurried": 6690, "Ġlosing": 6691, "Ġsunflowers": 6692, "ĠJenna": 6693, "Ġrainco": 6694, "Ġswords": 6695, "Tweet": 6696, "Ġclick": 6697, "agic": 6698, "ĠLaser": 6699, "Ġsilent": 6700, "Ġjobs": 6701, "Ġnecklaces": 6702, "Ġflames": 6703, "ĠLuke": 6704, "Ġrelief": 6705, "ĠGrumpy": 6706, "Ġsnat": 6707, "Ġsewed": 6708, "Ġrotting": 6709, "len": 6710, "Listen": 6711, "Follow": 6712, "Ġtricky": 6713, "Jerry": 6714, "Ġlighter": 6715, "ophia": 6716, "Ġbows": 6717, "ĠSkip": 6718, "Ġexha": 6719, "Ġsolution": 6720, "Ġconsequences": 6721, "Alex": 6722, "ĠLena": 6723, "Ġtires": 6724, "Ġstain": 6725, "ĠPr": 6726, "Beep": 6727, "Ġunpacked": 6728, "Ab": 6729, "Ġpartic": 6730, "rance": 6731, "Ġraces": 6732, "Ġpins": 6733, "Ġbumps": 6734, "Ġwraps": 6735, "aisies": 6736, "Ġwow": 6737, "Ġdecorating": 6738, "Ġbacked": 6739, "cher": 6740, "Ġdentist": 6741, "Ġpurr": 6742, "Ġneedles": 6743, "Ġcautiously": 6744, "Ġlifting": 6745, "izzie": 6746, "Ġaccomplish": 6747, "Ġtriangles": 6748, "Ġdaisies": 6749, "ept": 6750, "Ġhesitated": 6751, "Ġannoy": 6752, "ĠThose": 6753, "Ġgrowls": 6754, "Ġcrackers": 6755, "oke": 6756, "Ġstomped": 6757, "Ġgrabbing": 6758, "Ġcott": 6759, "Ġfigured": 6760, "Ġbodies": 6761, "Ġmater": 6762, "Ġbuying": 6763, "ĠTree": 6764, "Ġmaterial": 6765, "ĠRolly": 6766, "ĠFido": 6767, "ĠAdam": 6768, "Ġswans": 6769, "Ġties": 6770, "Ġgri": 6771, "vers": 6772, "Ġgrows": 6773, "Ġsweets": 6774, "ĠGoodbye": 6775, "ĠEl": 6776, "Ġowners": 6777, "Ġflavor": 6778, "Ġcheeks": 6779, "ĠCathy": 6780, "Ġsuffering": 6781, "ĠJessie": 6782, "vroom": 6783, "Ġfact": 6784, "Ġgroups": 6785, "cl": 6786, "bly": 6787, "Ġforehead": 6788, "Ġlungs": 6789, "Harry": 6790, "Ġrepa": 6791, "Ġinterested": 6792, "Ġbakery": 6793, "ĠMilo": 6794, "Ġfreed": 6795, "Lilly": 6796, "itches": 6797, "ĠNothing": 6798, "Ġchuckled": 6799, "For": 6800, "Ġswept": 6801, "Ġconn": 6802, "?'": 6803, "Ġthud": 6804, "Ġexhausted": 6805, "Tw": 6806, "Ġtwinkling": 6807, "Ġtapped": 6808, "Ġnect": 6809, "rosty": 6810, "Ġnectar": 6811, "elle": 6812, "Ġfeast": 6813, "Ġdarling": 6814, "indr": 6815, "ĠMad": 6816, "Ġworries": 6817, "Ġuns": 6818, "Ġtunnels": 6819, "Ġfuzzy": 6820, "Ġrepaired": 6821, "Ġreason": 6822, "ĠTrust": 6823, "ĠCopper": 6824, "ĠBall": 6825, "Ġactivities": 6826, "lets": 6827, "Ġpecked": 6828, "ĠHannah": 6829, "Ġentrance": 6830, "ĠTry": 6831, "Ġraindr": 6832, "Ġmeals": 6833, "ĠListen": 6834, "Ġparticular": 6835, "Ġcompletely": 6836, "Ġmailed": 6837, "ctions": 6838, "Ġnests": 6839, "Ġwaiter": 6840, "Ġcuddly": 6841, "Ġsense": 6842, "Ru": 6843, "ĠNana": 6844, "Ġcolored": 6845, "arky": 6846, "Ġleap": 6847, "step": 6848, "band": 6849, "Ġplenty": 6850, "Ġpeeking": 6851, "Ġslammed": 6852, "ĠCara": 6853, "no": 6854, "Ġplayers": 6855, "Ġmonth": 6856, "Ġbudge": 6857, "ĠBirthday": 6858, "ĠQ": 6859, "Ġscra": 6860, "Ġinclud": 6861, "Ġforgets": 6862, "Ġden": 6863, "Ġhandful": 6864, "ĠOliver": 6865, "Ġmer": 6866, "ossible": 6867, "Ġgenie": 6868, "ĠChrist": 6869, "Ġstool": 6870, "Ġtalks": 6871, "ĠPup": 6872, "ĠSuzie": 6873, "Ġpassports": 6874, "Ġfeeding": 6875, "Ġfilms": 6876, "Ġbaths": 6877, "Ġimpossible": 6878, "Ġdetermination": 6879, "May": 6880, "Ġprinting": 6881, "boat": 6882, "Ġdesigned": 6883, "Ġbuses": 6884, "Ġopp": 6885, "ueen": 6886, "lephant": 6887, "Ġsuitcase": 6888, "Ġbars": 6889, "Ġcounts": 6890, "Ġstolen": 6891, "Ġspreading": 6892, "Ġspikes": 6893, "ĠSnap": 6894, "Ġwiping": 6895, "Ġsteer": 6896, "Ġlamb": 6897, "ĠRain": 6898, "Ġhonked": 6899, "etty": 6900, "Whee": 6901, "Ġcowb": 6902, "Ġseparated": 6903, "blings": 6904, "Ġsiblings": 6905, "Ġhops": 6906, "Ġchop": 6907, "Ġsewing": 6908, "Ġfires": 6909, "ĠTwinkle": 6910, "Ġfever": 6911, "Ġtwinkle": 6912, "Ġty": 6913, "Ġcamping": 6914, "ĠMira": 6915, "Ġlower": 6916, "Ġchanging": 6917, "yes": 6918, "retch": 6919, "Ġbehavi": 6920, "ĠBloom": 6921, "mas": 6922, "Ġliqu": 6923, "Ġcelebration": 6924, "but": 6925, "Ġsquealed": 6926, "Ġdollhouse": 6927, "Sunny": 6928, "Ġbackward": 6929, "Ġage": 6930, "Ġsnatched": 6931, "Ġcash": 6932, "ho": 6933, "Ġtwice": 6934, "lee": 6935, "Ġsway": 6936, "itched": 6937, "Ġcelebrating": 6938, "ĠPeanut": 6939, "Ġshrinking": 6940, "Ġache": 6941, "weed": 6942, "Ġkings": 6943, "rious": 6944, "Ġshops": 6945, "Ġkittens": 6946, "cope": 6947, "Rose": 6948, "ĠJessica": 6949, "ĠJacob": 6950, "rig": 6951, "ĠGina": 6952, "aura": 6953, "Ġhus": 6954, "Ġtouches": 6955, "airy": 6956, "Ġpancakes": 6957, "nies": 6958, "Ġavoid": 6959, "Ġspat": 6960, "ĠFrosty": 6961, "hog": 6962, "ĠNina": 6963, "Ġpaths": 6964, "ives": 6965, "cky": 6966, "ĠHold": 6967, "Ġrotten": 6968, "Ġcalmed": 6969, "Sandy": 6970, "Ġseaweed": 6971, "Ġdropping": 6972, "ĠMel": 6973, "iles": 6974, "Pipp": 6975, "Ġtwisting": 6976, "Ġstroked": 6977, "ĠJon": 6978, "Ġuntied": 6979, "llen": 6980, "Ġplayhouse": 6981, "Millie": 6982, "Ġstudents": 6983, "Ġpuppies": 6984, "hi": 6985, "Ġscrews": 6986, "Ġastron": 6987, "ĠRe": 6988, "Ġsomebody": 6989, "igning": 6990, "Ġliquid": 6991, "aren": 6992, "ammy": 6993, "Ġwakes": 6994, "Ġsquish": 6995, "ĠWoof": 6996, "Ġbracelets": 6997, "Ġastronaut": 6998, "immer": 6999, "Ġthrown": 7000, "Ġloops": 7001, "ĠOther": 7002, "Luckily": 7003, "Ġwrapping": 7004, "Ġplain": 7005, "Ġtramp": 7006, "Ġplanning": 7007, "Ġskunk": 7008, "Ġaimed": 7009, "Ġpennies": 7010, "Ġshoo": 7011, "Ġlifts": 7012, "Ġdancers": 7013, "Ġsparks": 7014, "Ġfirefly": 7015, "pen": 7016, "Ġposter": 7017, "yan": 7018, "endy": 7019, "Ġcust": 7020, "ĠChristmas": 7021, "Dan": 7022, "Ġrewarded": 7023, "Ġobjects": 7024, "Ġdirections": 7025, "using": 7026, "ingo": 7027, "Ġreflection": 7028, "Ġhusband": 7029, "Take": 7030, "river": 7031, "Ġclues": 7032, "uppy": 7033, "Ġleads": 7034, "Ġincreased": 7035, "Ġblocked": 7036, "Ġrising": 7037, "Ġdod": 7038, "Ġcousin": 7039, "ĠYesterday": 7040, "ĠWithout": 7041, "Ġforgetting": 7042, "rigued": 7043, "Ġcustom": 7044, "Kate": 7045, "Ġtrampoline": 7046, "Ġbeginning": 7047, "Ġstorekeeper": 7048, "Ġpouted": 7049, "Ġzebras": 7050, "Ġhedgehog": 7051, "Ġaff": 7052, "Ġborrowed": 7053, "ĠRollie": 7054, "ĠâĢĺ": 7055, "Ġsnowfl": 7056, "Ġcountryside": 7057, "Jump": 7058, "Ġmesmer": 7059, "ĠJay": 7060, "Ġvehicles": 7061, "Ġinstrum": 7062, "ĠMic": 7063, "ĠKayla": 7064, "ĠUp": 7065, "Ġfrowning": 7066, "ivity": 7067, "Pat": 7068, "Under": 7069, "Ġmarker": 7070, "yond": 7071, "Ġpresses": 7072, "Ġbeyond": 7073, "ĠQueen": 7074, "Ġdamage": 7075, "ĠOnly": 7076, "iece": 7077, "ivery": 7078, "Ġfart": 7079, "ĠTara": 7080, "ĠBiggie": 7081, "jo": 7082, "Ġhealth": 7083, "Ġwhispers": 7084, "Ġswimsuit": 7085, "Ġslips": 7086, "Ġnibb": 7087, "ĠJulia": 7088, "armer": 7089, "Ġwarmer": 7090, "Ġflapping": 7091, "Ġtiptoed": 7092, "Ġregretted": 7093, "itted": 7094, "Zip": 7095, "Ġlaying": 7096, "ĠRobo": 7097, "ades": 7098, "Ġyelp": 7099, "ĠFire": 7100, "Ġrains": 7101, "Ġglued": 7102, "Ġeverybody": 7103, "Ġcreations": 7104, "Ġhearing": 7105, "Ġswir": 7106, "Ġcolder": 7107, "iversity": 7108, "ael": 7109, "Ġshaped": 7110, "ĠElephant": 7111, "Ġstreets": 7112, "Ġfins": 7113, "Ġrusty": 7114, "Ġcushions": 7115, "Out": 7116, "Ġsan": 7117, "Ġfarthest": 7118, "Ġcreativity": 7119, "ĠMikey": 7120, "eese": 7121, "Ġsale": 7122, "Always": 7123, "ans": 7124, "Ġstrongest": 7125, "ibbit": 7126, "Ġfits": 7127, "ĠSparky": 7128, "Ġbells": 7129, "Ġdollars": 7130, "ĠLarry": 7131, "Ġearn": 7132, "iam": 7133, "angle": 7134, "Ġlending": 7135, "ĠMoon": 7136, "ĠChirp": 7137, "Ġcashier": 7138, "Milly": 7139, "Ġincluding": 7140, "Ġsniffs": 7141, "Ġsank": 7142, "Ġraincoat": 7143, "ĠRich": 7144, "Ġtrembled": 7145, "Ġstopping": 7146, "Ġsource": 7147, "iti": 7148, "imon": 7149, "ae": 7150, "ĠMissy": 7151, "Ġwobbly": 7152, "Ġindeed": 7153, "ters": 7154, "Ġguests": 7155, "Ġsingle": 7156, "Ġrecommended": 7157, "Ġspells": 7158, "Ġaccomplishment": 7159, "Ġbelts": 7160, "Ġsurprising": 7161, "Ġends": 7162, "Ġhopeful": 7163, "Ġseasons": 7164, "eet": 7165, "ĠTake": 7166, "ĠSnowman": 7167, "ĠEls": 7168, "Bear": 7169, "Ġplans": 7170, "ichael": 7171, "Ġsupported": 7172, "stick": 7173, "illed": 7174, "Ġsuffered": 7175, "Ġartist": 7176, "Ġperformance": 7177, "Nina": 7178, "Ġslowed": 7179, "Ġgross": 7180, "Ġflavors": 7181, "iding": 7182, "ertain": 7183, "Ġspins": 7184, "cho": 7185, "Quack": 7186, "Ġlabels": 7187, "uing": 7188, "Ġraindrops": 7189, "Ġdelivery": 7190, "arac": 7191, "Ġraccoon": 7192, "Ġforgiving": 7193, "obody": 7194, "ĠWoo": 7195, "Ġpours": 7196, "the": 7197, "ility": 7198, "Ġvanilla": 7199, "Ġturtles": 7200, "Ġstands": 7201, "Bill": 7202, "uess": 7203, "Ġrecipe": 7204, "Ġbeam": 7205, "Ġtying": 7206, "ĠSw": 7207, "Ġgeese": 7208, "Ġwilling": 7209, "Ġrobber": 7210, "Ġdrawn": 7211, "Vroom": 7212, "Ġwept": 7213, "ĠBones": 7214, "Ġcharac": 7215, "Ġpops": 7216, "Ġcorners": 7217, "ĠSophia": 7218, "elia": 7219, "Ġqueens": 7220, "Ġsailboat": 7221, "Ġgrip": 7222, "Ġdie": 7223, "Ġdrivers": 7224, "itude": 7225, "Ġmoo": 7226, "Ġhallway": 7227, "Ġimagining": 7228, "Ġseconds": 7229, "ĠFuzzy": 7230, "Mine": 7231, "Ġpreparing": 7232, "Ġwidened": 7233, "Ġadult": 7234, "ĠSpirit": 7235, "Ġgrocer": 7236, "Ġcoop": 7237, "Ġtalented": 7238, "ĠPam": 7239, "ĠBeaky": 7240, "ĠIzzy": 7241, "ummies": 7242, "Ġsailors": 7243, "lling": 7244, "Ġsofter": 7245, "Ġaside": 7246, "Ġwatering": 7247, "Ġsending": 7248, "Ġknots": 7249, "Ġunsure": 7250, "Ġtipped": 7251, "Lulu": 7252, "Ġtreehouse": 7253, "Ġhoriz": 7254, "ĠLizzie": 7255, "Ġnotes": 7256, "Co": 7257, "Ġecho": 7258, "igers": 7259, "Ġachieved": 7260, "Ġhorizon": 7261, "Ġsqueak": 7262, "Ġdelivering": 7263, "Ġpleasure": 7264, "Ġhotter": 7265, "ĠStella": 7266, "Clara": 7267, "Ġpupils": 7268, "Ġburrow": 7269, "Ġangels": 7270, "Ġcuriously": 7271, "Ellie": 7272, "Ġyum": 7273, "Ġblinking": 7274, "ĠJune": 7275, "Ġtweet": 7276, "Ġsymbols": 7277, "Ġdet": 7278, "ĠStretch": 7279, "wk": 7280, "Ġpassen": 7281, "ĠRudy": 7282, "ĠCindy": 7283, "Ġtummies": 7284, "Ġtiss": 7285, "Ġpigeons": 7286, "Ġfigures": 7287, "umbling": 7288, "Ġbandages": 7289, "ĠRobert": 7290, "Ġcoup": 7291, "ĠDoctor": 7292, "oey": 7293, "Ġrobots": 7294, "alph": 7295, "Ġtossed": 7296, "Ġhour": 7297, "Ġbackwards": 7298, "Ġroars": 7299, "Baby": 7300, "Ġmerma": 7301, "uzz": 7302, "Ġrather": 7303, "atur": 7304, "Maria": 7305, "cited": 7306, "ĠPlay": 7307, "ĠCrab": 7308, "Moo": 7309, "ighting": 7310, "Dolly": 7311, "Ġgroceries": 7312, "Ġzipping": 7313, "Put": 7314, "Very": 7315, "Ġunw": 7316, "prin": 7317, "Ġamong": 7318, "Ġblown": 7319, "Ġicing": 7320, "!âĢĿ.": 7321, "Ġrumble": 7322, "Ġafterwards": 7323, "ipper": 7324, "Ġscrewd": 7325, "ushing": 7326, "Ġsped": 7327, "Ġprove": 7328, "Ġglee": 7329, "ĠTiti": 7330, "ĠTia": 7331, "Ġdip": 7332, "Ġovercome": 7333, "Ruby": 7334, "Quick": 7335, "Ġsurfboard": 7336, "Ġshovels": 7337, "Ġslices": 7338, "ĠToot": 7339, "Ġmerry": 7340, "Ġwobble": 7341, "Ġmate": 7342, "ĠTurt": 7343, "ĠAbbie": 7344, "Ġheading": 7345, "Ġdisturbing": 7346, "Ġswall": 7347, "Ġreversed": 7348, "Ġfirefighters": 7349, "Jul": 7350, "Ġswallowed": 7351, "Ġchip": 7352, "Ġscored": 7353, "Ġflipped": 7354, "eds": 7355, "awn": 7356, "ĠJump": 7357, "Ġsqueezing": 7358, "usty": 7359, "Frank": 7360, "aty": 7361, "Su": 7362, "Ġwaking": 7363, "Ġintrigued": 7364, "Sad": 7365, "Like": 7366, "Ġmaker": 7367, "ĠBarky": 7368, "Betty": 7369, "Ġpuff": 7370, "Ġhawk": 7371, "ĠEx": 7372, "Ġencouraging": 7373, "Ġaud": 7374, "osen": 7375, "onies": 7376, "Ġchosen": 7377, "hew": 7378, "ĠFarmer": 7379, "ĠAng": 7380, "Ġcouple": 7381, "Ġdesigns": 7382, "Ġslipping": 7383, "Ġscrewdriver": 7384, "Ġsquishy": 7385, "ĠEmmy": 7386, "Ġgardener": 7387, "Ġcenter": 7388, "Ġrivers": 7389, "Ġrespond": 7390, "Ġmarkers": 7391, "iley": 7392, "Ġtigers": 7393, "Ġjars": 7394, "pecting": 7395, "Ġfrowns": 7396, "bird": 7397, "Ġfluttered": 7398, "ĠSadly": 7399, "ĠKit": 7400, "Ribbit": 7401, "Ġfirefighter": 7402, "ĠSl": 7403, "ĠRyan": 7404, "Ġsuits": 7405, "Ġsecure": 7406, "Ġsprinkled": 7407, "Ġcreamy": 7408, "ashes": 7409, "Ġsharks": 7410, "Ġignoring": 7411, "Ġbru": 7412, "Ġgiggles": 7413, "Ġtissue": 7414, "Ġtighter": 7415, "Ġfirmly": 7416, "ounce": 7417, "ĠLaura": 7418, "Ġshown": 7419, "Ġfamiliar": 7420, "fly": 7421, "Ġthorns": 7422, "Spike": 7423, "ĠWo": 7424, "Ġdrawers": 7425, "child": 7426, "ĠZee": 7427, "Ġexpress": 7428, "Ġdef": 7429, "Car": 7430, "ments": 7431, "Ġdaring": 7432, "Ġcrossing": 7433, "Ġaudience": 7434, "Ġperforming": 7435, "Ġcoloured": 7436, "Ġcloudy": 7437, "Ġcor": 7438, "Ġais": 7439, "ĠNick": 7440, "rat": 7441, "Ġpedaled": 7442, "Get": 7443, "Ġmixture": 7444, "Ġtil": 7445, "Ġgracefully": 7446, "ggy": 7447, "Ġhaircuts": 7448, "Ġyielded": 7449, "Ġponies": 7450, "Ġdisob": 7451, "Ġcrowns": 7452, "Ġbits": 7453, "Ġtodd": 7454, "ĠSleep": 7455, "Ġnervously": 7456, "Ġhangers": 7457, "bbled": 7458, "ĠPatch": 7459, "Zoomy": 7460, "Ġpays": 7461, "Ġ2": 7462, "Ġpeck": 7463, "Ġstroke": 7464, "Ġev": 7465, "fall": 7466, "Bang": 7467, "Ġrespected": 7468, "Ġnapped": 7469, "ĠRon": 7470, "aven": 7471, "Ġminded": 7472, "ddie": 7473, "Bessie": 7474, "ably": 7475, "Boys": 7476, "Ġtested": 7477, "ading": 7478, "parent": 7479, "ĠChris": 7480, "Kim": 7481, "ĠUniversity": 7482, "ĠNear": 7483, "Ġbeeh": 7484, "ĠTurtle": 7485, "Ġsurfing": 7486, "Ġneighbours": 7487, "arrow": 7488, "vered": 7489, "Ġshady": 7490, "iona": 7491, "arlings": 7492, "Ġmagician": 7493, "Ġenthusiasm": 7494, "Ġdarlings": 7495, "Ġwisely": 7496, "Ġstitches": 7497, "Ġsails": 7498, "Dear": 7499, "Ġweekend": 7500, "Ġthoughts": 7501, "Freddy": 7502, "ĠTweetie": 7503, "Ġreminds": 7504, "fted": 7505, "Ġtemper": 7506, "oring": 7507, "tha": 7508, "antha": 7509, "Ġsurroundings": 7510, "Ġspits": 7511, "Ġfleas": 7512, "Ġteams": 7513, "Ġlessons": 7514, "Ġfills": 7515, "Ġflip": 7516, "ĠAlong": 7517, "Ġpaintbrush": 7518, "Ġmelons": 7519, "Ġmermaid": 7520, "lle": 7521, "oni": 7522, "Katie": 7523, "rac": 7524, "Ġgrandchild": 7525, "Ġhoops": 7526, "Ġexplo": 7527, "Ġelbow": 7528, "Ġsports": 7529, "Guess": 7530, "Ġlies": 7531, "ĠFighting": 7532, "Ġpanicked": 7533, "Ġcleaner": 7534, "Ġamount": 7535, "cused": 7536, "Ġlongest": 7537, "Ġscooters": 7538, "Ġlent": 7539, "ita": 7540, "immering": 7541, "Ġbeloved": 7542, "Pippin": 7543, "Ġbeehive": 7544, "Alright": 7545, "ongrat": 7546, "oga": 7547, "Ġsill": 7548, "ongratul": 7549, "Ġoysters": 7550, "Ġgrandparent": 7551, "Ġforgiven": 7552, "Ġmagazines": 7553, "Ġarr": 7554, "ĠWise": 7555, "Ġelf": 7556, "Ġrepeating": 7557, "Ġdiscussed": 7558, "Ġsweetest": 7559, "ĠThanks": 7560, "Keep": 7561, "Ġwadd": 7562, "ĠMaya": 7563, "Ġreass": 7564, "Ġlace": 7565, "ĠGranny": 7566, "Ġnightmares": 7567, "Ġtubes": 7568, "ĠWilly": 7569, "Am": 7570, "Ġunderstands": 7571, "Ġspoonful": 7572, "Ġnood": 7573, "Ġbathing": 7574, "ĠZoey": 7575, "asty": 7576, "Ġsweep": 7577, "Ġmanners": 7578, "onna": 7579, "crow": 7580, "Uncle": 7581, "Ġwrink": 7582, "Ġsprang": 7583, "Ġnur": 7584, "Ġbully": 7585, "ĠHolly": 7586, "Ġguide": 7587, "ĠYet": 7588, "Ġcrew": 7589, "romise": 7590, "ancy": 7591, "Jazz": 7592, "Ġbreathed": 7593, "while": 7594, "steps": 7595, "ilda": 7596, "ently": 7597, "ĠBally": 7598, "Ġbulbs": 7599, "Ġneare": 7600, "Ġgrassy": 7601, "Ġwiggly": 7602, "Ġtesting": 7603, "Ġspies": 7604, "Ġcoug": 7605, "Ġsolving": 7606, "Ġsheets": 7607, "ĠRoo": 7608, "Ġfootsteps": 7609, "ntil": 7610, "Afterwards": 7611, "Ġspeeding": 7612, "Ġfocused": 7613, "ounced": 7614, "cept": 7615, "?!\"": 7616, "Ġmesmerized": 7617, "Ġcamel": 7618, "Ġbraver": 7619, "Ġhesitant": 7620, "ĠSparkle": 7621, "Ġlicking": 7622, "Ġrushing": 7623, "ĠWell": 7624, "ne": 7625, "Ġjoining": 7626, "ĠPuppy": 7627, "Ġpolar": 7628, "Ġgreeted": 7629, "ĠMartha": 7630, "espite": 7631, "anna": 7632, "--": 7633, "ĠBubb": 7634, "Which": 7635, "Kiki": 7636, "Ġworn": 7637, "Ġmaterials": 7638, "Ġchanges": 7639, "Ġaren": 7640, "ĠNobody": 7641, "undred": 7642, "Ġstored": 7643, "Ġbicycles": 7644, "een": 7645, "Ġmast": 7646, "Ġanger": 7647, "Leave": 7648, "Ġpeacefully": 7649, "Ġships": 7650, "Ġspice": 7651, "Ġterrified": 7652, "Ġnuzz": 7653, "Ġgonna": 7654, "ĠShow": 7655, "Ġpolitely": 7656, "Snow": 7657, "Ġspills": 7658, "Ġscarecrow": 7659, "Ġknives": 7660, "Ġevil": 7661, "ĠMixy": 7662, "ppies": 7663, "Ġburying": 7664, "ca": 7665, "Ġhealing": 7666, "Ġdonkey": 7667, "Ġaeroplanes": 7668, "freeze": 7669, "Even": 7670, "Ġseals": 7671, "Ġscattering": 7672, "Ġmiles": 7673, "ĠChewy": 7674, "amboo": 7675, "Ġdump": 7676, "Ġworrying": 7677, "ĠSoft": 7678, "Bee": 7679, "zoom": 7680, "beep": 7681, "David": 7682, "ĠLenny": 7683, "Ġpuzzled": 7684, "Ġstacked": 7685, "ĠKip": 7686, "Penny": 7687, "ĠNice": 7688, "Ġloses": 7689, "dding": 7690, "Ġtravelled": 7691, "Ġbaskets": 7692, "ĠWin": 7693, "ĠOkay": 7694, "Ġgazing": 7695, "Ġblast": 7696, "ipes": 7697, "ĠTess": 7698, "erm": 7699, "Hurry": 7700, "Ġtemperature": 7701, "Ġund": 7702, "Ġtasting": 7703, "Ġdripping": 7704, "Ġclue": 7705, "Ġbelieving": 7706, "Ġpinching": 7707, "Ġsoaking": 7708, "Ġrats": 7709, "Ġ10": 7710, "isc": 7711, "Ġsandy": 7712, "rect": 7713, "ĠIsn": 7714, "ĠSimon": 7715, "rey": 7716, "anwhile": 7717, "gling": 7718, "ĠAbi": 7719, "Binky": 7720, "Ġpunishment": 7721, "Ġbanged": 7722, "Ġhumans": 7723, "Ġcrashing": 7724, "Ġforce": 7725, "ĠAna": 7726, "Ġhundred": 7727, "Ġgest": 7728, "ĠLia": 7729, "Ġswimmer": 7730, "ĠChess": 7731, "Ġsnowflakes": 7732, "Ġrelaxing": 7733, "Ġresisted": 7734, "Ġbeeped": 7735, "ĠFairy": 7736, "Ġquarreled": 7737, "form": 7738, "elie": 7739, "Ġramp": 7740, "ĠWendy": 7741, "Ġjoins": 7742, "abby": 7743, "Ġdressing": 7744, "Ġbackpacks": 7745, "ĠPh": 7746, "years": 7747, "Ġdelayed": 7748, "Ġtoddler": 7749, "ĠLuckily": 7750, "ofia": 7751, "Ġflight": 7752, "Ġcovering": 7753, "ĠTe": 7754, "orter": 7755, "Two": 7756, "Open": 7757, "By": 7758, "Ġencouragement": 7759, "Ġbenches": 7760, "Ġtoward": 7761, "Ġscraped": 7762, "Ġpurpose": 7763, "Ġfocus": 7764, "ĠJudy": 7765, "Bow": 7766, "Ġcorrect": 7767, "'.\"": 7768, "Ġlipstick": 7769, "Ġbamboo": 7770, "Spe": 7771, "Ġtwinkled": 7772, "Ġpotion": 7773, "Ġpermitted": 7774, "Ġmonths": 7775, "ĠCow": 7776, "Ġlanguages": 7777, "Ġorders": 7778, "Ġfreedom": 7779, "Tony": 7780, "Ġrisks": 7781, "Ġpoppies": 7782, "Ġmaster": 7783, "shm": 7784, "Ġnoodles": 7785, "Ġfaded": 7786, "Ġwounds": 7787, "shmallow": 7788, "rier": 7789, "Kids": 7790, "isions": 7791, "ĠJojo": 7792, "Ġcreams": 7793, "Ġbirdhouse": 7794, "Ġcells": 7795, "Ġannoyed": 7796, "ĠHerb": 7797, "opes": 7798, "Ġsniffing": 7799, "Ġcheers": 7800, "Ġadults": 7801, "Birdy": 7802, "Ġunwra": 7803, "ecca": 7804, "Buzzy": 7805, "Ġpuck": 7806, "Ġopinions": 7807, "Ġfloats": 7808, "andas": 7809, "Instead": 7810, "Ġflown": 7811, "Arr": 7812, "Ġsneezes": 7813, "Ġscen": 7814, "Ġnodding": 7815, "Ġhandsome": 7816, "ĠHug": 7817, "Ġsmelling": 7818, "ĠMint": 7819, "Ġburnt": 7820, "Ġ5": 7821, "Ġdrifted": 7822, "bage": 7823, "Ġwithin": 7824, "ider": 7825, "Ġscient": 7826, "Ġheight": 7827, "Ġdamaged": 7828, "Ġbothering": 7829, "Ġtearing": 7830, "Ġslither": 7831, "Ġpleaded": 7832, "Ġinstruments": 7833, "Ġease": 7834, "ĠAli": 7835, "Back": 7836, "Ġscientist": 7837, "ĠMarie": 7838, "Mira": 7839, "Goodnight": 7840, "Ġpound": 7841, "Ġseller": 7842, "Ġhanding": 7843, "da": 7844, "Ġgerm": 7845, "ĠSay": 7846, "Ġwasting": 7847, "Ġfiles": 7848, "Ġresults": 7849, "Ġdreamt": 7850, "ĠMabel": 7851, "bell": 7852, "Ġexplains": 7853, "Ġdestroying": 7854, "Ġbrushing": 7855, "ousy": 7856, "Ġhiss": 7857, "Ġcharacters": 7858, "ĠRazor": 7859, "ĠCr": 7860, "Carl": 7861, "Ġcertain": 7862, "ĠSte": 7863, "Pandy": 7864, "Behind": 7865, "Ġsweaty": 7866, "unched": 7867, "Ġbusiness": 7868, "ĠRobbie": 7869, "Ġtalents": 7870, "Ġonward": 7871, "Try": 7872, "Ġengines": 7873, "Ġbravest": 7874, "ition": 7875, "Ġsternly": 7876, "ĠPen": 7877, "ĠJanie": 7878, "prints": 7879, "Ġpostman": 7880, "Ġmosquitoes": 7881, "Ġminds": 7882, "cake": 7883, "Ġtuck": 7884, "Ġscares": 7885, "urious": 7886, "Ġstomp": 7887, "Ġapologised": 7888, "uel": 7889, "Ġmanag": 7890, "Ġsnuck": 7891, "Ġbitten": 7892, "attered": 7893, "Ġtilted": 7894, "Ġswitched": 7895, "Ġreminding": 7896, "Ġdecisions": 7897, "Ġsingers": 7898, "Ġdesper": 7899, "Ġbehavior": 7900, "ĠPoor": 7901, "ashing": 7902, "ĠJudge": 7903, "bbers": 7904, "inny": 7905, "Ġsqueaked": 7906, "Ġpeeled": 7907, "ĠEverybody": 7908, "Ġyumm": 7909, "Ġpurrs": 7910, "ĠBra": 7911, "Ġtreated": 7912, "Ġsmashed": 7913, "Ġrustling": 7914, "Ġdisplayed": 7915, "ĠUntil": 7916, "Ġneatly": 7917, "Ġmatey": 7918, "Ġplanting": 7919, "ĠBess": 7920, "Ġmarshmallow": 7921, "Ġinsp": 7922, "Ġyelped": 7923, "Ġsy": 7924, "Ġgrandparents": 7925, "Ġcracks": 7926, "Ġbellies": 7927, "aver": 7928, "Ġshines": 7929, "Ġscamp": 7930, "ĠNavy": 7931, "Ġfailed": 7932, "Ġcoloring": 7933, "Ġhoo": 7934, "ĠYoga": 7935, "Ġzooms": 7936, "ĠMake": 7937, "rup": 7938, "Ġnasty": 7939, "Ġbreathing": 7940, "Ġcombed": 7941, "Ġpandas": 7942, "Ġdespite": 7943, "line": 7944, "Ġaddress": 7945, "ighing": 7946, "Ġwaterfall": 7947, "uffin": 7948, "omp": 7949, "cc": 7950, "ĠLoop": 7951, "ĠAngel": 7952, "Tilly": 7953, "Ġwider": 7954, "Ġrobbers": 7955, "Ġantic": 7956, "Play": 7957, "Abigail": 7958, "Ġsweaters": 7959, "Ġechoed": 7960, "Ġdoorway": 7961, "ĠTodd": 7962, "evin": 7963, "Ġedges": 7964, "Ġinj": 7965, "ĠShadow": 7966, "Aunt": 7967, "Ġgap": 7968, "Ġdisobey": 7969, "ĠBlinky": 7970, "wise": 7971, "Liz": 7972, "ĠMichael": 7973, "Ġtar": 7974, "ĠFlick": 7975, "oscope": 7976, "orking": 7977, "Wake": 7978, "Ġtaped": 7979, "Ġmagnif": 7980, "ulp": 7981, "father": 7982, "Ġscolds": 7983, "Ġflaps": 7984, "Ġaction": 7985, "Ġcrawls": 7986, "ĠMindy": 7987, "Ros": 7988, "Ġswap": 7989, "Ġgobbled": 7990, "Ġbacks": 7991, "ĠGary": 7992, "Ġwarri": 7993, "ĠFishy": 7994, "ĠEddie": 7995, "Slow": 7996, "Ġsteth": 7997, "Ġsever": 7998, "Ġshinier": 7999, "Ġprobably": 8000, "Ġnewspapers": 8001, "Ġseveral": 8002, "Ġocc": 8003, "Rock": 8004, "Lena": 8005, "Ġencount": 8006, "ĠMeg": 8007, "Ġserving": 8008, "Ġquieter": 8009, "Ġplucked": 8010, "Ġconnected": 8011, "tock": 8012, "ĠShare": 8013, "Ġouch": 8014, "igger": 8015, "Ted": 8016, "Adam": 8017, "Ġgesture": 8018, "Too": 8019, "Fl": 8020, "Ġstudent": 8021, "Ġplot": 8022, "Ġdoorbell": 8023, "Ġsquaw": 8024, "Ġcares": 8025, "fire": 8026, "Ġrescuing": 8027, "Ġgrandson": 8028, "ĠSe": 8029, "Ġspy": 8030, "Ġsimply": 8031, "Ġrows": 8032, "Ġgoo": 8033, "iel": 8034, "Ġwhistles": 8035, "mies": 8036, "vant": 8037, "Shrink": 8038, "Magic": 8039, "Ġsnaps": 8040, "Ġshorter": 8041, "Ġastronauts": 8042, "Ġunpacking": 8043, "Ġcottage": 8044, "ĠTime": 8045, "Ġswo": 8046, "Ġaccidents": 8047, "ibi": 8048, "Ġswollen": 8049, "Ġmood": 8050, "ĠNut": 8051, "Steve": 8052, "abelle": 8053, "ĠZippy": 8054, "ĠMousy": 8055, "anie": 8056, "Zara": 8057, "Ġbothered": 8058, "Hannah": 8059, "Ġstethoscope": 8060, "Ġtrusting": 8061, "Ġcausing": 8062, "Mat": 8063, "Mad": 8064, "Brr": 8065, "Ġleapt": 8066, "Ġdresser": 8067, "found": 8068, "aint": 8069, "Ġsou": 8070, "Ġproper": 8071, "Ġpills": 8072, "retty": 8073, "Ġthroughout": 8074, "Olive": 8075, "Ġrunner": 8076, "Ġprayers": 8077, "ĠDina": 8078, "Ġjoyful": 8079, "Thomas": 8080, "ĠKaren": 8081, "mates": 8082, "Ġlocks": 8083, "ĠPrince": 8084, "Jamie": 8085, "Ġgoats": 8086, "what": 8087, "Ġtarget": 8088, "rest": 8089, "ĠWait": 8090, "Ġdears": 8091, "ĠBang": 8092, "artled": 8093, "Red": 8094, "Ġwaddled": 8095, "Ġmunch": 8096, "Ġflips": 8097, "ĠCro": 8098, "onnie": 8099, "Ġlowered": 8100, "Ġstepping": 8101, "Ġcons": 8102, "ĠJackie": 8103, "Ġteachers": 8104, "Ġcowboy": 8105, "ĠToys": 8106, "Ġinches": 8107, "Ġenvelopes": 8108, "ears": 8109, "Ġchar": 8110, "ĠVroom": 8111, "Ġexplorer": 8112, "Ġanticip": 8113, "oosh": 8114, "Ġplayd": 8115, "ĠReady": 8116, "ĠRuff": 8117, "ĠRalph": 8118, "unity": 8119, "Nice": 8120, "Finn": 8121, "ĠBad": 8122, "ening": 8123, "Ġknocking": 8124, "Ġfloors": 8125, "Ġefforts": 8126, "ĠPl": 8127, "Ġuniforms": 8128, "lied": 8129, "Ġplug": 8130, "ĠTri": 8131, "Ġaware": 8132, "Ġfootprints": 8133, "Someone": 8134, "Ġnearly": 8135, "ĠFiona": 8136, "llas": 8137, "Ġdisc": 8138, "ĠRia": 8139, "ivi": 8140, "Ġwhimp": 8141, "Ġtrot": 8142, "Ġsens": 8143, "Ġglitt": 8144, "Ġappreciation": 8145, "Ġnecks": 8146, "Ġcollap": 8147, "Ġchecks": 8148, "Ġlapt": 8149, "Ġexcept": 8150, "Ġcharge": 8151, "ĠJacky": 8152, "Ġfluttering": 8153, "Ġumbrellas": 8154, "Ġstamped": 8155, "acy": 8156, "Ġsandcastles": 8157, "ĠDavey": 8158, "Ġstatues": 8159, "ĠHoney": 8160, "omb": 8161, "iscuit": 8162, "ails": 8163, "Hoppy": 8164, "Ġshrank": 8165, "ĠAmelia": 8166, "rily": 8167, "Ġprick": 8168, "Ġfinishing": 8169, "Ġadds": 8170, "rons": 8171, "Ġstroll": 8172, "Ġhunters": 8173, "Ġdodged": 8174, "Ġchocolates": 8175, "Ġpassengers": 8176, "Ġgerms": 8177, "oger": 8178, "Ġwrig": 8179, "Ġaprons": 8180, "Ġaisle": 8181, "nie": 8182, "Ġsets": 8183, "ĠGerry": 8184, "Ġweeds": 8185, "Ġnovels": 8186, "Ġdemanding": 8187, "ĠTaking": 8188, "gles": 8189, "Ġscratching": 8190, "Ġmeows": 8191, "issa": 8192, "Dr": 8193, "Ġnurses": 8194, "Lucky": 8195, ".'\"": 8196, "Ġminding": 8197, "Ġdiscussing": 8198, "urrender": 8199, "Ġkilled": 8200, "Ġdriveway": 8201, "ĠCari": 8202, "Ġbecomes": 8203, "Ġtoolbox": 8204, "Ġlaptop": 8205, "Ġhaird": 8206, "ĠEliz": 8207, "Ġposit": 8208, "Ġattack": 8209, "ĠSadie": 8210, "ĠGl": 8211, "ĠDespite": 8212, "Speedy": 8213, "sol": 8214, "Ġscampered": 8215, "Ġbounces": 8216, "Ġsupplied": 8217, "Ġsprays": 8218, "Ġdeed": 8219, "Ġtempt": 8220, "Ġsuggestion": 8221, "Ġfriendships": 8222, "Ġburns": 8223, "Coco": 8224, "Ġslapping": 8225, "Ġclosing": 8226, "Ġinvites": 8227, "Ġbelongings": 8228, "Ġanticipation": 8229, "Ġspringing": 8230, "Ġform": 8231, "Ġerase": 8232, "Ġcotton": 8233, "ĠStan": 8234, "Ġtwists": 8235, "Ġrays": 8236, "Ġsnuggle": 8237, "Ġforgives": 8238, "Ġmodels": 8239, "Ġshall": 8240, "Ġmassages": 8241, "Ġhumming": 8242, "Ġresponded": 8243, "Ġnewfound": 8244, "Ġghosts": 8245, "Ġexpecting": 8246, "ĠShelly": 8247, "Ġcheated": 8248, "Does": 8249, "ĠWooly": 8250, "Gigi": 8251, "otte": 8252, "Ġtraveling": 8253, "ĠNe": 8254, "Ġcond": 8255, "Ġbattle": 8256, "Ġalthough": 8257, "Ġarran": 8258, "alloween": 8259, "Ġmommies": 8260, "Ġinvitations": 8261, "Ġcarries": 8262, "Ġaim": 8263, "Ġrefreshing": 8264, "Ġpresented": 8265, "hel": 8266, "Ġtwenty": 8267, "Ġrowed": 8268, "ĠBumpy": 8269, "ots": 8270, "Ġsquir": 8271, "rie": 8272, "arlotte": 8273, "Ġfoxes": 8274, "Ġcooper": 8275, "Ġfinal": 8276, "Ġduckling": 8277, "Ġcafe": 8278, "ĠBibi": 8279, "Pip": 8280, "Ġmarshmallows": 8281, "Ġclicked": 8282, "ĠZipper": 8283, "oor": 8284, "Ġjets": 8285, "Ġdesigning": 8286, "Ġbeaver": 8287, "five": 8288, "ĠMuffin": 8289, "ĠHalloween": 8290, "Ġmugs": 8291, "ĠWhoever": 8292, "Ġdrown": 8293, "ĠAlthough": 8294, "Ġtricycle": 8295, "Ġpicnics": 8296, "Ġoppos": 8297, "Ġconvin": 8298, "ĠRuth": 8299, "ĠExcited": 8300, "iens": 8301, "ĠCle": 8302, "Ġscoops": 8303, "Ġcongratul": 8304, "ĠPop": 8305, "ĠMaddie": 8306, "po": 8307, "off": 8308, "Sadly": 8309, "Ġtravels": 8310, "Ġaliens": 8311, "ĠâĢĶ": 8312, "Ġtests": 8313, "Ġquestioned": 8314, "ĠSpeed": 8315, "inted": 8316, "Ġstrips": 8317, "ĠIm": 8318, "Near": 8319, "atty": 8320, "Mouse": 8321, "covered": 8322, "Ġdefe": 8323, "ĠFlutter": 8324, "ĠBubba": 8325, "iri": 8326, "ended": 8327, "Br": 8328, "Ġfights": 8329, "roken": 8330, "Ball": 8331, "Ġopposite": 8332, "ĠBiggy": 8333, "Hmm": 8334, "Find": 8335, "Elly": 8336, "Chloe": 8337, "Ġrout": 8338, "Ġgrandfather": 8339, "Ġencountered": 8340, "ĠNever": 8341, "Ġdecl": 8342, "inch": 8343, "Ġafford": 8344, "Ġraising": 8345, "iment": 8346, "Ġupside": 8347, "ĠVivi": 8348, "Meanwhile": 8349, "Jess": 8350, "Ġflashed": 8351, "Ġcalmly": 8352, "ĠRita": 8353, "Ġyawning": 8354, "Ġsincere": 8355, "Ġrealizes": 8356, "aturday": 8357, "Trust": 8358, "Choo": 8359, "Ġcrystals": 8360, "Ġbuddy": 8361, "ĠSamantha": 8362, "Ġcupcakes": 8363, "Ġbuckled": 8364, "byes": 8365, "Both": 8366, "Ġwinners": 8367, "Ġdefin": 8368, "verse": 8369, "ris": 8370, "Ġconc": 8371, "',": 8372, "Ġweapons": 8373, "Ġcaw": 8374, "shadow": 8375, "Josh": 8376, "Ġpackages": 8377, "Ġcheat": 8378, "ĠSaturday": 8379, "Ġsacks": 8380, "Ġmesses": 8381, "Ġgoodbyes": 8382, "Ġcoach": 8383, "Ġattem": 8384, "quet": 8385, "Ġconvers": 8386, "ĠTruck": 8387, "ĠFlo": 8388, "val": 8389, "Ġcaps": 8390, "ĠMina": 8391, "ĠEva": 8392, "emies": 8393, "Ġenemies": 8394, "asha": 8395, "Ġyummiest": 8396, "Ġscrub": 8397, "Ġswallow": 8398, "Ġreturning": 8399, "Ġadmiration": 8400, "ĠSofty": 8401, "ĠMegan": 8402, "Since": 8403, "Ġsprout": 8404, "ĠLouise": 8405, "Ġunable": 8406, "ĠPlaying": 8407, "ĠAnother": 8408, "rian": 8409, "ooks": 8410, "Ġsadder": 8411, "Ġfreezing": 8412, "Ġbrightest": 8413, "Ġbless": 8414, "ĠYawn": 8415, "Ġrespon": 8416, "reverse": 8417, "Ġresponse": 8418, "Ġcosy": 8419, "ĠOh": 8420, "Ġdiamonds": 8421, "Ġbride": 8422, "stalk": 8423, "Ġreapp": 8424, "Ġopport": 8425, "Ġhonking": 8426, "Ġgarbage": 8427, "ĠMan": 8428, "Ġwhispering": 8429, "Ġstretches": 8430, "Ġprevented": 8431, "erk": 8432, "antastic": 8433, "Ġwhoever": 8434, "Ġodd": 8435, "Ġawful": 8436, "ĠGray": 8437, "alth": 8438, "Ġweighs": 8439, "Ġjourneys": 8440, "Ġawoke": 8441, "Ġtraps": 8442, "Ġspices": 8443, "Ġdragonfly": 8444, "Ġborn": 8445, "Ġreassured": 8446, "Ġclip": 8447, "ivia": 8448, "Ġstall": 8449, "Ġbeanstalk": 8450, "Ġargum": 8451, "Ġexamining": 8452, "Ġdefinitely": 8453, "Ġbeetles": 8454, "Ġautomobiles": 8455, "ĠMaisy": 8456, "mine": 8457, "ici": 8458, "Hop": 8459, "Ġvisitors": 8460, "Ġstuffing": 8461, "Ġplaydate": 8462, "Ġwashes": 8463, "cie": 8464, "broken": 8465, "Ġwiser": 8466, "Ġcustomer": 8467, "uper": 8468, "emma": 8469, "Rachel": 8470, "Ġtravelling": 8471, "ĠSofia": 8472, "ĠJolly": 8473, "ĠFlop": 8474, "ouquet": 8475, "Ġhairdress": 8476, "Ġbouquet": 8477, "ĠNurse": 8478, "orse": 8479, "bble": 8480, ",'": 8481, "Ġtumbled": 8482, "Ġdecoration": 8483, "Ġcampfire": 8484, "ĠElle": 8485, "Ġhonesty": 8486, "Ġbud": 8487, "vy": 8488, "ebecca": 8489, "action": 8490, "Only": 8491, "Ġbomb": 8492, "Ġwelcoming": 8493, "Ġoffering": 8494, "Ġwealth": 8495, "Ġtroubles": 8496, "Ġoccas": 8497, "Ġincreasing": 8498, "ĠOt": 8499, "ĠJax": 8500, "ĠHello": 8501, "Ġloudest": 8502, "Ġinspired": 8503, "Ġtype": 8504, "Ġparted": 8505, "Ġgroan": 8506, "ĠChick": 8507, "ĠNutty": 8508, "irac": 8509, "Ġwhales": 8510, "ĠThunder": 8511, "ĠRicky": 8512, "Ġdeclared": 8513, "Ġcorrectly": 8514, "yler": 8515, "ooky": 8516, "fus": 8517, "Ġcraft": 8518, "Ġbeaks": 8519, "ĠQuacky": 8520, "athan": 8521, "Ġcleared": 8522, "Ġcowboys": 8523, "Ġnuzzled": 8524, "ĠDotty": 8525, "Ġprizes": 8526, "Finny": 8527, "Ġwarmly": 8528, "ĠMissile": 8529, "Ġrewards": 8530, "Ġobeyed": 8531, "Ġcustomers": 8532, "Should": 8533, "Ġsirens": 8534, "Ġcomforting": 8535, "ĠFel": 8536, "shaped": 8537, "Ġconnect": 8538, "ĠFlappy": 8539, "match": 8540, "Ġtowns": 8541, "ĠMagic": 8542, "ĠBingo": 8543, "elieve": 8544, "Ġrely": 8545, "ĠVicky": 8546, "Honey": 8547, "Ġtrigger": 8548, "Ġowns": 8549, "Ġinsisting": 8550, "Ġfantastic": 8551, "Ġbends": 8552, "ĠFe": 8553, "Ġspoiling": 8554, "Ġhairdresser": 8555, "Ġsurrendered": 8556, "Ġsupporting": 8557, "Ġshares": 8558, "Ġposes": 8559, "Ġpipes": 8560, "Ġcleans": 8561, "rench": 8562, "Sun": 8563, "Outside": 8564, "Julie": 8565, "Ġwrinkled": 8566, "ĠCook": 8567, "Ġchopped": 8568, "Ġrecorder": 8569, "Ġmoons": 8570, "Ġbeaming": 8571, "unes": 8572, "ellow": 8573, "Beth": 8574, "Ġthanking": 8575, "Ġsnowy": 8576, "ĠWolf": 8577, "enn": 8578, "Ġscurry": 8579, "Ġexperien": 8580, "Ġenjoyable": 8581, "Ġactive": 8582, "Ġcoral": 8583, "ĠPiggy": 8584, "Ġenviron": 8585, "Ġdollar": 8586, "ĠKevin": 8587, "worm": 8588, "elope": 8589, "Ġloc": 8590, "Je": 8591, "Ġstreamers": 8592, "ĠBub": 8593, "udged": 8594, "ĠPatty": 8595, "ĠMother": 8596, "ĠZack": 8597, "inger": 8598, "Suzy": 8599, "Ġexamp": 8600, "Ġshorts": 8601, "Ġshooed": 8602, "Ġenvironment": 8603, "Tree": 8604, "Ġill": 8605, "Ġscent": 8606, "Ġbruises": 8607, "uster": 8608, "Ġgrat": 8609, "ĠLuc": 8610, "Bo": 8611, "Ġhisses": 8612, "Ġsteering": 8613, "Ġself": 8614, "Ġplugged": 8615, "ĠElsa": 8616, "Ġwarrior": 8617, "yl": 8618, "Ġvisits": 8619, "Ġexercises": 8620, "screen": 8621, "irl": 8622, "aptain": 8623, "Ġdangers": 8624, "Ġcuddles": 8625, "ĠRel": 8626, "ĠMin": 8627, "ĠAr": 8628, "Ġunfortunately": 8629, "Ġsquished": 8630, "Ġsigning": 8631, "ĠLight": 8632, "bee": 8633, "Ray": 8634, "Ġpilots": 8635, "Ġdisappoint": 8636, "munk": 8637, "Ġgratitude": 8638, "Ġapplauding": 8639, "alf": 8640, "Ġproviding": 8641, "ĠMoppy": 8642, "Ġtickles": 8643, "Ġting": 8644, "ĠRub": 8645, "Grow": 8646, "Ġstorms": 8647, "Ġnights": 8648, "Ġjud": 8649, "Ġconvinced": 8650, "Ġbadger": 8651, "ĠElsie": 8652, "Ġyoun": 8653, "Ġresponsib": 8654, "Ġchoosing": 8655, "ĠKelly": 8656, "Joy": 8657, "Ġyoungest": 8658, "Ġnearest": 8659, "Ġbrains": 8660, "Ġactivity": 8661, "Abby": 8662, "Ġexploded": 8663, "Ġcoughed": 8664, "Ġarranged": 8665, "Claire": 8666, "Ġrewarding": 8667, "ĠTre": 8668, "ĠFly": 8669, "good": 8670, "erpiece": 8671, "Ġsunscreen": 8672, "Ġpeep": 8673, "Ġbond": 8674, "ĠFloppy": 8675, "asers": 8676, "Mon": 8677, "ĠTweety": 8678, "ĠSweet": 8679, "ĠKaty": 8680, "ĠSal": 8681, "ilities": 8682, "Ġannoying": 8683, "eow": 8684, "Ġsoapy": 8685, "sn": 8686, "meow": 8687, "Splash": 8688, "Ġrails": 8689, "Ġlaces": 8690, "Ġthreads": 8691, "Ġtapping": 8692, "Ġoffic": 8693, "Ġappreciated": 8694, "ĠPine": 8695, "ĠPhil": 8696, "boards": 8697, "Ġweighing": 8698, "Ġheartbroken": 8699, "Ġemerged": 8700, "Ġcongratulated": 8701, "ĠPick": 8702, "Danger": 8703, "Ġtin": 8704, "ĠSil": 8705, "Ġcrocodiles": 8706, "Ġclerk": 8707, "Ġscram": 8708, "Ġattempt": 8709, "ĠNancy": 8710, "water": 8711, "Ahoy": 8712, "Ġmessed": 8713, "Ġexample": 8714, "Ġdial": 8715, "ĠKay": 8716, "ĠAny": 8717, "Momma": 8718, "Ġhooks": 8719, "ĠJonny": 8720, "Ġtops": 8721, "Ġchipmunk": 8722, "Ġsoot": 8723, "Ġguarding": 8724, "Ġbathed": 8725, "raged": 8726, "Ġmanager": 8727, "ĠTippy": 8728, "ortunately": 8729, "ĠMicroscope": 8730, "Friends": 8731, "ĠDe": 8732, "etah": 8733, "Snowy": 8734, "Ġmasterpiece": 8735, "ĠBaa": 8736, "ending": 8737, "Ġerasers": 8738, "Ġtips": 8739, "Ġfinishes": 8740, "Ġfet": 8741, "Ġcommon": 8742, "ĠTomorrow": 8743, "mbers": 8744, "Ġtrotted": 8745, "Ġnibbled": 8746, "Ġmembers": 8747, "Ġdigs": 8748, "People": 8749, "Ġkinder": 8750, "Ġcheetah": 8751, "Ġparticularly": 8752, "Ġchews": 8753, "Ġblond": 8754, "ircle": 8755, "Ġrips": 8756, "Ġbeast": 8757, "Lizzy": 8758, "Ġargument": 8759, "ative": 8760, "Ġfaith": 8761, "ĠHelping": 8762, "Ġearned": 8763, "Anne": 8764, "Ġobserving": 8765, "Ġforgiveness": 8766, "ĠJoke": 8767, "ĠCici": 8768, "chievous": 8769, "Ġinstantly": 8770, "Ġfishes": 8771, "Ġexperienced": 8772, "Ġcurl": 8773, "Ġcheaper": 8774, "ĠJumpy": 8775, "Rosie": 8776, "Ġmischievous": 8777, "Ġgenerosity": 8778, "Ġcages": 8779, "ĠTwist": 8780, "Gr": 8781, "Baa": 8782, "Ġmeowing": 8783, "Ġfoam": 8784, "mered": 8785, "Cindy": 8786, "Ġstores": 8787, "Ġgrandd": 8788, "ĠAg": 8789, "etchup": 8790, "Ġmattered": 8791, "Ġteles": 8792, "Ġpasses": 8793, "Ġlimp": 8794, "Sque": 8795, "Ġsleeps": 8796, "ooo": 8797, "iolet": 8798, "Ġbreaths": 8799, "ordinary": 8800, "ettle": 8801, "Ġrin": 8802, "Ġgasps": 8803, "ĠFreddie": 8804, "pr": 8805, "Got": 8806, "Ġtrans": 8807, "Ġrumbling": 8808, "Ġhatch": 8809, "ĠMomma": 8810, "ĠHopper": 8811, "over": 8812, "abra": 8813, "Ġsatisf": 8814, "Ġgrassho": 8815, "Ġaccomplished": 8816, "acing": 8817, "Ġthump": 8818, "Ġtelescope": 8819, "Ġstrum": 8820, "Ġsmartest": 8821, "Ġmats": 8822, "Ġwhined": 8823, "Ġmoat": 8824, "Gina": 8825, "Ġscrambled": 8826, "Ġfarmers": 8827, "ĠIce": 8828, "Ġdrip": 8829, "Robbie": 8830, "Ġsyrup": 8831, "Ġgardens": 8832, "Ġcollapsed": 8833, "Ġangrily": 8834, "ĠMore": 8835, "ouraged": 8836, "idey": 8837, "Ġvegg": 8838, "Ġstyles": 8839, "Ġforests": 8840, "Ġexperiences": 8841, "Ġdiscoveries": 8842, "hole": 8843, "Ġtor": 8844, "Ġmedals": 8845, "Ġtypes": 8846, "Ġotters": 8847, "Ġmeaning": 8848, "Ġfaint": 8849, "Ġconqu": 8850, "ĠPig": 8851, "ĠDoes": 8852, "pit": 8853, "adabra": 8854, "acock": 8855, "Ġsnapping": 8856, "Ġhardest": 8857, "Ġfif": 8858, "ering": 8859, "Ġmovements": 8860, "Ġexpression": 8861, "Ġsurv": 8862, "Ġchilly": 8863, "Ġbubbly": 8864, "Ġaffect": 8865, "Pinky": 8866, "Ġvests": 8867, "Ġunfair": 8868, "Ġcourt": 8869, "Whenever": 8870, "Ġtoothbrush": 8871, "Ġscores": 8872, "Ġextraordinary": 8873, "Never": 8874, "Ġattitude": 8875, "Ġvibr": 8876, "Ġhorri": 8877, "Ġbluebird": 8878, "ĠMonkey": 8879, "mel": 8880, "lls": 8881, "Ġspears": 8882, "Ġketchup": 8883, "Mo": 8884, "ĠBerry": 8885, "Mother": 8886, "Ġsooner": 8887, "Ġgrasshopper": 8888, "Ġbehaviour": 8889, "Karen": 8890, "Ġpatches": 8891, "Ġhabit": 8892, "yd": 8893, "erts": 8894, "Ġpokes": 8895, "Ġmomma": 8896, "Ġafar": 8897, "ĠAshley": 8898, "ieves": 8899, "Jacob": 8900, "Ġthicker": 8901, "Ġscri": 8902, "ĠFriend": 8903, "Jon": 8904, "Ġsqueezes": 8905, "Ġslithered": 8906, "Ġshrunk": 8907, "Ġclassmates": 8908, "ĠTerry": 8909, "ĠFle": 8910, "Ġicky": 8911, "Ġprickly": 8912, "Ġglittering": 8913, "Ġexpert": 8914, "lo": 8915, "Ġtopp": 8916, "Ġkneeling": 8917, "Ġannounced": 8918, "ĠSuper": 8919, "ĠRiri": 8920, "elling": 8921, "Ġpeacock": 8922, "Ġmarking": 8923, "ctric": 8924, "Ġcosts": 8925, "ĠCally": 8926, "ĠAchoo": 8927, "Ġzigzags": 8928, "Ġwatermel": 8929, "Ġthieves": 8930, "Ġskirts": 8931, "Ġjumper": 8932, "Ġhood": 8933, "Ġacts": 8934, "ĠZog": 8935, "ĠApp": 8936, "Ġwolves": 8937, "ĠSwim": 8938, "ĠCloud": 8939, "Papa": 8940, "Ġthumbs": 8941, "Ġsqueaky": 8942, "Ġdrift": 8943, "Ġconcer": 8944, "Ġcocoon": 8945, "Ġwoodcut": 8946, "Ġboards": 8947, "ĠEliza": 8948, "ĠBecky": 8949, "Ġservant": 8950, "idence": 8951, "affle": 8952, "Ġcheating": 8953, "ĠJason": 8954, "bu": 8955, "Ġtrading": 8956, "Ġraking": 8957, "cat": 8958, "Jessie": 8959, "Ġexplaining": 8960, "ĠEric": 8961, "rick": 8962, "Ġtidied": 8963, "Ġbiscuit": 8964, "Ġlunchtime": 8965, "Ġluckily": 8966, "ĠAc": 8967, "Frog": 8968, "ĠPuffy": 8969, "Ġspilling": 8970, "ĠDay": 8971, "Fire": 8972, "Ġtransform": 8973, "Ġdesserts": 8974, "ĠUse": 8975, "ĠMaddy": 8976, "ĠDaniel": 8977, "ĠAnimal": 8978, "ror": 8979, "anced": 8980, "ĠMine": 8981, "its": 8982, "ĠStill": 8983, "ĠGill": 8984, "rough": 8985, "amma": 8986, "Ġmessages": 8987, "Ġmirac": 8988, "ĠCaptain": 8989, "idy": 8990, "Ġwindowsill": 8991, "Ġchill": 8992, "Ġbeating": 8993, "ĠTammy": 8994, "ĠLung": 8995, "ĠGilly": 8996, "Ġseeking": 8997, "oot": 8998, "Ġactor": 8999, "ĠRainbow": 9000, "ĠLina": 9001, "ĠWilliam": 9002, "sess": 9003, "ĠMath": 9004, "pril": 9005, "Any": 9006, "Ġforeshadow": 9007, "war": 9008, "acles": 9009, "Bluey": 9010, "Ġleans": 9011, "ĠStep": 9012, "ĠPinch": 9013, "ĠHi": 9014, "racadabra": 9015, "Freeze": 9016, "Bounce": 9017, "Ġwatermelon": 9018, "Ġhissing": 9019, "Ġflashing": 9020, "Ġdev": 9021, "Ġcloths": 9022, "ĠTiger": 9023, "ĠMonster": 9024, "ĠFrankie": 9025, "pop": 9026, "Ġwinding": 9027, "Ġpositive": 9028, "Ġfunn": 9029, "Ġdiscouraged": 9030, "ĠWil": 9031, "Ġwoodcutter": 9032, "Ġforts": 9033, "Ġdripped": 9034, "Ġcompete": 9035, "Ġteapot": 9036, "Ġpressing": 9037, "Ġdisagreeing": 9038, "icking": 9039, "Ġglimmering": 9040, "Ġveggies": 9041, "Ġtrusts": 9042, "Ġtidying": 9043, "Ġkangaroos": 9044, "ĠPeep": 9045, "ooh": 9046, "Ġtempted": 9047, "Ġlanding": 9048, "ĠFlora": 9049, "Ġdock": 9050, "Ġshallow": 9051, "Ġoverw": 9052, "Ġformed": 9053, "mmm": 9054, "eling": 9055, "Ġrack": 9056, "Ġfade": 9057, "ĠTooth": 9058, "flowers": 9059, "Ġworst": 9060, "Ġelectric": 9061, "Ġcops": 9062, "Nothing": 9063, "Ġapology": 9064, "iving": 9065, "creams": 9066, "ai": 9067, "Ġsleds": 9068, "ĠSilver": 9069, "ĠLife": 9070, "upid": 9071, "Ġcomets": 9072, "Ġass": 9073, "ĠJelly": 9074, "Owl": 9075, "Ġsav": 9076, "ĠShark": 9077, "ĠMag": 9078, "Bug": 9079, "Ġsituations": 9080, "Ġpapa": 9081, "Ġofficers": 9082, "Ġconversation": 9083, "Ġ4": 9084, "Rain": 9085, "ĠRoger": 9086, "ĠCharlotte": 9087, "storm": 9088, "aye": 9089, "Ġsuns": 9090, "Ġding": 9091, "âĢĿ,": 9092, "Ġzips": 9093, "Ġstructures": 9094, "Ġscurrying": 9095, "Ġpizzas": 9096, "Ġoverwhel": 9097, "Ġmiller": 9098, "ĠButter": 9099, "Ġgranddaughter": 9100, "Ġfoggy": 9101, "ĠOlivia": 9102, "ĠHurry": 9103, "ĠAmber": 9104, "Zoe": 9105, "ĠJaney": 9106, "Ġwebs": 9107, "Ġdeserved": 9108, "Rabbit": 9109, "Ġopportunity": 9110, "Ġcubs": 9111, "ĠYummy": 9112, "ĠSpidey": 9113, "ĠSasha": 9114, "ĠMixie": 9115, "ĠBuster": 9116, "Ġsnorted": 9117, "Ġrhino": 9118, "Ġdifferences": 9119, "ĠGold": 9120, "Ġquacking": 9121, "ĠTell": 9122, "ifully": 9123, "Fifi": 9124, "Ġheaven": 9125, "ĠBirds": 9126, "Ġunlo": 9127, "Ġlevers": 9128, "Ġinchworm": 9129, "Ġinter": 9130, "Ġapproach": 9131, "ĠTyler": 9132, "ssess": 9133, "Ġseagulls": 9134, "Ġpossess": 9135, "Ġcooperate": 9136, "ĠRufus": 9137, "ĠFelix": 9138, "ĠBoom": 9139, "welcome": 9140, "sers": 9141, "ragon": 9142, "?âĢĿ.": 9143, "andra": 9144, "Ġpose": 9145, "Ġdisappointment": 9146, "ĠSmoke": 9147, "ocular": 9148, "Ġspeaks": 9149, "Ġsneaks": 9150, "snap": 9151, "Ġbinocular": 9152, "Ġartwork": 9153, "Ġsurfed": 9154, "Ġscowl": 9155, "Ġanswering": 9156, "ĠSnake": 9157, "Ġshortcut": 9158, "ĠGrand": 9159, "Ġsipped": 9160, "Ġrobin": 9161, "Ġdep": 9162, "Climb": 9163, "Ġarrest": 9164, "ĠInky": 9165, "ssy": 9166, "Ġunwrapped": 9167, "Ġribbit": 9168, "Ġreun": 9169, "Ġamused": 9170, "ĠAmanda": 9171, "ugar": 9172, "Ġrepeats": 9173, "Ġpepperoni": 9174, "Ġapplause": 9175, "Ġkeyhole": 9176, "Ġcheckout": 9177, "ĠMae": 9178, "ĠCars": 9179, "Lia": 9180, "Deal": 9181, "Ġvisitor": 9182, "Ġstriking": 9183, "Ġpuppets": 9184, "Ġpaddling": 9185, "Eat": 9186, "Ġunz": 9187, "Ġcroaked": 9188, "Ġattacked": 9189, "ĠCircle": 9190, "orsie": 9191, "Ġspooky": 9192, "ĠOtto": 9193, "ĠGus": 9194, "Each": 9195, "Ġgroaned": 9196, "Ġbeautifully": 9197, "ĠBrian": 9198, "sie": 9199, "gar": 9200, "cidents": 9201, "Ġswimsuits": 9202, "Ġconsider": 9203, "Ġchecking": 9204, "uses": 9205, "ĠYellow": 9206, "jest": 9207, "Ġwaters": 9208, "Ġgroom": 9209, "ĠSqueak": 9210, "ĠSlinky": 9211, "yle": 9212, "Jenn": 9213, "Ġinvent": 9214, "Luke": 9215, "Ġnets": 9216, "Ġexams": 9217, "otion": 9218, "ets": 9219, "Ġdrying": 9220, "ĠRebecca": 9221, "udy": 9222, "artin": 9223, "agine": 9224, "Ġshrugs": 9225, "Ġlump": 9226, "ĠAuntie": 9227, "lest": 9228, "Ġsobbing": 9229, "Ġshyly": 9230, "Ġshoots": 9231, "Ġhonks": 9232, "Ġheels": 9233, "Ġcheerfully": 9234, "ĠSince": 9235, "ili": 9236, "hny": 9237, "esses": 9238, "Ġshh": 9239, "Ġchin": 9240, "anish": 9241, "Ġwhimpered": 9242, "Ġhealthier": 9243, "Ġhangs": 9244, "icious": 9245, "Milo": 9246, "ĠMus": 9247, "Ġcaterpillars": 9248, "izzes": 9249, "Slowly": 9250, "Ġsquinted": 9251, "Ġmagnifying": 9252, "Ġfries": 9253, "ĠRatty": 9254, "Ġfascinating": 9255, "Ġblamed": 9256, "ĠFind": 9257, "lers": 9258, "ulpture": 9259, "ching": 9260, "Ġsculpture": 9261, "Ġfrustration": 9262, "ĠTip": 9263, "ouched": 9264, "Ġshimmering": 9265, "ĠPenelope": 9266, "eat": 9267, "Ġposs": 9268, "ĠPeace": 9269, "edic": 9270, "Sharing": 9271, "Ġsuck": 9272, "Ġpleas": 9273, "Ġnumbered": 9274, "Ġnibble": 9275, "ĠWaffle": 9276, "othy": 9277, "ibbles": 9278, "ellie": 9279, "amil": 9280, "Ġflowing": 9281, "Ġbaa": 9282, "hings": 9283, "Pepper": 9284, "Ġraked": 9285, "Ġgrumbled": 9286, "ĠOff": 9287, "that": 9288, "Bubbles": 9289, "Ġbuilder": 9290, "racted": 9291, "Ġswaying": 9292, "Ġpetting": 9293, "Ġguards": 9294, "Ġfacing": 9295, "ĠWoolly": 9296, "Ġsprinkle": 9297, "Ġmysteries": 9298, "Ġdetails": 9299, "ĠHar": 9300, "sey": 9301, "Ġsnort": 9302, "Ġflock": 9303, "Ġenemy": 9304, "ĠBoat": 9305, "Ġtextures": 9306, "Ġtablet": 9307, "Ġgoodies": 9308, "ĠCurious": 9309, "ĠBarry": 9310, "Yesterday": 9311, "Ġpopping": 9312, "Ġwildflowers": 9313, "Ġstacks": 9314, "Ġmarve": 9315, "Ġfans": 9316, "Ġcrops": 9317, "Ġcountries": 9318, "ĠGracie": 9319, "how": 9320, "Ġknobs": 9321, "ĠTessa": 9322, "ĠSeeing": 9323, "Ġlocal": 9324, "Ġbushy": 9325, "Ġstew": 9326, "Ġpeeped": 9327, "Ġhunting": 9328, "Ġdrowned": 9329, "Ġbowing": 9330, "Ġbinoculars": 9331, "Ġangrier": 9332, "ĠBubu": 9333, "Ġmaps": 9334, "ĠMatch": 9335, "Ġquizzes": 9336, "Ġniece": 9337, "Ġmoonlight": 9338, "ĠGlow": 9339, "Im": 9340, "Ġoutfits": 9341, "ĠJohnson": 9342, "ĠDeal": 9343, "OO": 9344, "Ġwhoosh": 9345, "Ġweaker": 9346, "Ġwrench": 9347, "Ġmindful": 9348, "Ġcrowded": 9349, "cycles": 9350, "Squ": 9351, "Ġendings": 9352, "ĠBeef": 9353, "oll": 9354, "Ġproperty": 9355, "Ġhesitation": 9356, "Ġflashes": 9357, "amiliar": 9358, "Ġunless": 9359, "Ġimaginations": 9360, "Ġfond": 9361, "Ġcarts": 9362, "Ġboil": 9363, "Ġability": 9364, "ĠOxy": 9365, "ĠAndrew": 9366, "getic": 9367, "Ġglared": 9368, "ĠRight": 9369, "ĠAccidents": 9370, "stand": 9371, "Ġunfamiliar": 9372, "Ġspaces": 9373, "Ġmicrow": 9374, "Ġknit": 9375, "Ġhaven": 9376, "Ġfolds": 9377, "ths": 9378, "saw": 9379, "Tuna": 9380, "Ġresponsibility": 9381, "Ġdirtier": 9382, "ĠPet": 9383, "bank": 9384, "Ġpouch": 9385, "Ġmicrowave": 9386, "Ġdesks": 9387, "ibly": 9388, "Bless": 9389, "Ġcracker": 9390, "rnie": 9391, "Ġswapped": 9392, "Ġmember": 9393, "Ġdate": 9394, "Ġaston": 9395, "ĠOxygen": 9396, "ĠRing": 9397, "ĠRavi": 9398, "lt": 9399, "free": 9400, "Want": 9401, "Cra": 9402, "Ġwhine": 9403, "Ġsoftened": 9404, "Ġrebu": 9405, "Ġdoorstep": 9406, "Ġdisappearing": 9407, "ĠPeggy": 9408, "ĠHelen": 9409, "ĠBun": 9410, "Ġquacks": 9411, "Ġnatur": 9412, "ĠChip": 9413, "scar": 9414, "Ġwriter": 9415, "Ġlistener": 9416, "ĠToo": 9417, "ĠFix": 9418, "Ġpriv": 9419, "Ġblushed": 9420, "ĠSpicy": 9421, "venir": 9422, "Ġpalms": 9423, "Ġnoticing": 9424, "upt": 9425, "repe": 9426, "poison": 9427, "Ġsouvenir": 9428, "ĠPast": 9429, "repeat": 9430, "entr": 9431, "endant": 9432, "Ġlaws": 9433, "Ġdisaster": 9434, "ĠTra": 9435, "ĠRes": 9436, "ĠJean": 9437, "ĠGabby": 9438, "str": 9439, "reg": 9440, "Robby": 9441, "Ġphones": 9442, "ala": 9443, "Ava": 9444, "Ġconfidence": 9445, "ĠLi": 9446, "ĠCoal": 9447, "ĠCut": 9448, "ĠBert": 9449, "Ġtimid": 9450, "Ġstirs": 9451, "Ġoverwhelmed": 9452, "ingly": 9453, "Being": 9454, "Ġmayor": 9455, "Ġflick": 9456, "guess": 9457, "asmine": 9458, "Che": 9459, "Ġtugging": 9460, "ĠPretty": 9461, "ĠMole": 9462, "lor": 9463, "Ġuntangle": 9464, "Ġowls": 9465, "Ġmailing": 9466, "Ġinjured": 9467, "Whose": 9468, "Ġsatisfaction": 9469, "Ġconcentr": 9470, "ĠWhite": 9471, "ĠImmediately": 9472, "ĠBooks": 9473, "Fly": 9474, "ĠMarch": 9475, "ĠAnimals": 9476, "mers": 9477, "Sc": 9478, "Mittens": 9479, "Ġlim": 9480, "ĠEat": 9481, "this": 9482, "Mabel": 9483, "Ġprank": 9484, "ĠWonder": 9485, "ĠNora": 9486, "ĠBonnie": 9487, "Wiggly": 9488, "Ġhooves": 9489, "ĠTriangle": 9490, "ĠRun": 9491, "ĠPot": 9492, "ĠMelissa": 9493, "ĠKn": 9494, "well": 9495, "Jeff": 9496, "Ġfixer": 9497, "ĠStartled": 9498, "ĠSir": 9499, "ĠClean": 9500, "ĠClose": 9501, "icate": 9502, "Ġsnar": 9503, "Ġclut": 9504, "lish": 9505, "bling": 9506, "Excited": 9507, "Ġskies": 9508, "Ġinstrument": 9509, "ĠTrucky": 9510, "Ġcapt": 9511, "ĠMatilda": 9512, "ĠHorsie": 9513, "ĠFaye": 9514, "adually": 9515, "Ġdisagre": 9516, "Ġdesc": 9517, "iky": 9518, "Ġwriggled": 9519, "Ġstains": 9520, "Ġrinse": 9521, "Ġpecks": 9522, "Ġcreak": 9523, "ĠSleepy": 9524, "Susan": 9525, "Ġshave": 9526, "Ġbumping": 9527, "ĠSing": 9528, "ĠIcy": 9529, "ĠHeli": 9530, "ĠCrabby": 9531, "ulf": 9532, "els": 9533, "Ġswirl": 9534, "Ġruff": 9535, "Ġbending": 9536, "cessary": 9537, "Playing": 9538, "Close": 9539, "Ġsandpit": 9540, "Ġexploration": 9541, "Ġchatted": 9542, "ĠScissors": 9543, "Make": 9544, "Ġrods": 9545, "Ġlever": 9546, "Ġfacts": 9547, "Sm": 9548, "Ġattaching": 9549, "ĠCandy": 9550, "Ġfooled": 9551, "Ġburger": 9552, "ĠBro": 9553, "Ġglows": 9554, "Ġconcerned": 9555, "Ġclearly": 9556, "Maya": 9557, "Ġsalon": 9558, "Ġreversing": 9559, "Ġlava": 9560, "Ġcompan": 9561, "Ġcertainly": 9562, "Wally": 9563, "Ġsmelt": 9564, "Ġmotorcycles": 9565, "Ġfetched": 9566, "Ġcirc": 9567, "Ġtroll": 9568, "Ġtunes": 9569, "Ġsometime": 9570, "Ġprod": 9571, "Ġoldest": 9572, "Ġfireflies": 9573, "Ring": 9574, "Ġkissing": 9575, "Ġchallenges": 9576, "Ġblonde": 9577, "Kayla": 9578, "Ġwarmed": 9579, "ĠBobbie": 9580, "Ġunlocking": 9581, "Ġnatural": 9582, "Ġdifferently": 9583, "Ġbound": 9584, "ĠLots": 9585, "urple": 9586, "sa": 9587, "erg": 9588, "Tara": 9589, "Dino": 9590, "Abracadabra": 9591, "Ġriverbank": 9592, "Ġjig": 9593, "Ġdetect": 9594, "Ġcutter": 9595, "Ġcupcake": 9596, "Ġconquered": 9597, "Ġhates": 9598, "Ġalley": 9599, "ĠFlap": 9600, "sorry": 9601, "Ġswirls": 9602, "Ġsends": 9603, "Ġrealise": 9604, "ĠOpen": 9605, "ĠFlopsy": 9606, "ani": 9607, "Julia": 9608, "Isn": 9609, "Ġwiggling": 9610, "Ġsensation": 9611, "Ġrubb": 9612, "Ġmunched": 9613, "Ġbanging": 9614, "ĠCammy": 9615, "Ġtoppings": 9616, "Ġhippos": 9617, "Ġfist": 9618, "Ġclips": 9619, "ĠReliable": 9620, "Doctor": 9621, "Ġswayed": 9622, "Ġstings": 9623, "Ġrobe": 9624, "Ġmiracle": 9625, "Ġhalves": 9626, "Ġbrakes": 9627, "ĠGreeny": 9628, "Hope": 9629, "Fish": 9630, "Ġsurvive": 9631, "Ġostriches": 9632, "ĠPink": 9633, "ĠClimb": 9634, "ula": 9635, "keepers": 9636, "bert": 9637, "Michael": 9638, "Ġtorto": 9639, "Ġotherwise": 9640, "Ġembra": 9641, "Ġcrushed": 9642, "Ġbubbling": 9643, "Ġtents": 9644, "ĠLooking": 9645, "Ġrepairing": 9646, "ĠOf": 9647, "change": 9648, "Ġvinegar": 9649, "Ġstretchy": 9650, "Ġrubbish": 9651, "Ġlizards": 9652, "ĠWorking": 9653, "ĠFlicker": 9654, "Ġpassenger": 9655, "ĠEd": 9656, "aste": 9657, "Many": 9658, "Ġvibrant": 9659, "Ġtortoise": 9660, "Ġpounced": 9661, "ĠWhich": 9662, "Suzie": 9663, "Ġscene": 9664, "ĠRh": 9665, "ĠGrump": 9666, "gr": 9667, "Ġmooed": 9668, "Ġglided": 9669, "Ġdesperately": 9670, "Ġbas": 9671, "Ġsnip": 9672, "Ġpoop": 9673, "Ġmajest": 9674, "Ġintently": 9675, "Ġcopied": 9676, "Ġcalmer": 9677, "ĠSundays": 9678, "ĠLightning": 9679, "rap": 9680, "Ġwoken": 9681, "Ġtwel": 9682, "Ġrags": 9683, "Ġjudges": 9684, "Ġjoyfully": 9685, "Ġjing": 9686, "Ġcoolest": 9687, "ĠPer": 9688, "smelling": 9689, "Ġlectures": 9690, "Ġglob": 9691, "ĠJody": 9692, "lyn": 9693, "isible": 9694, "Ġhips": 9695, "Ġcousins": 9696, "Ġastonished": 9697, "Ġcapes": 9698, "ĠOutside": 9699, "uno": 9700, "Eww": 9701, "Ġsuccessfully": 9702, "Ġspeaker": 9703, "Ġreunited": 9704, "Ġinvisible": 9705, "Ġguesses": 9706, "Ġgooey": 9707, "Ġarrives": 9708, "why": 9709, "Ġtwelve": 9710, "Ġbats": 9711, "urity": 9712, "Mikey": 9713, "Ġgoodness": 9714, "Ġcomputers": 9715, "Ġchatting": 9716, "ĠCarla": 9717, "mie": 9718, "Ġstacking": 9719, "Ġsnowflake": 9720, "istory": 9721, "Ġreappeared": 9722, "Ġracer": 9723, "Ġpounds": 9724, "Ġparks": 9725, "Ġdesperate": 9726, "Ġcompanion": 9727, "Ġcommun": 9728, "Zigzag": 9729, "Ol": 9730, "Ġluckiest": 9731, "Ġlevel": 9732, "Ġdou": 9733, "Ġank": 9734, "bed": 9735, "Ġtale": 9736, "Ġstomachs": 9737, "Ġsells": 9738, "Ġgall": 9739, "Ġdumb": 9740, "Ġcrickets": 9741, "ĠSugar": 9742, "Nick": 9743, "Ġwinds": 9744, "Ġsus": 9745, "Ġgates": 9746, "Ġdisobeyed": 9747, "Ġdisagreement": 9748, "ĠSteven": 9749, "hile": 9750, "More": 9751, "Ġpearls": 9752, "Ġhoses": 9753, "Ġcrisp": 9754, "Ġawhile": 9755, "ĠWhee": 9756, "ites": 9757, "Lou": 9758, "Ġsoda": 9759, "Ġpopsic": 9760, "Ġloyalty": 9761, "ĠOrange": 9762, "Linda": 9763, "Ġtongues": 9764, "ĠRosa": 9765, "usion": 9766, "rent": 9767, "Ġrider": 9768, "ĠCD": 9769, "Ooh": 9770, "ĠBlack": 9771, "pan": 9772, "Ġsurely": 9773, "Ġabo": 9774, "ĠLaw": 9775, "ĠAnnabelle": 9776, "colored": 9777, "Ġoccasion": 9778, "Ġbund": 9779, "rum": 9780, "izza": 9781, "dog": 9782, "!âĢĻ": 9783, "Ġstun": 9784, "Ġguitars": 9785, "Ġchicks": 9786, "chief": 9787, "Ġseparating": 9788, "Ġseashe": 9789, "Ġrebuild": 9790, "Ġintelligence": 9791, "Ġalligators": 9792, "Ġaboard": 9793, "ĠRaven": 9794, "ĠIron": 9795, "ĠApril": 9796, "Found": 9797, "Ġcroak": 9798, "Ġcreep": 9799, "ĠWinky": 9800, "ĠViolet": 9801, "aids": 9802, "Something": 9803, "Catch": 9804, "Ġlearner": 9805, "Ġcaution": 9806, "Ġcuc": 9807, "ĠOld": 9808, "ĠCare": 9809, "solut": 9810, "Ġwhines": 9811, "Ġspiky": 9812, "Ġrevealing": 9813, "Ġrins": 9814, "ĠUni": 9815, "working": 9816, "Ġtickling": 9817, "Ġexplod": 9818, "Ġescap": 9819, "ĠSettle": 9820, "Ġunderwater": 9821, "Ġglobe": 9822, "Ġcrouched": 9823, "ĠRoar": 9824, "ĠCoby": 9825, "ĠBa": 9826, "udge": 9827, "everse": 9828, "anne": 9829, "!'.": 9830, "Ġprog": 9831, "Ġblooms": 9832, "Ġappearance": 9833, "Ġ''": 9834, "urricane": 9835, "stop": 9836, "seph": 9837, "ifer": 9838, "fived": 9839, "Ġstrokes": 9840, "Ġleaking": 9841, "Ġhatched": 9842, "Ġguardian": 9843, "ĠSocky": 9844, "ealing": 9845, "arning": 9846, "Ġzookeepers": 9847, "Ġtant": 9848, "Ġroutine": 9849, "Ġpersistence": 9850, "Ġdoves": 9851, "Snap": 9852, "Sleep": 9853, "Chicky": 9854, "Ġtaps": 9855, "Ġsquashes": 9856, "Ġquilt": 9857, "Ġpainful": 9858, "Ġlighting": 9859, "Ġblame": 9860, "Ġadmit": 9861, "ĠLu": 9862, "net": 9863, "Toys": 9864, "Ahh": 9865, "Ġtempting": 9866, "Ġshattered": 9867, "Ġripp": 9868, "Ġmold": 9869, "Ġdeeply": 9870, "ĠPuff": 9871, "ggles": 9872, "Three": 9873, "Ralph": 9874, "Matt": 9875, "Jan": 9876, "Ġthrone": 9877, "Ġsquirted": 9878, "Ġsecurity": 9879, "Ġpeeks": 9880, "Ġelectricity": 9881, "Ġcentre": 9882, "Ġburgers": 9883, "ĠSpin": 9884, "emon": 9885, "con": 9886, "Ġrealizing": 9887, "Ġcooks": 9888, "Ġallowing": 9889, "ĠLiam": 9890, "ushes": 9891, "orth": 9892, "oss": 9893, "dest": 9894, "cker": 9895, "Jessica": 9896, "Ġlar": 9897, "Ġexchange": 9898, "Ġchopping": 9899, "Share": 9900, "Sophia": 9901, "Ġsweetly": 9902, "ĠRace": 9903, "ĠQuickly": 9904, "ĠAlf": 9905, "vering": 9906, "Ġsweeter": 9907, "Ġrinsed": 9908, "Ġglittered": 9909, "isapp": 9910, "Zero": 9911, "Sw": 9912, "Ġmelts": 9913, "Ġmelody": 9914, "Ġgoggles": 9915, "Ġfurious": 9916, "Ġenergetic": 9917, "Ġdefeated": 9918, "Ġbuilders": 9919, "ĠInch": 9920, "asy": 9921, "Ġwaded": 9922, "Ġtantrum": 9923, "Ġsniffled": 9924, "Ġchooses": 9925, "ĠOtherwise": 9926, "ĠCats": 9927, "ĠComet": 9928, "Ġcontainer": 9929, "Ġcompeting": 9930, "ĠGiant": 9931, "eremy": 9932, "bang": 9933, "ĠSharp": 9934, "ĠMila": 9935, "arted": 9936, "Ġundone": 9937, "Ġseriously": 9938, "Ġprotection": 9939, "Ġlarger": 9940, "Ġlull": 9941, "Ġhudd": 9942, "Ġattempts": 9943, "ĠRara": 9944, "ĠPark": 9945, "ĠDuke": 9946, "Shoo": 9947, "Lizzie": 9948, "Ġtossing": 9949, "Ġhelicopters": 9950, "Ġcooed": 9951, "Ġcluck": 9952, "Ġbuckles": 9953, "ĠWhale": 9954, "ĠPinchy": 9955, "ĠCher": 9956, "Sweet": 9957, "ĠTears": 9958, "ĠSmo": 9959, "ĠOver": 9960, "solutely": 9961, "Still": 9962, "Squeaky": 9963, "Ġhummed": 9964, "Ġdedic": 9965, "Ġcourageous": 9966, "ĠMa": 9967, "ĠHor": 9968, "ĠDin": 9969, "eek": 9970, "Maddy": 9971, "Everything": 9972, "Curious": 9973, "Ġracers": 9974, "Ġpatients": 9975, "Ġmuster": 9976, "Ġgod": 9977, "Ġdeserves": 9978, "Ġaloud": 9979, "ĠThings": 9980, "aps": 9981, "Use": 9982, "ĠSquee": 9983, "ĠDragon": 9984, "Ġtours": 9985, "Ġmeets": 9986, "Ġmarvel": 9987, "ĠRusty": 9988, "ĠLiza": 9989, "ĠJet": 9990, "Froggy": 9991, "Ġwrapper": 9992, "ĠReddy": 9993, "ĠHops": 9994, "ĠCrusty": 9995, "Ġwhiskers": 9996, "Ġnicest": 9997, "Ġimproving": 9998, "Ġbooth": 9999}